166c
0ec0
136e
0ffd
0a9a
11dd
0b53
0e28
0915
0aa3
1494
0857
11b6
0ca0
105b
100e
0c9a
0de7
1105
0d9e
0830
1092
0dc6
0ae7
12d2
146c
0bd6
0ba9
179b
0a7f
1516
08bf
0f3e
15c6
0f8e
0e27
10af
14c1
0fae
126a
095c
0b12
08ef
0dbb
0c9c
17db
14f0
0f3c
0b73
1230
1573
112e
1021
110c
0df7
1546
1048
14ec
0da4
0f56
0e4d
1543
0e9c
14c7