ffee
fe71
ff23
0012
ff7a
00b1
011b
fe28
fe62
ff1c
ff43
fea5
001a
ff2d
014d
fe84
004b
fe3a
0077
01a2
0136
0189
013d
ffbd
ff50
ff77
ff40
ff36
ff40
0143
fe93
fecb
0031
ff0c
0044
ffab
0109
0175
0152
0185
001b
00b2
ff73
0051
fe7d
fffb
fe55
0027
fe86
0119
017b
fe4e
0130
0174
00b0
ffdf
ffea
006b
fe81
ff0e
ff4e
012e
00be
004b
00d4
ff37
0141
fee1
ff10
014f
ffa1
0157
0074
fee3
006e
ff16
0096
feba
010e
ffb0
ff45
0025
fefc
0156
ff0c
008f
fec8
0024
fefb
0096
013c
ff39
ff3d
0090
017e
ff0b
0092
017a
ffa2
ffb9
00f8
ffd1
ffcd
004a
0153
fe76
fe4a
017f
ffe8
000a
0127
015f
ffca
fec1
0172
ffad
ff8e
ffdb
0161
00d2
fe87
ffda
00bf
fe99
014a
fe4a
0179
00fa
ff59
00a4
0165
fef2
fe98
fe9f
fdd6
00d0
fece
0148
0160
ffa8
0113
01b7
002c
fed6
fe52
ff54
fee6
ffaa
00b8
01c2
fe25
ff8b
0068
ffb8
ff59
0019
febd
01b6
fee2
ff04
012a
0170
ffb3
ff2b
ffb6
fea7
ff9f
015f
0026
ffea
0034
fea7
feaa
0068
0044
ffe3
ff01
fe5f
fe4b
0083
fe52
ff07
00a5
0100
0036
00e6
fe77
ff27
ff54
0117
00d5
fe88
ffe9
ff19
0041
ffd0
014b
0028
feed
002e
0087
ff3b
0137
0124
00f9
0163
01a3
0101
ff97
fefb
ff87
00df
0056
0042
fe5d
fefa
ff01
00f8
ffbd
0031
0124
fe85
ff56
013d
ff6e
fe7e
00fd
febb
fe92
ff48
0177
ff3d
ff7a
0092
ffa4
0063
ffc4
0006
ffb3
00e3
0057
009f
008f
0009
ff03
00c3
ffbb
0150
017e
00c5
0157
00db
ff23
0086
0199
ff9c
0052
005b
0094
0009
0151
fee7
0139
fedb
0102
00d5
fe40
005c
013f
ffe7
01aa
ff50
ffa5
fe2b
febd
00dd
fffc
ffc2
016e
00fc
00c2
ff4f
ffe4
010e
ff0d
0083
00bd
0184
00e6
007a
feef
ff5a
00a8
009f
0005
feed
0157
0027
00ef
feb1
005a
0094
ff97
ff48
0026
ff49
011d
fef9
0015
ff80
0020
0009
002d
feb0
fe7a
ffc2
ff9a
ff69
ffcb
fe5b
fe96
0121
00e7
005f
feaa
fea9
ff46
0045
ff8e
ff5c
feca
fecd
ffeb
0023
0083
ff35
00a8
007c
fe80
fee0
00b4
002e
fe97
fecb
ff99
0076
01ae
0026
fffc
00ab
003d
ff42
0088
00e3
009b
ff9b
ff56
00b0
00d3
0064
ff95
ff16
00b9
ff1a
ff23
fe75
ffe3
fe9b
0062
fe97
fedd
0152
ff97
003c
febf
ff4e
0151
fe98
0012
0053
ffed
ffb2
ffa9
fec6
016a
ffa7
0069
0023
00dc
fedd
0050
006a
ffd5
012b
ff4c
0164
fe3c
ff77
0077
0102
004b
016b
ff2d
0048
001d
ffa9
0052
ffe4
ffe3
fe86
018f
005a
00a5
00a4
fec6
0141
00b7
0117
febc
ffa9
0010
00cf
0112
00cc
005f
fe72
0132
fe97
ff19
fffd
0068
00fe
0113
ffb3
ff85
0046
ff61
0074
fea5
014a
fef3
ffff
fe60
ff58
00c9
ff64
ff75
fedb
ff94
007a
ff22
fe55
0030
011f
ffca
0177
ffbc
003b
ff0d
ff47
fef1
00b2
fe59
001a
00b2
002d
fff0
000d
007b
0079
fff5
017d
fee4
00cf
0045
ffc8
0152
fe28
011e
015b
ffbe
fefb
ff9d
ff12
ff26
0147
00f6
ff27
015e
00bb
ff57
ff6e
00a7
ffee
ff33
ff45
ff92
016b
fecd
0039
0127
003a
0066
ff10
00a4
ff30
0161
0048
fea3
ffa2
fe22
ff7f
003e
0125
feaf
ff53
ff77
fed7
00c4
0008
fefd
00a6
ff5f
fece
fe96
fea1
012e
ffc8
ff26
ffdd
feb6
fe49
fea4
ff30
feba
009e
ff4e
0065
0000
00a1
ff5c
002b
0209
fef8
ff75
ff28
0068
ffdf
fe6a
00ec
ffa0
fe8d
ff4a
00aa
feb3
0171
0158
ffbb
00c4
00c4
febe
ffdb
01bb
ff73
0194
000a
fff3
ffe7
01aa
ffdf
ff95
0141
01a5
009c
fe7b
006e
ff05
ff3b
0176
ff43
fff2
01b1
0126
fef8
005b
0050
0126
ff5d
fe71
0191
00a3
0094
00d3
fe9a
fe7d
003c
ff5c
ff6e
feee
017b
0045
005a
010e
ff5d
01a6
fe8b
fee6
ffed
0127
fe4a
fece
0071
0190
ff04
017f
ff33
00b3
ffb6
018d
015c
ff94
fe82
00cd
ff30
ffb1
fee5
0046
0136
0044
fea6
ff70
ff5e
0018
fe7e
0125
ffc0
ff33
0020
ff44
ff33
