0011
00fc
fd5e
0080
0101
005a
00d2
fe60
ffc6
ff4c
ff9b
0266
ff95
fe7c
ffe5
0147
ff97
0271
0169
014f
0181
feb1
fe06
fe33
fe3e
00cf
01aa
ff04
0063
00f1
ffed
fe9d
02b2
ffdd
009b
009e
ff6a
020d
fed8
ffd1
ffce
0220
fffc
fea6
0071
0235
ffee
fdad
027c
0068
018e
ff3d
00bf
fe2e
fd57
01f6
028f
00b2
fd29
0183
fe27
feca
000d
0182
fe11
fee9
fd3b
fdc9
0262
0082
fe65
ff2e
02ce
00d3
fe15
02ea
0315
ff69
fcf0
01f0
ff47
01b4
ff81
0115
0126
fec9
011d
ff29
0092
fe03
fdfa
022e
ffa1
0049
fe5c
ff47
01f7
fec9
01b2
00e1
feae
fd74
feaf
0049
fe25
0089
013b
00df
0082
008b
fe21
fe0e
0224
00db
01a6
fd49
ff1f
02b9
01ba
ff05
ff30
ffb9
fd54
fe0e
fea4
00db
00f3
00ab
01a8
fdcf
fe59
0139
01a9
ffdf
fe3c
ff9e
ff16
005e
0005
ff2b
fe5f
fffc
fe24
fdd8
ff9a
feb6
fe06
fdbe
00ef
ffd1
007d
fec0
0107
012b
ffc4
0044
01b1
feee
ff38
ff07
01ba
005e
007a
feff
0129
0011
0056
ff6b
01c5
fedf
fef7
0107
ff2e
fe8a
0151
ff30
00f5
009e
0002
feae
0029
0159
fe95
fe55
0146
feae
ffdb
02b2
ff72
022e
0052
fe75
fdad
fea5
fef2
fed2
011e
00da
fe78
00e7
01e5
fe20
01f6
fe1b
008b
fe48
0115
ff6c
feec
00de
fea0
fdf1
005e
0110
010e
019f
0141
0177
00cb
00ce
0042
fd43
ff7c
00a5
fed1
fec2
01a9
fea4
ffc6
ff03
010e
001f
ff9c
014d
fd24
0153
008a
0049
ff13
fda8
fdbc
fed4
ff68
ff80
0206
005c
00ec
ffcd
fdd3
00e1
00b4
01fe
00ab
0213
00d5
ff87
ffd7
025b
01b5
ff25
0177
fe35
01ca
0179
013f
006e
fd52
00e2
000c
fec7
fda5
fe80
01e0
02b2
00d1
023e
ffcd
01ed
ff4b
0180
00ee
01af
ff40
ffb4
ffbe
fe05
ff1c
fe9d
ff2f
fda4
00fe
018c
ff27
006c
017a
ff5c
fe40
fd32
0241
fdba
fd07
feb9
fe11
ffc4
017c
00d2
fe04
fdfc
fe22
003f
fe12
fe3a
0070
0185
02d1
fee8
021a
fe47
003f
fee9
fec3
00bf
011c
fec9
00bd
00f5
ff8a
fd9c
0128
01b5
0039
fd85
01a0
001e
ff7a
fddc
ff35
002b
ff07
ff6a
ff53
fdfe
010b
ff7f
ff4a
ffa9
01dc
0129
01c3
0114
fecc
ff70
01ab
ff40
003a
00cc
00f2
012b
01f0
fef4
017d
ff31
006c
fe4b
00cb
fdc8
000a
012a
0020
024c
00f5
0240
ff51
00ce
0256
0125
01ff
fdf4
004e
ff85
02e7
01ac
ffe0
fe58
00ef
0016
ffa4
0217
ff26
01e5
012c
015f
fe04
028f
006d
fe69
014b
fe1e
fee0
0129
fea3
fe46
00ae
00a0
024d
01f8
fcae
ff3b
023c
0167
02b1
ffb8
01bf
024c
01e6
fd6c
feca
fdd6
01cf
ffd0
fedc
fd6e
fde7
00f8
ff07
0163
feb9
ff04
ffc3
fdcf
021c
fec3
0106
012a
0209
0054
fdfe
fd6a
ff80
fdb2
fee2
0093
fec6
0003
fdc5
ffc6
fd92
0258
ffaf
001f
febe
01ae
fe4f
fed4
0256
fded
fdf0
00df
0224
fec8
fdc6
022e
0041
004d
017a
0368
ff2b
0193
fe2a
ffea
0203
fe28
ffea
fdcc
0192
0142
ffdd
0043
00dd
00f1
0103
fe4a
028a
fd91
00fb
fee4
0063
0113
fd37
fdc2
01d6
02e3
007c
ff2b
000a
fe37
ff43
fdaa
fe71
febb
fda5
016c
ffc1
00cd
fefa
ff15
ffe6
0228
ff14
02b4
027f
0229
fe01
fe33
fefa
014c
00ef
fe7f
01b8
000e
fef7
ffb1
0149
0082
00e1
ffd3
fd9a
0210
0032
fe92
0071
fdd4
0091
01a4
ff20
0157
0050
fdc0
029c
006a
0218
fef4
fdf4
0143
006a
fdc5
fe4a
019a
028e
008c
ff8b
fdd2
ff31
001c
01a0
01c2
fe87
feb3
0171
ff98
022c
0153
01f9
0223
002a
fdc4
00bd
fe50
00d2
ffab
0048
fe40
0073
fe0a
008b
0089
fe71
fdb2
01b3
ff7d
feed
001c
013c
0244
fe64
0129
fdd8
fe6b
0006
0129
0079
01e4
017c
fedc
fdad
0278
feae
02a1
fe68
0343
0311
ff46
029f
fde1
004b
ff9a
007e
fe30
ffcd
fe38
fe62
008c
ff2e
ff35
fe98
0085
026e
fdf2
0191
feb7
00f4
febf
fea6
0229
0144
ff34
02b7
0140
0228
00b1
fef3
fdd7
fed0
ff93
ffdc
ffde
fe56
021f
028a
00a4
01e6
015c
01f5
fd66
ffdc
ff73
01f6
fe26
ff02
00ab
fe0a
00ff
008b
002c
fe79
0049
feef
ff9c
010b
ff19
0180
0062
ffe2
00a2
00ca
01ef
0104
007f
006d
0063
ff31
00e6
00ca
fe74
ff2f
fffa
015c
feb1
ff34
ffc1
fe74
ff37
ff82
0051
01a8
016d
fe1f
007c
019d
fe01
00f1
fefe
ff59
fd4b
0025
0055
fe99
0214
fe96
00d5
ff72
01cf
0154
fe7c
fe40
01b3
0240
0258
0039
0131
fee9
feb8
01c2
fe41
00a5
ff2b
ff3d
ff9f
017f
ffcb
0215
00e1
01c8
fe81
0033
010b
ff9b
fd74
ff3c
00ad
fe54
01c3
fd34
000e
00b4
fe90
fcf3
00b8
fd82
024e
0161
fcd4
01de
fee2
ff17
fe51
fea5
0129
015d
fea1
ff00
fdd8
ffb5
ff0b
ff26
ffdd
fd59
00fe
01d0
01cd
fe9f
ffd2
017e
fef3
00fc
ff4e
ff0e
fe01
0041
fe83
0023
020c
ff53
ff8b
fd1f
ff52
0150
ff85
fee3
fe69
ff07
0050
fd8c
fe6e
fedf
fef4
fde6
ff9b
00d9
0093
0180
0052
00e1
00eb
fd9f
01d8
0007
fd3f
0121
0200
ff45
02d7
fec7
0167
fd73
fe08
fd53
017e
ff4b
0144
01be
ffce
fd8e
febf
011c
fea3
fdc1
ff16
01cb
ff0f
ffa7
fdc1
fe96
010b
fe14
01cb
0234
0043
0094
fd2d
fe88
0236
015e
0259
0162
fdd4
fe38
0031
fdb3
fdca
0278
ffcc
0218
fe76
01d8
fe7f
024e
01a6
ff60
ffa3
02b8
0047
00d3
015d
fdb0
0103
feed
0273
021c
ff67
000e
fe72
fd87
fdce
ff8c
fee9
0249
0063
005b
013a
fde2
fe11
fe5f
0095
fe73
021a
0201
fed3
fe81
0088
01b5
0080
fd7e
0155
005c
0000
ff91
017f
fe67
007d
fd21
0099
0047
0147
0161
ff32
fe6a
012f
002a
fff2
008c
020f
ff6e
0216
fec2
0086
ff64
0262
00d7
ffb3
fd60
ffc8
ff0d
010a
0008
fd69
0107
fe48
017e
ff61
ff91
028e
fd3b
fe8c
025b
fffb
fd8d
fd53
00c8
ffe2
0284
0120
0249
00c9
0067
feb6
feb0
00f8
fd6a
0343
fe78
fd9d
006c
005f
00de
014e
0228
fd5b
02ba
fe1c
007d
ffdb
ff2d
026a
00f3
0163
0012
ffcd
fc92
ff1e
fe96
fe6b
fed0
ffb4
01f2
016c
010a
fe72
ff81
01f0
ff7a
fe05
fd30
fda6
fea6
0086
feaf
ff2a
00ac
017a
014b
fde8
ff81
0124
ffd9
010f
007f
fe77
ffc7
00f8
fe22
011c
ffb5
019a
fe01
ff1a
ff88
00db
fe7d
ff6c
0000
ffa0
fe88
026d
ff1d
fdea
00a5
fe0b
01b8
0054
0026
ffa9
feba
016e
fdea
0068
00b2
00a0
0103
fe0b
ff08
01ab
fe83
00ab
ff68
016c
02cf
ff95
ff41
fdf1
0248
fe5c
fe6a
ff9e
fd43
0158
fe3e
0293
0230
0031
fff0
fea3
fde4
fffe
ff5b
00c4
ff1d
0113
fef5
0047
ff56
fdeb
ff2f
ff68
ff08
00bd
0101
01e1
0158
ff5e
ff62
fdb0
ffe0
ff63
fff1
fe45
ff6c
014a
ff4a
0258
fe98
02d9
0098
0113
fe55
fcac
01b0
ffec
015f
02d0
ffca
02df
0031
00d7
0268
0238
0175
fd6e
fdd3
0233
fe48
fd7f
0205
fd90
ffaa
0100
0237
01ef
0120
009c
ffc8
0061
005d
ffe0
fd4c
014a
ff7a
fe19
fee6
00ae
014c
01eb
0130
0190
fe64
fd9e
fd77
ff33
010c
00b1
fed6
feee
fdf6
fe01
fe0d
fe90
005f
01b3
01e4
023a
01c2
01d0
010b
011a
fe89
0128
fdfd
fe14
fe74
ffa6
ff33
ff6a
0074
ff7d
010d
ff4b
0003
015c
0172
fe97
01b0
00ff
ffff
ff98
00d6
fea3
02eb
0150
0190
0197
025b
fe91
002b
fdee
fedf
fe3d
012e
fdde
0122
00d1
ff9e
ff39
022e
fe62
feec
fe3b
ff59
fe1e
fdee
fe32
ff84
01f0
fe20
fdd5
fe66
00b4
fddf
01b8
007c
ff27
0105
0192
fe7f
010b
0091
0052
fdf6
ff7b
ff74
01aa
00b6
fff8
febe
fe24
fdb6
0002
024e
0204
0279
00aa
0002
0086
0164
025c
ff6e
fec7
fe7c
01eb
02ec
fdfd
0038
fdf6
fd89
ff6e
0098
0012
ff04
fd3f
0172
febc
0018
fd5d
fea1
fd1b
fe19
ff10
0060
ff05
ff37
ff50
01ef
ffb6
fe36
0092
00ed
0209
fe10
01a8
fdb2
fd4a
ffef
fe58
ff77
fe71
0055
ff60
ffe0
00d7
0202
00c2
fe0b
01aa
014a
fe52
fe8e
0114
febe
ff6e
0070
fdf4
fe97
fe2a
fdc7
fdaf
01a8
01c9
02c4
ff2d
ff5b
0010
fe26
0161
fe80
ff73
0296
ff57
ff01
fe58
fece
0080
ffbf
003d
fff2
fd7f
ff3f
0149
ffe5
fd92
fe95
fe79
01f3
fe08
01d9
ff9d
0070
ffec
01b9
fefe
0133
fe78
febb
ff4b
ff88
fe33
0157
fddb
ffba
006c
ff1c
01cd
0155
ff7f
00c9
fdfa
fe52
ffde
00f6
0096
003a
005a
01ce
fe29
fdda
fd95
ffcb
fee6
020d
00b5
fe3f
01d4
ff2c
ff6f
ffdd
0129
ff95
ffad
0225
011f
0079
00b4
01a1
007b
00a0
02b1
0276
fd37
02a3
027a
feba
fe11
01d6
ff68
0272
fdce
0190
01de
01f3
feb7
024e
ff4c
00d1
01ee
fe4f
fed8
febb
ff7a
0039
ff4e
ff80
01df
0131
ff93
005a
fe66
fef2
ff2a
fd97
ff45
00f8
013d
fec1
01d7
0113
fd17
0019
01d7
ff67
00ac
feea
019d
00d0
fe71
0029
fd52
fec4
fdd2
ffdf
fd2e
018f
fef9
0175
0141
ff54
01af
0295
000c
00c6
fcb5
0010
fe51
fd26
fdb6
fd89
018e
feff
fe30
021e
ff85
ffae
026a
fef9
0164
ff12
ff34
fe0b
0081
00c8
fd6b
fe04
01a0
fdf6
00d7
fed4
ff3e
027c
fd95
021d
0095
fddf
0281
021b
01a9
0151
00ef
008d
0252
0041
0190
ff8b
fe3a
0004
02d8
fe29
00f9
0162
fd97
021a
0107
fdb5
fd05
0114
fd2f
fe9d
fdd7
01b1
ff60
fed9
ffc6
ff46
003c
0043
fd66
0117
ff21
fd5a
feb2
027b
fdd3
0068
fe91
0194
010c
01f2
ff32
fdeb
fed6
0148
0174
025d
0186
0055
0140
ff09
01ed
0070
fda6
0156
0051
0162
0168
fea6
ff8d
ffc6
007b
013e
007d
fddc
0221
01a1
0025
001c
fd64
fe4b
00ae
fe05
001b
00f6
fd83
01f6
00bc
02b2
ff66
fec9
fff3
fdec
fe47
fdda
fe18
ffd2
02b3
ff13
0263
0344
026f
0243
ffea
ffd4
fecf
01d9
fe28
fdc2
027d
014c
fe52
fdee
fd97
02c1
fdf7
ff17
ff49
01cb
000d
fda4
ffcf
01f0
00c3
ffae
0000
009f
ff3b
01ae
004d
0039
0109
0026
016e
ff83
002c
0082
ff1d
01d1
fd9f
02b6
0335
fdd8
fd75
0069
fd7b
fff8
fdee
001e
ffd3
ff01
0228
019d
feb6
ffd3
ff75
0143
0155
0210
fe06
00c3
0187
0195
009d
fdbc
009c
fe3a
ff36
ff89
013c
ff27
ffb9
023a
fe88
0105
ff3a
ffcc
ff88
007d
ffe8
0062
0121
fe12
ffa4
02af
ff6f
ffa0
029b
00e3
00e1
01cf
01ef
feca
fe25
00e3
00df
00a0
0192
0216
0047
01a0
fded
feea
feab
ffe6
018e
ff10
fdb1
fe63
ff5c
000c
01cc
004d
fde0
fe4f
fd11
00b7
fdf3
01da
015a
fedc
00d0
0087
feca
fec0
ff6a
fef0
fe8b
feb4
0184
fe88
fe7f
fe6f
fea3
028c
00ed
0185
ff60
0018
ff75
ff8a
01cb
ffda
005d
ff1f
ff80
ff27
0199
ffe5
00fe
0163
fe04
005a
fe26
00fb
00a2
0058
fdd6
0193
01b1
fec8
010b
00ff
0053
01a8
0185
ffa7
ff05
ff45
027a
02fe
018f
fe9d
fecc
01ea
ff5e
0113
003e
0255
feb3
ff5f
00bc
00b1
0177
fffd
ffe8
018e
fefd
fe5e
ff65
0147
fe80
0172
ff25
0002
fe26
fdf8
fe82
00b3
fe58
015e
0132
0052
016d
fda2
fe45
ff2a
fe54
ffa8
fe33
ff7b
0030
01ce
0108
00f7
fe10
0120
009f
00f6
fe35
001a
00e8
0061
002d
0238
ff35
018d
ff80
01cf
0027
00a9
ff1b
ffa1
fef5
ff2c
feed
00f9
fe03
001b
014a
fea6
fe54
0131
00a8
fe64
ffff
014b
fed3
0002
fd9e
01ba
fec0
0083
fe4e
ff5b
0089
023c
01e6
01b6
ff06
ff09
00c3
fe27
009a
ff9a
0163
0116
fe84
ff15
0128
0101
fdee
00a3
fe6d
fed0
fede
01c4
01dd
ff2a
006e
01a8
0199
018c
feb7
0197
fe2e
feb0
fed4
fed1
006a
0236
fe8d
01ab
004c
00fb
024a
00b2
ff0d
007f
ffc6
fed8
fdf3
01a3
ff47
0257
020f
02e1
017d
0015
003c
fe88
ffe6
fde8
00d3
003a
ff83
fe00
fe62
fcee
0019
ffa9
fd12
02ba
fd01
01be
01c0
fdea
00fe
fd97
015c
00fa
0049
ff70
0110
ff6a
006c
00af
031b
fe14
fdaf
ff31
ff7c
01c6
fe8c
fffc
02ad
000e
fef7
0027
017b
ff0c
0049
ffbb
febc
fe66
fe98
00a4
0105
fe0e
004b
0070
ff52
fce7
fd35
ff09
016d
feb8
018a
0390
fcc9
0185
0145
ff89
00a1
0042
fe6f
0190
feda
feb3
fe0c
fdff
0091
0015
0210
fddc
01eb
ff00
00f8
0215
ff30
fe42
fe08
008b
01a7
fe89
fde4
00b6
00d2
fe56
0072
ff54
01bb
fede
009b
fe0d
fe91
0116
0214
0128
ff08
011b
010a
019c
016e
0257
00c5
fef9
ff8b
0050
fed1
fee6
004e
ff55
0177
fe31
fefa
01c9
0000
017b
feec
0159
fe49
0025
003d
01e8
0169
ffd6
fe0c
ff15
fe5e
fee1
fdef
02c3
ffbb
fe91
ffb3
0029
ffd3
00de
0302
fd67
fec5
027a
01a1
03a0
00f5
fd7b
0193
00c1
ff48
020c
025a
ff11
002f
fe2d
02a8
fe74
ff9e
02f2
ff75
fda9
fe1b
fe02
fd44
00b0
0246
00cb
ffd5
ffd3
0212
014f
02ee
00c9
ff34
0098
fdda
ff97
ffc7
008d
0184
ffb2
01d5
00a0
fffa
ffee
ff90
005c
fff3
fdca
ff2c
fe9b
00b5
fe27
ffc7
fef0
0254
01ef
fe6a
0176
007e
ffd8
0102
fe78
007b
00ae
fde1
fe06
010b
000f
01f0
0188
fec3
feab
ff9d
feb7
028a
00c9
004c
002b
0110
fea7
016f
000a
0147
ff4e
fdf9
ff9e
ff7e
022b
0001
00e7
001a
ff26
fe73
ffbf
0253
ffb9
fda4
009c
00dc
fed5
ff74
0234
ffed
007f
febc
0121
ff3e
0226
0125
0112
ff96
01a7
0209
ff6a
fdd1
01e1
ff65
fe1e
00fa
fdc5
feba
00e8
0024
00b0
0192
0085
00c3
00f1
fe9e
fefb
fe1b
fe2e
0191
027f
00f6
fff1
022f
fe69
fef5
0150
02ea
fecd
ff7d
ff4f
0049
0187
00f8
ffd3
0004
00c2
fdbd
00f8
01dd
006d
fdef
fdbf
01d8
ff8f
ff15
fed7
fec6
015a
012e
017e
ffb7
002b
ff72
ff85
fe0c
feb5
ffd2
0211
01e0
fef9
fdfd
ff99
01ff
ff01
0119
fe14
ff29
01ee
01b1
0112
022b
fe9d
ff46
018e
02f1
0333
01af
fe8b
01ac
00bb
fffe
fd42
00b8
fdcd
fea9
01c7
006a
013a
003f
02d5
0210
ffc0
0004
ff59
0121
015d
ff3d
00dd
fff6
0291
feb8
00b8
01c6
01cf
008d
00f8
fe82
fce4
ff2f
00b8
fe51
02cf
fe45
fe60
fff1
002d
0262
ff5d
01ae
fd32
01f5
fe99
fdba
02bd
fec3
018b
0047
fef2
ff4f
01bb
ff91
0213
0151
0102
fdaa
fe82
00db
ff67
fed1
ffcb
01d7
01ff
fe70
fda4
021c
0130
0185
fe3a
fe2b
ff6a
ff04
0194
ff38
00cd
0209
011e
0179
febb
002f
fe70
00d7
ff72
ff63
0278
ff78
ff1b
0243
fe50
ff6c
0021
fe5f
005a
013f
ff10
014e
01c6
005a
fff7
fef3
ff7a
ff4c
01f2
ff06
fe37
ff3f
feaa
fe76
ffca
ff74
0036
fe9f
0117
ff18
00a5
fea9
013c
fe31
01ec
0181
fff9
0023
ff3c
fdcb
ffef
026e
ffbc
0238
00a1
01c2
0175
fe2a
fe70
016c
fefd
fe18
013a
ff3a
01d7
febe
ff84
00b3
fec7
fea3
002f
fef6
fe76
ffc9
0071
00cc
ff0a
01b2
fe1b
feda
018c
ff3b
0029
fecf
01e5
01ae
0048
ff84
0121
ff19
0000
01cc
015a
feb6
00a2
0046
00d1
fe07
ff0e
00dc
00b4
01a0
ff2e
0204
01d1
01a8
0168
fdd5
007b
008e
ffd7
007b
0176
015b
033d
ff23
0271
01b0
ff35
018c
01de
fd23
fed4
0206
0096
010d
fccf
fe03
00d0
004d
ff56
0005
fdae
fced
ff1d
010d
00cf
ff7a
0174
ff1d
0225
003e
0040
fe76
fe51
02bd
01d0
fed6
ff8f
028e
ff94
feb1
00e2
fdee
008c
fe07
fea8
0190
007c
fda1
013f
fe80
011c
fd9e
00ac
02a6
0017
00fb
fd27
01c6
fd84
0201
001a
00a3
fea3
0275
fdd7
fed8
0093
fd11
00c7
0087
0209
0157
0296
ffad
0152
ff58
fdbd
ff74
013f
00ca
003b
003a
01d5
0122
fee7
016f
01d5
01de
fe87
ff99
0190
fd80
0200
0105
fe1a
02d8
fddd
ff50
0005
029e
0057
0112
fde4
000c
0314
fda9
fbd8
fe79
fce2
022c
ffa8
0174
fe13
fea6
006c
01a2
0084
004c
fc1b
01ad
017f
00a9
ff88
fdd9
011d
ffdb
00c9
fe05
0079
0230
0128
ff3e
0209
00a1
0052
ff39
fdf3
fecd
ff5a
fef0
fdc8
0070
fd6a
0266
002f
014d
0253
ff57
ffac
01f3
0157
0225
ff9c
011a
00be
0176
0179
fe0f
fd7a
00c6
011f
0121
fef0
01be
0089
0028
029f
003d
00f9
feb9
ff6c
ff45
fea1
00b8
0045
0157
0050
005f
008c
00a2
ffd1
fe3b
00ae
fe64
fed9
ff31
fe83
ff31
00f5
01d6
fdf5
ff7e
018e
02b3
00d1
00e1
fe71
0109
0133
00b6
fda8
fe4f
01bd
fe8c
0090
00df
00f4
01e5
ff9f
0230
0224
ff12
01d5
fe8e
00d4
feae
00f4
011e
006d
0161
0146
0087
ff16
017a
ff2e
fef8
011d
0199
ff09
fe85
0004
ff3a
ff93
0283
00a8
018e
fd64
0136
00c2
0024
0192
ff7f
00a5
ff3a
ff54
ff9e
fdad
0214
fe73
ffcd
019e
fda7
00f2
0233
fe1c
ff31
ff19
ff53
fea4
ff39
fe7a
fdb2
0088
fffa
fed2
ff3c
0205
fd0c
0290
fea3
ff0b
fcf9
0133
ff96
01b3
feb5
fda5
ffe5
ffac
fdb5
0049
fd40
fe92
fed3
ff4a
0167
01d7
01b2
ff8b
ff2f
fe0e
0223
fe90
ff69
00f7
013a
0110
015f
010c
ff70
fdb3
fe1b
fe96
01d9
02c6
01a1
ff0e
024e
ff6a
fd55
fe2f
029e
00df
ff85
00ec
00ff
ff4c
02aa
fe1c
0055
00e0
ff05
016b
fdb2
0042
02dd
ff1b
008f
01e3
fe2e
ffd7
0185
0000
0278
001e
01cc
0184
fe08
0137
0183
fe99
0129
ff33
0230
fec1
fed7
019a
0127
003f
ff32
013b
fd27
fe25
fd6e
01a6
fde7
fdfe
fdf6
0054
fed8
ffa9
0069
feb3
0197
ff31
fd92
fdd7
008f
0256
fe9a
fea0
ff69
fd72
0175
0114
fe31
fe54
0071
ff58
00f8
fe90
fe94
02b4
fede
0051
00b3
0098
0015
ff5b
ffd5
fe94
ff69
011f
020d
fe50
00b6
0203
ff7d
fec5
023b
0042
ff65
fffe
ff50
0082
ff65
0132
0156
ffe3
0261
015b
01f1
01be
ff10
0121
024a
0145
0185
0121
01d8
ff7d
fe98
fe15
0079
ffa8
ff93
ff7a
00f4
016b
ff0c
0220
fe35
0172
0068
ff0d
fefb
0040
0216
01c9
019d
00a0
fe02
0159
0004
feca
fec7
febc
fdcb
ff38
001e
00a5
fdee
002e
01d7
01e3
ff49
ffcf
0235
0233
ff0b
ffdc
00b4
00db
ffb1
023c
00a1
ff8e
0167
ff2b
0267
0274
01bd
02f2
ff2e
fe12
ffa8
fe13
fef4
fdda
0208
028b
fe0b
ff54
00ff
ff2f
fe60
0133
00a1
0046
fec9
ff27
021c
febd
017f
fec2
fef9
0022
fdc2
ff2b
00f6
fdfe
fea6
fe66
fe35
007f
ffc8
fdef
00c8
fdfa
0231
fef2
01dc
ff72
0084
fd73
0065
0063
ffb5
005d
ffa2
ff58
ff4e
0166
003c
fe6d
fe67
0207
fdc5
feff
fde4
009e
00ae
00af
fe3f
ff03
0060
00d2
0157
014a
00ce
fe58
0087
00b5
fe36
0212
0296
00fe
ff52
fe66
0001
0040
ffcc
0174
010c
00b5
01ac
ff80
fe9d
0210
ffc8
feaf
ffde
fd9b
fffd
02d7
ff4a
0112
fe7e
001d
fe2f
0023
fee1
008a
01ba
fd71
002d
febb
01e5
0024
fd97
ff80
0158
fcc2
fed1
fd0f
ff7c
008e
fe02
fd65
fe3f
012f
fe9d
01b1
0130
012f
00c1
0193
ff64
000c
016b
0244
004b
fee7
0170
fedf
0175
01ca
fffe
fd98
fe9d
ff08
0176
fd30
008e
01b9
ff99
ff73
fe01
ff42
ffbf
fed9
febd
ffc6
002a
00d4
ff18
fd40
0213
ff39
feff
ff95
fcfd
01b7
fda5
028c
ffcd
02cc
fde7
0202
fea0
00cc
fd28
0062
0288
ff25
008c
00c6
001d
0380
ffff
007e
008b
0207
0160
0284
feda
ff0c
0116
fe6f
0256
ffc9
febb
fff5
01cf
ff42
ff9d
ffeb
ff14
fdf9
feef
fe80
01cf
02a2
00ce
fea3
ffb3
ff01
00a9
fe9b
ffff
01bb
00d8
01cc
ff40
00b9
009d
0255
023e
fe55
ffea
0159
fdf2
01bd
0227
007b
01e3
ff8b
021e
008f
0238
015b
015b
0167
fee2
0101
fef2
010f
ffce
ff9a
0100
0137
0178
fffe
fe1c
fedb
fdd4
0147
00b4
01a2
ff86
00b3
fed0
fe15
00f7
fdc1
fe2e
fdca
0219
01a6
fe6f
0012
fea3
ffd9
fe44
0197
fff3
ff31
00da
017a
0227
007e
0059
014f
0127
fed8
00e9
fd4f
fe33
0011
fd75
ff3a
ff09
fdaa
0079
fea9
ffe8
fe2b
fdc6
ff4d
008b
fef6
fdd9
0094
00d3
025d
02d4
00c5
00cf
ff36
fecb
02dc
ff2a
018d
00df
fde2
ff26
02a6
ffd8
ff9a
0105
fd0d
0288
fd63
ff35
fe4a
fe6d
ff1d
fd97
ff95
0161
020c
fd97
02e1
0068
fe64
fdc4
01b3
0118
ffba
fe7d
ffae
fd4e
00c3
ff21
fd8b
01d2
0147
fe66
ff70
00ff
0115
ff97
007d
ff66
011e
fef6
0007
fcb2
fdad
fe24
0137
ff92
ff0e
02a8
fcba
0268
01d0
0194
0105
ff07
03f1
0339
ff92
0253
febe
ff19
0231
ffd6
01fb
00f8
fdf3
00fb
ff4d
0167
01b4
fef1
02bc
fdda
004a
fdbe
ff78
fdd8
011a
00f1
0288
ff6d
ff7c
0016
ff98
0285
0197
ffb8
fecf
fe10
fdd6
ffb4
002d
0092
0088
022e
0228
01c8
fda1
fea1
00fb
004e
ffea
015f
00d2
fd89
fe4c
fc3a
fffc
02b6
fc69
ff58
ff86
ff66
0050
02e6
ff4f
025b
ff75
0200
fe74
01f1
ffe5
ffad
ffdd
0265
fd49
02b6
ff21
0171
0299
fede
00b7
fec0
0006
ff8e
ffe8
00c5
fdb7
fed6
0155
01e9
02ee
008b
0132
fe54
012f
fec9
013c
fd8e
0294
ff61
fe54
fe83
0294
ff74
00cf
00ee
fdff
0264
ff75
02a3
0209
fda0
012b
fee8
fe72
ffe4
fdc8
0059
003a
0063
fec5
fe65
fef8
fde8
01b6
fe40
01e9
fe57
0026
003c
fdae
0194
0120
01d7
00aa
0028
00ac
0168
0361
0234
ffb2
fe3b
00a9
0100
01b1
fd32
00db
0166
0023
ff21
02bf
fe09
004e
fe08
ff33
014a
0097
00b8
00a0
ffda
fdaa
fde5
fffe
ffb5
00f1
0071
0140
0012
fd84
0024
ffd9
fe44
ff3f
0060
fe2c
000d
01b9
0149
fe61
ff87
fe37
0058
01e8
ffc1
010d
0022
ff69
0040
ffaf
0140
fdb9
0163
01ee
ff56
0058
ff07
ff68
ff0e
009d
00b6
01e7
fd9e
00e2
0201
035c
00dd
fe09
0227
01a4
fcf3
02d4
fea1
ff34
01d6
ff27
fdc8
00b5
0112
011b
0176
fe8d
fe4a
fc86
0135
011a
028d
015e
ffd0
0198
fde9
fefe
00f4
0092
fd99
00af
ff96
01ed
ffab
ff8a
ff08
fff5
01c7
0025
006f
ff2b
00d8
00e8
feaf
fee0
02a0
fd3d
02e9
013a
0105
fe8b
fd55
fd8e
fe1e
00f3
fe10
fe6a
fe79
ff89
fe3a
fdf3
ffe9
01d5
0110
00b9
ffe5
0097
00b6
fedf
00f0
01d0
0191
00a6
ff68
ff98
ffef
fe1b
0143
01f5
fff5
01b0
febe
0118
fe56
0033
ff78
ff5a
ffd9
ffe7
011b
00ac
0051
fe07
ff79
00c2
fe1d
0004
ff4e
ff73
0010
007a
ff25
fee1
fe80
fed9
ffbb
fedd
00ed
00f7
fe85
feb5
ff7c
0010
ffb3
00b5
00f6
fde9
0169
fd22
ff98
ff88
ff09
0022
01fa
ffcb
fe33
0176
0024
fe91
0093
fdc1
fe53
fdf6
fda9
ff46
00e3
0017
0123
00f9
ff9e
feec
000e
fee9
001e
0152
fd4c
0034
00a7
ffba
0122
0062
fdc9
00e8
fecd
fd66
00fd
01cc
01a4
0123
01e5
0013
ff26
0016
006c
01ae
01ea
01ac
fe54
ffae
0068
0088
ffb4
0266
01c9
fe93
0128
0075
0185
024b
008c
0292
01bc
0174
026c
0239
0084
00d2
0153
0134
fef1
0131
0253
020a
014f
01ca
fe2e
01ac
0204
ffdd
0005
010a
ffa1
0006
0088
fdbf
fea1
fe15
00a5
018d
feaf
01b0
01b8
00cc
ff6d
fe7a
0143
009f
008d
0159
01c7
0186
fe19
01ae
fdbb
0097
fdef
01b7
024f
00b0
00fa
00cc
0028
fee0
009c
ffdd
fec7
ff17
fe1e
fda2
0183
018c
fd2a
0041
ff38
00d2
ff04
ffe7
feef
fec1
010b
01ac
ff6b
006b
0204
0104
fe47
fd81
fd00
00f5
01c1
01b9
00e7
00c3
01b1
008d
fe47
002e
feb9
015e
003d
ff82
008f
00c6
fdd1
ffd7
0184
febe
ff81
ffb8
ffb1
00eb
ffbf
0023
0113
ff88
fffa
01e2
0169
0215
fdb7
0151
ff2c
fe3c
fd63
0000
fe7c
ffe1
ff60
fece
fff1
0151
011b
fe63
004c
0018
fecb
0243
020b
01d2
00dd
00fe
0050
fe6b
01ab
fe83
00bd
0147
fdc2
fded
0171
00fe
026d
fe69
0092
fdea
0171
001f
febd
fe3e
fde6
ffc5
fef5
019c
001f
fe1d
0265
fefc
00ec
0057
01d8
01ef
fff5
0188
ff5d
0191
010b
0064
0265
0102
ffeb
00a4
00ab
0255
003a
00f1
fe06
00ce
ff58
fdf8
ff79
01d8
fd6e
018f
010d
fe07
ff6e
0025
fe0b
feab
fff7
ff6b
0259
ff84
0180
fe07
01bf
014c
fe7e
00f8
01c4
fe5b
0004
01e4
feec
0132
00c5
fe19
020c
02c6
ff6b
0127
fe4d
006a
fe02
fe3d
015e
ff95
fe38
00c3
0205
01eb
01c7
0272
ff80
00d8
fe4e
0042
ffee
ff54
01cd
0160
0045
ff5e
00c0
fe0a
fe51
00db
012d
0119
fd6e
0217
fee9
ff99
fde7
ffef
ffc7
0079
fe02
0209
0104
ff45
ffaf
fff7
02ab
01d4
ff2e
01f1
fea4
ff39
fdc9
fe63
0132
0149
fdb1
fde0
02d3
0067
ff66
ffb2
019a
ff00
00dc
00c0
ff1d
00aa
fed0
ff3b
00fb
fdc2
ffd0
02a2
fff9
fcfa
fda5
00a2
01ac
0123
feff
01bd
009e
00ed
fee6
0035
0379
fd75
fff0
014f
ffeb
fd5d
02f4
00c8
fd16
ff5d
02d3
0232
feb6
ff6d
fdd7
0035
00e5
0096
ffdc
0270
ffe2
fe8c
fe26
fe03
ff42
02c7
02a7
0198
fd97
ff12
0064
fe67
ff63
ff0a
01b3
032a
fecb
ffac
feae
00ee
fef6
029a
0296
fead
0058
00d4
0000
01a1
01c3
fece
0140
0184
fe8a
fef3
ff79
ff90
0112
fecf
0205
fe25
ffc3
01b8
fe5f
0020
008a
002a
fd9d
fdf8
022f
001e
ffa6
00b3
010d
023a
fe81
01ad
00dc
fd0c
00ee
fda1
fce7
fede
01e3
fe35
ff26
003b
010c
02df
fe84
0233
009b
024e
febb
007a
0130
ff58
007f
fda5
fdaa
00e2
00c7
01dc
0219
0057
ff6e
ff18
feae
00ce
00a8
ff6b
0055
ffe9
fe71
ff22
fea6
016f
0116
0197
fdc1
0078
fdca
00a5
0236
ff53
ff23
00cb
0045
fe81
015c
0197
01f0
0205
0098
fdf7
01ad
ff7a
ff14
0104
fdf1
fe6d
0084
ffc1
feb7
0031
00c0
ff8d
fda4
0040
ff07
006b
ff0e
019e
ff8d
ff49
01a1
0146
0084
0267
00a1
0123
0200
009a
fea3
fe0a
fde9
ff66
0262
017c
fdce
0244
021d
fe09
0153
0162
00f8
01c2
0006
023f
00e5
01dc
fe5e
fe2c
01e7
0162
ffa8
ff1f
ff30
00e0
0166
feff
fdda
004e
fe4d
0266
fd9e
01b6
01ae
024e
008e
027f
00ee
01bb
008e
ffd2
fe91
ff23
ffd8
0275
fed3
017e
014b
010f
ff4c
ff13
02a2
fe2e
000f
002e
fe8b
fe9f
0011
