013f
00c3
ff68
ff14
007c
0226
fe9b
0072
ff66
0127
00c1
ff77
fe0c
00be
01c6
04e0
0116
fd25
00d9
ffcb
ff06
015c
fe70
ff55
fd92
01ef
00df
fe88
fff9
028e
014e
fda3
005a
0188
ffa9
0146
ff95
ffbe
0080
ffe0
00e9
fd9c
fe4c
0130
01a1
0086
ff4c
01c0
ff2d
0206
ff41
ff77
fd85
0200
0156
00db
fe9c
01a6
ffba
fff8
0115
0180
0447
011c
02cf
fe50
0130
0072
feac
ff08
fe86
0022
fd2f
ff76
fffb
0132
fdd8
00ae
ffbe
003a
ffeb
0145
0223
0049
fd64
fe93
0074
ff73
029f
0110
01b1
024f
0131
ff58
02ca
0253
0152
0263
0080
006f
00dc
fd70
002d
fe4d
0209
fee8
010a
0102
003a
feb7
0301
fde1
ff5f
0145
007f
fe12
00d7
023d
fff1
0449
fe7c
0174
febc
fdd3
fe71
0046
0056
003c
ff0a
ffba
0013
ff03
0107
0191
0035
fedc
006c
ff4b
ff45
0214
ff20
025e
022e
0162
ff2d
fd05
fe70
ff6d
fef1
006b
0225
fee7
fe64
fd28
010a
02a6
ff63
0136
015d
feae
010a
004d
ffc2
ff48
0183
ff5e
fff8
020c
ff6a
ff92
0055
ff7c
00db
fc96
fdd4
fe90
02e0
ffe0
0072
02da
00b7
fe2f
ff25
00d4
0190
00fa
fff4
0032
ff53
fe94
fece
00e4
fd3b
01f9
fdf4
0112
ffa5
fee5
fe4f
ff9d
fe72
fe3f
ff6a
0161
0116
0298
fe92
ffcc
012e
01ef
ff80
021d
ff55
01ca
01ab
01da
01ac
00a2
00d2
023e
00ad
0016
fe05
ffb1
fefa
01c5
fe5b
0193
fed6
fde3
0109
00c5
00e6
01aa
feca
00b6
ff21
ff7d
fd5c
01a2
0243
fea4
fea1
0216
0211
ff8e
0014
0126
ffe4
ff3e
ff1a
fdb4
0121
fedf
fefb
00de
ffb9
001d
03a7
00df
ff79
feb6
01b1
ffb4
fd5e
0209
fef8
00ce
fe9d
00b5
019a
ff82
fdeb
0041
ffd7
0272
010e
02a6
fe42
02b6
021c
013e
fef1
000f
ff18
fc82
00f8
fd58
fe92
fe99
fe41
feea
ff07
00c4
fdcd
02a3
0170
02d2
01d2
ff5e
fce3
00d8
00f8
ff01
ff6a
003a
0270
ffa4
03ea
020f
0015
00d1
0171
fde3
ff28
0044
01d2
017e
fd4d
007f
01f5
00e7
ff86
fefc
028c
00da
021b
ff7c
fe61
014b
00c6
033b
013d
0060
ff18
0280
00dc
fe7d
fceb
fe97
0103
0079
00f4
fdf2
ff71
01ad
001b
0147
037c
02f2
fc8d
ffe4
ff95
0051
fe42
fe09
00c4
012c
02d9
ffcc
00ea
0363
fe45
fff9
021a
fed3
fd51
ff20
01d0
ffdf
ffd2
0161
fe81
fd15
0029
ffdb
00f9
0111
ff39
01eb
ff3b
ff20
009c
0047
0119
fcd9
004d
0146
00c1
ff93
ff91
fdc3
003f
025a
00cc
fe8a
028b
ff66
fdc5
009b
fe8f
00cb
008a
00ff
00fb
0275
fe32
0122
ff36
ff15
00cb
0060
ffde
001e
fde2
ff4f
027c
0286
02f7
fec4
00b4
fe17
fe5d
fd04
ff2f
fe54
fff3
02a9
0255
000e
ff6b
fee2
002e
ff13
010c
0134
01ee
0093
0084
02de
013b
0075
0087
02f0
ffe2
0289
004b
fdf3
ff9d
00e7
0065
022b
ff19
ffd0
fe0c
ff1e
fe3c
feef
013c
01fd
fed4
fed8
fe93
ffa6
ff5d
fe40
ff14
01aa
fe13
00c5
ff92
0204
ff7a
00fd
0261
fde4
01ad
fef0
ff62
0043
017f
fe8b
016a
ffe0
feb9
002c
01e5
fdca
feee
fee0
01a6
ff41
002f
01be
00e7
0127
007b
022f
0153
021f
fed1
00a5
ff8a
fe75
02e4
fe6a
fd98
fe72
01f2
fe28
ffbd
fefe
fe97
013b
fe62
0264
0272
022a
ffb4
ff5a
fdc1
ff12
fe2b
01b5
ffbf
fe63
0219
0106
0009
0037
00e5
ff3c
0092
ff17
0208
0184
01d4
008e
030c
ff3a
ff62
ff9c
fe33
0028
0212
0296
ffb7
ffda
007e
ffa9
01b1
0037
011a
01d6
fe2a
0025
017a
fd85
fd95
001d
01d2
fdf2
fe28
0387
0270
ff6c
0051
0073
017b
fe83
fc76
fef2
ffa7
fed6
0205
00d9
00a7
0092
fe94
fe5a
ffe5
fe33
fe75
fd52
fecd
fd3b
ff37
0023
023c
ffe7
01b6
feb7
017f
0222
00c6
fede
010c
0029
01fc
fdae
016f
016c
ff11
ff26
ff20
fff9
ff63
0048
01e9
fd67
feb3
003e
00ed
010e
ff39
ff00
fcc3
009c
0025
007d
012b
0233
fd9c
0051
fde3
ff28
fd16
024c
ff31
fee1
fe7c
0092
0249
00ca
fdc7
ff46
fef4
fda9
ffb8
fed5
000e
fd2c
feee
fec1
016f
fe9a
fede
0056
fef3
00e5
ff65
00c9
01b7
fe6d
fdd0
fefa
fff8
fe1c
ffda
0135
fdbd
00ac
0343
ff24
02fc
003c
fe3c
fd81
00cb
01a6
fe52
022c
0138
fe37
0089
01b4
ffb7
0236
004d
ff09
0021
003e
ff31
02e9
0241
ff5e
ff65
0062
ff69
fd42
fc37
0134
00f5
ff58
011d
00ac
02d4
0100
ffcc
fd7e
0084
00ad
ffd1
01b3
00a5
fecf
ffe4
023c
01ea
00db
fde8
ff05
0021
ff1c
019a
fde3
fe36
0269
01a3
01c6
01d9
0029
fe0e
021e
025b
fd28
fe71
fe51
008f
ffb4
02a2
fdd9
ffe3
ff67
01b8
fd30
fe0c
ffd2
0098
ff9d
ffff
002f
fcdc
ff53
01f3
00d7
0144
0010
00cf
ff3e
fe49
0103
ff72
ff95
ff8b
fee4
002c
0346
fd81
ff61
fcd9
feb3
017b
fec7
01aa
ffde
0014
fe9a
ffe2
fe38
0222
fea1
003c
00f4
fe30
00a5
ff3e
ff59
ffbc
005a
fe3e
ff8c
fdbe
ffe8
fef9
013e
002e
02eb
fecc
0348
00cf
ff1d
ffd2
ff1a
fe48
00eb
0254
ff5c
0177
ff76
0122
fdd1
fe97
fe88
fff9
fef1
0160
fdc0
015b
ff14
019f
00f2
0020
0070
fe46
002b
ff5a
0003
019d
ffae
0208
fdfb
0159
ffa8
0317
ffa8
0017
fed6
ffed
00de
0051
ff1d
ffd3
02db
0127
006f
ffa0
016f
fe94
ff8d
ff39
fef3
fe71
fdf9
febf
ff70
00ff
002d
02c6
00fa
ff02
fec1
0209
fe3a
ff37
ff84
008e
01e7
ff22
feac
fe7e
00c9
fe28
ff78
ff4d
0118
006c
0238
ffe0
00a6
fefb
01a3
ffae
fe55
fedd
003b
0058
014e
fe1e
0262
00c8
fd2c
00e4
0075
ff11
ff38
ffe9
feef
fd70
fe1b
00e2
fe23
011d
0167
fecd
02c6
ffb4
03b9
fbec
0155
ff3b
026e
fda3
020a
fd7e
009a
0153
fe5d
0011
009c
00ef
0374
0113
fb47
005b
fe3d
ffd6
fd96
ff8c
fc75
fedb
012d
ff7f
fcd4
fe32
040c
fd63
035f
02a9
fefb
029b
fdc8
fe9a
fdb7
fefb
fc81
fd0e
fff7
006f
0164
036f
fed5
fe4e
0207
00fc
ff91
fde4
017f
fd40
fdc7
0075
fd94
ffd8
ff38
fdc3
02f2
fcde
0078
0405
fe78
fe57
0142
fd64
ffe8
ff81
00b0
0179
0105
0321
fde5
025f
ff6d
0153
ffa4
0041
fdb5
005f
00a6
00a2
ffd7
fcec
fece
020e
fd05
fe21
fd98
fdea
fc31
026b
fff6
ff83
01ab
02ef
fd46
fd30
fead
034e
0374
0240
fd4d
fe99
fe23
fd57
fff4
0157
ffae
ffff
01d1
0057
fc7e
00f3
ff1d
fe2b
fc38
fe56
fd5a
01d8
0184
0262
fe8b
fe0e
fea7
ff20
005e
00c9
fece
fe6d
fddb
fd67
ffb6
0041
00f2
fe89
0090
0249
fcd7
0287
0077
00b6
02c0
0031
fe22
fe24
fcfa
0156
fec4
00f5
0186
0228
feea
fda9
ff02
0011
0275
ff36
0188
0258
ff03
ffc6
007c
01e0
02ab
fe3a
fe84
0164
0110
fe6b
fee1
0041
02f0
00d7
038a
fe17
fe2d
fe69
fc7b
fed8
00f6
005e
01ea
0088
fd83
feba
fe24
0176
0227
ff88
00f0
ff79
ff4d
fddb
0137
0096
ff21
fecf
fefe
01cb
fdaf
fe32
ff9d
0149
fea5
ff91
001f
febe
ffc1
ff49
016b
01fa
ff0e
0249
01ab
00d7
fc6e
007b
0211
0172
0100
01c3
00e2
ffe1
022d
00d1
ffe2
ffbf
004c
0061
0276
01d1
feed
0240
0102
ff8b
fdbc
0191
fde2
01e6
fe75
0283
01cc
0022
fe01
007a
0086
ff69
ffe2
ff3b
ff4a
fe4a
fedd
fe90
01ed
fdb6
0154
022d
0034
006e
0072
fe27
00f0
0017
0081
003b
00f7
fe1c
01b5
ffbb
fff3
01e7
0105
00a5
ff7a
005a
ffef
0085
ffa4
0009
01fb
00a0
fedd
0290
0069
ffb6
febf
fcf4
0201
fd32
0185
fe06
feeb
018d
00ea
fed1
014d
ff46
0210
ff9c
ff4d
feff
fda6
0050
fef8
ff33
0149
ff6b
ffd1
ffd9
fe58
019c
ffa8
ff10
011d
00f9
0179
01c7
01f8
027d
023b
fcbb
0021
ff3a
ff7d
0340
0280
0020
ff85
00f9
fdee
fea8
0101
0025
00de
ffc6
fe8d
017e
0136
00ae
fed8
fd8b
fe9f
ffcc
fdf6
013b
ffec
03c6
01f4
feb2
fdfb
ff38
ffd2
0218
fcad
fd0f
fcc1
03bc
01ac
ff2b
feb4
fe98
0101
02c6
fd48
ffa4
005f
018b
fd15
02bd
0292
0046
fd8b
00b1
fca6
fe14
fff3
00d9
00b4
fc6f
feff
03fa
026f
004b
006d
febf
0039
0076
01db
0171
02b0
01ed
019f
fea4
ff0b
ffa1
fee3
ffb6
0227
01f7
feb6
ff31
01bc
fffb
000f
ff5b
004f
fffc
001f
ffa5
ff1e
fd49
00fb
0158
ff5b
020f
fe79
feb5
fec9
fd45
0116
01ca
00a4
ff1c
0055
01c9
fe19
ffd4
ff71
ff3e
fdd3
02bb
ff69
ffea
fede
0135
010c
ff73
feb5
00e0
023d
fe3a
0199
fd73
0027
0026
fd8f
fd24
ff7e
00db
02ac
02ae
ffca
ff4e
ff8b
ff7c
0019
ff79
01e1
fdee
01df
023c
fe6f
0057
0198
fe2a
0182
0146
ff71
ff8a
0027
0189
fddf
00f0
00c1
fe83
ff80
ffae
fe10
fed0
ffd7
feaf
020a
0198
ff6d
fe49
ff6c
00a8
010d
012e
01df
ffe1
fe97
fd2f
015c
0205
ff79
0063
00fa
0103
fef6
fdef
ff54
fe9b
fdc5
ff17
fcd9
0085
fff2
006a
009f
fe6b
00d8
015e
ff68
fe7d
00f7
fea4
01dd
ffc7
ff1a
ffbb
00b1
ff98
ff5e
00ac
fcfa
0280
0247
fdb7
01e9
014c
ffa0
fef3
ffc2
fef8
fdc2
0138
0109
026e
012a
fde4
fec3
01f8
ff86
fe8d
0151
ff71
ffbe
ff9e
002c
ff0e
0162
fea2
ff7f
0093
ff68
fdb2
00db
ff57
017b
fde9
0356
014a
01c3
ff90
fde4
00ad
fe74
0008
0001
fe9c
ff9d
01c0
01c2
0018
ffbf
003c
019d
02c3
0244
0116
ff27
0400
fe2c
fe74
fe65
fe95
0001
0262
fac8
fefa
005a
0175
03b1
ff5f
ff02
ff08
007c
ff2d
fd0c
fe18
026c
fef2
fead
ff39
ff3c
ff87
0016
003d
0306
01c0
ffbb
01fd
02af
fe77
0065
fffe
fc9d
ffaf
fe22
feec
ffcb
fedd
003a
0176
ff04
02ab
0169
ffec
fdfd
ff8e
01d5
0053
fec2
01c4
fe10
fdef
fdb9
fe78
005c
ffee
02c6
0268
027c
fe22
00fc
00be
ff24
0103
01fe
febd
01a6
012a
016d
020a
0059
fe29
ff95
014e
fe90
ffb6
01db
fee9
fe1a
024e
00d3
ff51
0097
ff8b
0001
0249
00de
0277
002f
0285
fea6
fff5
01f9
00d4
01c9
010b
0027
00c4
ff0d
fc3a
013d
ff9e
00a1
ff7e
01f5
0078
fffd
0121
ffed
0089
fed6
002c
01da
0165
fd60
fee1
fea8
fd58
00e2
ffcf
009a
0155
0480
fc83
000e
fd7e
ffdb
ff81
fd13
fd8b
ffed
0093
ffc0
019e
fbd4
ff09
ff48
00c5
fffa
020a
fe79
0015
feba
ffcd
ffcf
fff3
01eb
ff5c
fe89
fde0
000c
ffa1
028d
ff5b
0215
ff48
febf
0254
016c
0072
0077
ff89
fe53
fd37
ffea
014a
01a8
fede
031d
00ba
0204
fe50
ff14
ffbd
ff4c
fd16
019c
0146
00b8
fece
ffed
febe
0005
ffe0
0145
0242
0050
feae
004a
0077
00db
01b0
ffee
ff43
ff5b
fe50
0099
01fe
00bb
0062
016e
fef7
feaf
ff26
018a
ff23
00de
01e2
ff01
0023
00e3
012b
ffed
fe71
fdfe
ffa4
0053
fe72
008e
01f1
ff21
0104
ff15
0199
ff1b
0031
00c9
fd8a
0227
007c
0082
ffa3
01a0
0134
ff15
01bd
0058
0127
fe8f
fec6
00db
ff94
fdc3
027a
ff75
032f
01ab
010e
0014
fe07
fd73
0158
009b
fe9a
018b
fddd
ff69
fee5
00a0
ff38
ff61
fd69
ff82
ff99
fe01
00c1
fdb3
fcc0
fe36
feb1
005a
00fb
0094
024b
02c6
ff3f
015e
ffc5
fcf2
ffb5
000b
fe66
014b
ff64
0260
0187
013b
fe24
fdf1
fd04
0233
02cd
ff86
fdf4
ff29
ff60
fecc
fe37
fea5
0038
0006
ff16
fe44
02b5
0072
00ae
fd3f
fedb
01ea
ff1f
ff02
fd96
fe71
fe35
0050
fefc
0077
01e8
fe82
01aa
fe5c
0069
015e
fe4f
fef1
0272
00c8
fd56
ff62
0016
fe89
0018
00c0
ffee
fd89
fe98
0114
0143
0064
fff4
00d0
0257
fd52
fdfd
ff62
ffe4
ff33
ffb5
fdb6
fda2
01a7
ffc8
fde6
0056
fe61
fe04
fe36
fd96
fc58
fe31
02da
fe9f
001e
fdc3
fe11
01ff
0240
fe41
ff52
007a
ffea
ffaa
0103
ffce
01af
feaf
ff4c
029b
ff97
0164
023e
0053
011a
ffb0
ff02
ff40
022d
000a
fffc
00c4
00c7
ff2a
ff5a
018d
ff82
fea8
000c
00f1
ff9b
fe95
019e
fe91
ff61
fe23
fd56
fe92
0073
fdc7
ff24
fdce
fefa
fe8b
028a
fe50
0079
00dc
ff3e
feba
01d8
ff5d
0067
0184
ff4b
fee2
00f0
ff7f
ffb9
0038
ff0b
ff3b
ff18
ffc9
fff4
ff4a
fd90
00e6
0048
ff28
fce8
ffd5
0020
02d6
0255
fe29
fd5d
0080
0127
ffd1
00ff
005e
0206
fef0
fd5d
0235
ffcb
009e
02d3
0109
ff6e
03cd
02f2
007b
fec0
0287
01cf
fe70
fe17
0029
fff5
ffe4
02bf
ff79
0230
000f
0079
fe12
00a1
0173
0242
0191
ff61
fe90
fe45
0164
0021
018b
fecf
fd8b
02da
027c
fe6e
ff32
0017
012f
021b
fe2b
fe29
00d5
ff49
fd90
00de
007c
014e
ff00
ffc5
0064
fc9d
01e8
fd6e
ff15
ff5d
fdad
02cc
fea6
ff6c
ffbf
feff
008e
0021
0184
feaa
ff5c
010d
fda5
ff00
fed5
fe0d
fe19
00cd
0275
ffeb
fefe
ff1c
01ca
ff9e
fec3
ffcf
fed8
0145
ff7b
0263
ffaf
00a0
fd8b
ffa0
01ac
01d8
ff77
00ac
fdd3
0025
02fd
0093
01e7
fceb
ff8f
fd2d
feb5
feb6
0385
012f
fcd3
ffd8
fe63
02d1
feab
00d4
0071
012a
fd9b
ff33
fcd8
ffd2
fbe5
ff08
0116
004a
ff29
002e
fe33
0324
0171
ff2b
0112
fe95
fec1
feb9
ff3f
ff03
012c
012a
fe74
ffed
0082
0194
ff14
0224
0229
0046
0375
ffca
0054
014e
ff69
001c
014c
0116
fe6d
0380
fe6c
ff54
00b0
031a
039b
ffb0
fbcb
0101
fe0e
0307
0134
00ee
fffd
fdd1
fc9c
fd71
021e
0125
0190
fd0c
02dd
fe9b
00e2
0122
ff18
fec2
ffcb
ff55
ff09
01a4
014f
ff0b
0120
fcec
00a2
048e
ffe2
01a2
01aa
fdcb
fec9
fd9b
fd39
ffaf
02c3
0316
002d
0011
00e6
0250
01a3
02af
0078
0000
fec5
fed5
0024
fe27
fc31
fd27
02c7
021a
0030
02ae
0030
0279
001e
015f
01c7
0343
fd84
fd6f
fc9f
008d
feae
03ea
fd08
ffca
00ca
ff7d
ff10
01c4
fdd7
fcd9
0093
02fd
fcd4
fda1
01b3
012c
0136
0139
028a
fcdb
fffa
fee6
fede
0128
fd47
fd55
fdf8
011f
ff38
fe84
fe29
ff3d
0263
ff35
fd46
fed0
fdb3
fddd
02e3
00c9
fc70
002c
fddc
ff5c
ff74
0061
ff0a
fdad
0384
02c8
ffff
ff48
00da
fd7e
006d
fd06
fed6
fe20
fcc6
fbce
0219
026d
012b
fdbf
ff06
fb88
00ee
01bc
02be
0170
fcd2
feeb
0195
004f
0077
fe05
ff1a
00ee
fe12
0249
0076
fe24
fd2a
032e
fdc6
fe7e
ffb1
ffba
ff2c
022f
ff9a
fdf2
ff02
fe88
00c0
fd6d
00b7
ff2d
0002
001c
ffa1
0015
ff8c
fe8e
035b
019b
fec8
ffd8
0259
01cc
ff81
0010
ff00
ff6b
ff26
017b
ffd8
01fe
ff8f
fe48
009f
fe4f
02df
028a
fff8
fe59
00b1
fff7
01d2
02a6
fc77
feb7
fea0
0084
ffc8
00fc
febe
fd38
ffc4
013c
0114
024a
038f
0021
ff6b
01bc
037e
ff61
014c
fe5d
fdeb
033a
ff36
0051
fd56
fe20
ff17
032f
01df
00de
01cb
ff4d
fd6f
ffb6
0168
0006
011a
fd8b
02c6
00b5
fce4
ff7d
01e4
fef7
fe72
fd9d
0082
00c5
0081
ff6e
026b
fe0c
0207
fc91
02c2
fbbc
007e
fed2
0469
fe43
037e
021f
0123
ff05
fe28
015b
01f4
ff66
ff70
006a
0096
00d5
018f
ff02
00ea
fef9
026b
ffc8
0068
fe86
006b
0124
fb09
0072
0357
0004
0163
fd6c
ffad
01c6
fcf3
00c8
02bf
008a
fd42
00a3
022b
0290
0066
00ae
027a
0169
ff47
fc88
fe92
006f
fe66
015e
010f
fdbd
031d
0383
fdc6
0266
fe52
01a8
fe45
007b
fdce
0222
00f3
0067
ff46
016f
0050
ff8a
ff7d
00c7
fe95
fea2
01f3
013f
ff35
fc96
fe6a
0464
ff27
0144
013f
000a
0055
ff7f
0284
fe73
fefb
ff1f
00d9
0005
010d
fd7d
ff57
003b
fd2a
0183
0170
ff6d
ffba
fd57
0051
fe88
0398
fe7e
0022
fde9
ffc9
ffe3
fef0
003b
0324
0101
019a
ff36
ff59
0149
fd04
0016
014b
00e3
0201
ff1d
fe3e
0167
02f2
ffae
01e4
0268
fc3f
ff34
01d0
fdf2
ff02
014e
feec
0120
01a3
0037
fdce
028a
fce2
006c
fc40
0069
fffb
00fc
02ba
0157
ff09
ff2c
00c8
ff04
ffc9
fe49
fcf8
0205
0170
0161
0210
fe84
001e
ff34
00f0
0072
0125
007d
fdc2
fdc1
0360
ff5e
0052
ffc0
0115
0106
fe8f
0307
0156
febe
fe88
0182
013d
fdcb
ff5d
fef9
fe65
fe1a
0203
fedd
0031
006e
0469
fdf7
01d9
0040
fede
ff9a
0059
ff6c
008c
0200
ffbb
fe50
0159
0205
020e
fe8a
00a0
01b4
fdd3
ff93
ff89
018a
fe84
0048
00c2
ff43
fe87
ff39
0253
01f5
fe64
00a0
ff37
00f6
fd76
ffca
01cf
fe09
01d4
fe65
01ba
01c7
0190
0055
ffe5
0090
fe86
feb9
ff30
fea0
ffc6
ff6f
01bb
ff8d
0010
00b0
ffbd
010e
fe18
02d6
0118
fe20
fdef
ffff
feb3
004b
0071
ff33
0075
fdd5
00c0
0057
fee1
fe7d
0052
ff6d
01bd
ff39
00c4
fe32
ffa1
ffe0
0065
ff1e
0290
fef5
007a
fead
fe5a
00ea
ff29
009f
ffa1
ff0e
00a6
010b
020e
017d
fd88
00de
fdf7
023f
01ac
fe3d
011a
0064
0018
0198
ffa8
006c
ff73
019b
fde4
ffad
fdbd
0219
ff5a
0171
004f
002f
ff77
ff0b
fe14
fea1
00b3
0126
ffae
0161
0137
fec9
0084
0142
0099
00e5
003a
00cd
0122
000b
fef6
00a1
002f
fdb9
00b1
02c4
ff32
ffe3
fef3
ff24
fccf
fde9
02b4
00b9
fed0
00a1
02ce
fe96
fe8a
00ad
00a2
000e
fed9
011d
0209
fe0a
0064
fc91
ffd7
ffc6
ff01
000d
01b9
fca4
fe4a
fedf
fe50
0206
01db
ffec
0177
ffcc
0398
00a5
feaa
ff5d
00ea
fffd
fe26
012c
fe3a
0161
feb1
ff14
0065
fd87
fff4
fd15
fca3
ff95
fd81
00cb
fe67
ffe5
0220
fe97
fde5
01a3
01bf
ffd2
fe50
fdcc
012c
0253
00fb
ffb4
020d
fefe
ff71
fdf8
fed6
0220
00e7
fff2
007e
fe02
03b5
01ff
fe6e
fe82
ff60
ffdc
02ca
00de
007e
00b3
00d3
01bb
040f
00da
fca5
ffd9
0020
ffa7
0273
fefc
0108
fec9
0000
00b1
fcd4
01b1
fe3f
032d
008a
010d
010e
00b7
ff59
fe23
fddf
007b
ff31
fe95
013a
ff8a
00ce
fe14
feab
0340
fcf4
feb5
fd23
01c1
ff53
00b7
0266
028f
0020
ff85
ffae
0294
fd3a
00ba
ffa2
008b
fdb7
fe90
0346
02d6
0082
fed1
feee
00f4
0288
ff5d
01eb
fee0
0276
0137
02c2
0029
ffa7
ffa4
ffb5
ff3c
ff2f
0202
0155
0204
fe1c
ffb1
ff0c
01b3
0032
0273
ff78
ffcb
ffb3
fee8
fe77
018d
02f5
00d6
01cb
febc
00f0
0063
01f5
02c5
fee1
fce9
fe7a
ff6b
ffb9
02ca
ff73
ff42
fe3f
0001
ff8e
fe8f
ff42
ff48
0043
0369
02f6
00dc
0063
fe21
fe07
01d3
0125
fec0
ff39
fd28
01fc
ff86
ff10
ff35
0218
feef
fdec
0003
016a
0103
0028
ffc0
ff7b
fd33
00b0
fe40
000e
019f
fff3
0018
fe31
ffed
00b2
fecc
0297
fbd2
ffa7
ffdf
0110
ffc6
00fa
fe98
006b
0097
fe12
0034
ffc3
01a8
01cd
ffbc
0180
004e
0046
017c
021e
ff0d
011c
00d8
fde0
fe44
fd31
011b
0139
0307
ff44
00d6
0113
007b
ffde
fea7
fe04
0106
fecc
00f0
0285
ffbf
fe71
fcfb
fc43
004c
ff31
00e2
ff99
ffc7
00d6
0134
010b
ff50
006b
fec9
fdcb
00cc
fe78
0142
fe82
00ee
fd64
fe96
fd38
ffb8
0114
fe3e
0135
01b1
0067
fe12
01ae
fea1
ff7d
0182
fd40
ffde
ff0f
0200
fe85
0274
fd52
fe11
02a3
015b
fed2
0227
ffd6
ff19
ffb0
fea2
febe
0025
02f2
fe5e
02b4
ff58
fff6
018f
fdde
0140
fff7
001e
ff9c
00b9
00b8
006e
ff48
fecb
fc7f
0007
fedd
fd18
0281
fe18
ff90
0213
00dc
fe87
01a5
ffb5
fd98
fd50
0267
001f
fd2f
fdbd
0212
fe21
0079
ff56
01b1
fefb
0064
ff38
ff19
005d
0190
0084
003f
0046
03a2
03b1
0193
01b0
ff84
0320
033c
0150
ff69
ffe4
ffac
febb
0216
0075
00ff
0127
ff42
fdf5
fcf7
0027
fead
ff15
0394
ff02
0189
0250
fdea
01ce
03fb
016d
0102
fecb
0026
ff86
ff6a
027f
0012
0043
fffd
fc26
008c
ffcb
fdc2
010f
02d1
02dd
ff3d
02cc
01e8
ffca
0194
fd4d
fddc
ff6c
0031
00d7
00e5
fec0
0215
02d3
0160
fde5
fd41
0052
fec8
00ac
fe35
fe81
00b3
fe0a
ff87
02c9
ff50
fe44
0248
0116
013b
0014
01aa
00bb
fcfa
0057
fd1b
0312
02c6
ff2a
0195
fdf8
0123
ff9f
0009
0351
0282
01d8
ff9b
ff07
0056
015a
fe96
0245
034f
0270
00b4
fd9f
00e2
013c
fd18
02ca
ff9c
007e
01a6
fe13
ff8e
01c3
fd8b
00e3
fffc
01f6
ff1a
0201
016e
fddf
00c1
0416
0188
ffa2
002f
ff10
00e6
fd42
fc02
0083
009f
fcbb
006b
039b
0151
fe99
ffa9
fe34
fe56
0008
fee4
ff63
014c
ff73
0170
01c3
ffc4
fe36
0057
0204
fd34
0113
0226
ff22
ff4a
0045
fd60
00b2
01fe
01eb
fc4c
fe83
fe65
ff72
019f
00cf
0187
fed6
ffcf
feca
fee4
0003
fe74
fe82
0188
0261
00d5
01af
ffd7
03f9
0318
011b
fc34
fdd1
ff96
fc2e
ff25
0054
010d
0043
021a
00c8
ff85
0206
fd27
012c
ffd8
020f
0007
00bb
ff9e
01c1
ffc1
006a
0188
fdcd
00ef
ffd9
007e
0249
fe4f
fe7f
019f
fe6f
0118
0118
ff2f
00c4
0244
01d1
ffc0
012c
0066
ffb8
ffb6
0154
ff57
ff75
fefc
fef2
fe48
0072
ff13
00f1
0295
0266
00e7
0152
fecb
fed6
ff4e
ff0c
007a
0132
fd9d
00c7
fd9e
007c
fee8
0137
ffb6
ffd5
010a
fe38
0258
ffd6
ff0b
00a6
00cb
ff3d
01e7
0131
fecd
023e
0028
00d8
01be
fdd3
fe32
fe47
02ae
fdf4
fd30
016a
0044
ffbb
0248
00d6
010a
fed5
0169
ffa7
001c
ff11
ff87
fe2b
fffa
00b1
fdb9
fe5a
ff1f
fdfd
ff46
fbc1
0211
fdc7
fe59
fe84
feb9
01c2
0084
0280
0055
0048
00ed
fdd4
0075
fe23
fe9f
0012
008b
017d
ff7e
00ac
ff5c
010a
ffed
fef9
fc7a
fd83
ff30
fdc2
ff32
fdbe
00eb
01cd
02ef
008f
fe8f
ffbb
fe58
fdd1
ff31
01db
0030
0129
fd91
0302
ff72
00e2
ff01
02a4
ff50
ffeb
02a5
ff6c
ff38
022e
ff43
ffea
fec6
ff85
fdef
ffc2
03f1
0143
ffc5
00d3
0092
fe1d
0186
0006
ffba
ff90
0230
fe7c
ff47
0136
0036
ff89
01e1
fde9
0269
0035
ffbf
026e
ff90
0065
0046
fe10
0024
0246
004a
fed7
0096
008d
ff09
ffdd
fe62
fee2
fe8e
ffa7
fdc5
0100
00d4
020c
ffaa
0129
00ef
00a8
009f
021d
fff1
feba
0103
00b0
02f5
fea1
ffa5
034b
ff42
02a2
0253
0029
fdf8
fe6c
0058
007b
0302
fe93
003a
008d
0064
00a2
ffb5
0419
fd87
fd43
02c6
0073
fd5b
fffd
0061
ff59
0282
ffa5
fd07
0089
ffc8
fdce
00ea
0493
0333
fffc
ff81
fe35
0229
036e
fdf9
0322
000d
02ad
fdc1
0130
0087
fd93
01a3
006e
02c3
008f
012a
fd13
00ed
fff3
028f
017a
004d
ff1c
fef2
ff7f
fe96
fed8
0122
ff4a
fe4a
000c
00c1
ff05
fe38
fc31
fef8
ffe4
fe2c
fe21
005d
fff7
ff24
fe7d
013c
fee8
025a
0114
fd83
fdfa
ff3c
fdaf
0161
011b
025c
fea6
01f5
ff66
0145
ffb8
feb8
ffbf
ffe8
fd17
00a9
0148
01dd
0206
ff06
ff1b
fdcc
ff58
fd59
fdf5
0387
0214
00df
008b
024c
0261
ffa2
fece
fdc4
fefc
027d
ffd2
016f
01f3
0101
01b0
ffa2
ff53
fe85
009a
fefd
ff61
fd35
00e4
ff2f
fe61
01bc
fdc2
017a
0186
fe40
fde0
0132
0163
011f
fe2c
0020
0075
0124
00ac
fe74
002a
018b
01a5
002c
ff23
ffee
fe34
0338
003b
0073
ff19
ff13
ff8f
00c5
018f
fbb0
0158
028f
01c3
fddc
ff93
000f
0011
fde9
027a
016b
ffe4
ff6a
fe3c
fe1d
ff27
ff30
ff13
fef9
fe0c
005f
015a
0051
fec3
ffcc
fd37
00be
0159
00b1
01bc
fe24
fff5
fec8
010d
009c
ffe8
fe60
ff97
0252
ff49
0095
01ab
fe01
01f0
fe14
fe8a
024b
0034
003f
ff3e
0022
fdcd
017a
fe13
ff7f
ffdd
feca
fe41
0151
02a2
ff89
ff23
0030
fd25
feec
0120
007a
013c
01cc
fef2
fe8d
ff54
02ae
fdd1
ff05
fe86
fe4e
fe18
ff33
0027
fd46
feba
ffa2
02f3
03f1
fff2
0141
037c
ffb6
0390
020c
fcdc
00d6
fdb0
fe33
00a7
01af
02cf
00e0
fde6
02d3
0245
ff8d
fee8
003d
0049
ff16
fe8a
fe6c
fe54
feba
fe3b
fde8
002c
fec3
026b
ff6e
fff8
0113
01a2
006d
0052
fd3e
0035
fd32
0194
0098
012e
0014
fd5f
ffe2
0193
ff2f
ffa1
ff51
ff1c
00e0
fec8
03be
fee5
011a
fca4
018a
ff95
fe25
ffef
fc4c
0309
008b
fdc6
ffd4
01bf
0138
0149
fec5
ff72
fe3f
021c
fedd
ff4c
023e
029d
0096
01df
0120
fffa
ff49
013b
021e
00ed
001d
013e
fde7
fef9
fffe
00fc
fe5d
0349
ffeb
0294
fe00
03c0
0124
00ed
0006
0194
ffe6
ff8f
019f
ff63
02ec
0176
ffdf
fe8f
ff0e
fea9
fea4
fe0a
fe83
0043
ff03
feac
0162
fe23
ff19
0135
fea9
fe55
0082
ff23
ff71
015e
fe7c
0201
0178
fe40
026c
fff3
ff41
01ad
feba
0041
026e
ffda
fee1
febd
0127
0257
ffc9
0200
fda7
000a
ff1d
019b
0010
018e
0102
0073
018c
00f2
0103
00e4
fec2
0143
00c7
ff51
ff0c
0194
0018
ff03
fe1f
ff02
ff81
01b8
fe16
ff12
ffc7
ff37
ff35
ffbf
ff2e
0253
fe72
ff97
0292
fcdb
02c5
fffc
008f
fda7
01d4
fc5c
fd91
ffb5
0087
022e
0209
fcea
fe6e
ff16
02e5
03fe
ff70
fde0
ff8a
01a4
01a7
0170
030f
0238
fef3
ff13
028b
fde8
fe07
020d
ff5b
fe8f
fe80
0035
02dd
008c
fea4
ff49
fe9a
02b1
fe59
0377
fec3
029b
00ed
0201
00e0
fea2
00a3
0081
ffae
fd8c
fde4
fef9
000b
ffb4
019f
00ae
0053
fd3b
fdfd
0028
feaf
00a8
ff0c
0027
feef
ffa7
0240
ff1b
ff43
ffd5
0017
ff6b
ff35
fd77
fe8d
0256
ffd9
015b
01b2
fdb6
ffb7
ffde
0125
0090
ff9f
fe2c
0083
ff78
fe27
ffd2
feee
0071
ffc1
ffae
0245
fef8
01d2
0115
fee8
fff6
fdd3
02a5
0138
005e
ff37
fe70
00e5
fedb
00d7
0034
fce9
ffbe
0260
01f0
fe8a
fef2
ff87
febb
0236
008f
fee3
ff05
00e9
0102
0224
0073
01d8
ff87
ff26
0021
fea5
0136
fe53
01e8
fe2b
013d
00b6
fe79
fed2
0349
0134
00ec
0097
0064
fd7a
ff09
0022
00d1
ff0b
0141
ff75
fe8e
027b
feda
fe47
01da
01da
0110
01e3
febc
febc
008f
fce2
fde5
fd87
01ea
ff6d
02eb
018b
ff9f
01ef
ff41
fe8f
0134
fcad
0059
fdd8
01eb
ff82
03f1
feb4
ff99
00e0
003e
fef6
019c
00fc
ff3e
fdaa
fea6
ffd1
ffe4
fe21
fdaa
00a4
fd9f
029b
fdc9
fe7a
ff96
0032
ff9e
fdc7
fd89
fd33
00e3
fd16
ffb9
feb7
fe5a
018a
fecd
fe81
fed5
fed3
01fd
00be
ffc9
0039
011d
fe08
fe0d
fdb9
010b
01fc
00db
004e
ff0e
002d
ff86
fdf6
fe9a
000f
0006
007e
feab
fcf4
0037
fe96
0102
feac
0136
ff03
fdd1
01ab
00f6
01df
fd72
0198
ff0b
fdaa
030a
fe27
ff87
002f
0210
ff6e
ff76
ffa2
fd93
fe6d
010f
01fb
fff8
0033
fd6f
ffa7
0017
ffcc
feb2
fd63
ff75
ff97
fd6d
02da
fd6d
0224
0165
010e
fd6e
0046
ffd1
feba
0325
ffcd
0038
feb9
ff75
02d7
02e6
0065
fc12
ffc1
ffb1
00b7
0075
0079
0124
fca2
02a3
01fa
fd3a
fe7c
002b
fe63
00d3
001c
fdf9
02bc
ff3c
ff73
00a6
0151
fe1c
ff49
ff3d
ffbc
ffd1
ff02
fda9
fe51
fd08
015d
0005
0429
ffb5
fff8
016a
0015
fe84
ff29
006d
fd52
002a
0146
fea8
001d
004b
ff1e
fee7
fd05
00f4
fc64
ff4b
0013
fd12
ff7e
fe22
01f7
fe09
fdd2
fe17
fd7f
ffc5
0195
027e
fe89
fe07
01e6
fcaf
0132
01ee
fe67
fd89
fc7b
00d9
009a
fe0f
026b
009a
01b8
fe89
ffd6
0332
00ab
ffbb
feca
fe57
fea8
fff7
fe11
039a
0107
ff97
ffa2
018c
ffe3
ff68
0185
0104
014f
0014
ff30
0228
01a3
02e6
0006
002c
fd27
01da
02c3
fd9b
fec5
feb5
0000
013d
0079
ff1a
fda6
ff78
ff50
ff41
fdc2
ff14
0112
01a9
00e8
0116
ff00
ff26
0131
03e0
00b4
ff61
fe68
0169
fc8b
02f7
006e
01e1
0093
ffb8
ff5c
026c
fd30
fc7b
fdcc
fecc
fdbc
fd6d
031b
fd92
03a2
0271
00dc
00f6
fe00
ff24
ffda
fe3e
01d4
0117
002a
0061
0103
0140
0065
003b
fff4
009d
fe97
fedb
019e
0049
0143
fe20
ff12
fe6d
00f3
0172
fead
01bd
0193
00b6
ffd0
00bf
0046
ffb8
feff
fee6
005c
ff72
feed
0177
0125
0200
0203
fea6
025c
fe65
fe75
ff61
005b
fee3
ff0e
0181
fd8c
00e1
0127
fdda
fd95
fe9a
00ab
fee5
fe68
fe77
001f
ffed
ffab
ff5e
008e
fec7
ffcf
01c4
ff63
01a2
ffcb
fe4c
fe5b
008a
fe1e
fe3e
0028
005f
0131
ff07
ffee
00c2
fdc4
ff97
0140
febc
013d
00e3
ff9c
ff63
02db
028b
fdb9
0015
0111
009f
fcfe
fe71
0149
ff44
016b
fe4a
fc21
fec2
0118
fd89
ffe2
ffc8
0055
0178
0049
fe59
ff70
0051
0200
0002
feca
ffa4
039a
019f
009a
025a
fd20
0075
0126
ffa6
007e
ff05
fea5
00c9
00e8
ff08
fe86
0033
ffd1
01fe
0108
023e
0116
ff78
fec1
0076
fe2d
0102
fef0
ff64
011c
0163
fe66
00a9
ffb6
01e8
febf
00ad
ff9a
fe6f
00f3
0067
0113
ff12
01a4
fe04
fe13
fef4
fe6a
00a2
013d
01c8
fe2c
fe69
fe24
fec3
ffde
ff94
0163
fe74
010b
fe6f
fde5
ffc9
0156
0191
fdf2
020b
0019
ffd9
fe07
ff7f
fe83
fffb
0038
0115
01a4
00ee
fd17
0132
ff6f
ff2d
fe4b
ff3f
fe83
fe6a
fdd9
ffe8
fe48
ff4a
013a
ffee
fff6
ff22
ff6d
012f
0037
ff10
ff6d
0038
0071
fed1
fd3b
feb8
021c
022a
ffae
01d8
fff2
021a
ff52
fdfb
ffea
016b
0019
012f
ff08
0108
0174
00ea
00dc
ff58
ff02
01bc
0192
fd53
01af
0209
01ca
01b9
0111
fd8d
0054
002b
00ca
ff51
00aa
fed7
00d0
fe7f
0161
fcb0
fed9
0082
ff8c
ff38
fc8f
0007
0010
fed4
013e
fe2e
fd64
01da
0098
0208
01e1
fbd0
ff1f
fe5d
0055
015e
0087
02f8
fe32
fd99
01e1
ff62
00b5
0144
032c
fecb
ff26
fef0
fddc
ff82
fe39
fdc1
fe3a
002f
fdcb
00b8
feaf
013b
ff52
024b
fd97
fee5
ffd4
ff16
fe74
fea9
00b1
030d
fe60
000c
002c
003f
fce0
017a
fe40
021d
fe72
fef6
026d
fe94
fe97
014b
fdaf
014d
fefd
ff70
0033
ffe1
ffdd
fd86
004b
0152
0344
fe8e
fdbf
fe5a
fe4e
fd51
fe47
019a
01bb
009b
feb7
00bc
ff41
0272
004b
ff21
0210
fdfe
ff44
0107
fe9f
017d
0076
0073
fda6
000f
0145
ff3e
0060
0207
fe26
ffc7
ffd2
022b
fcc2
01b2
fda9
01b8
fdb0
0022
0037
fff6
fd05
ffaa
0038
011c
0244
fe18
fd2b
0146
fed5
007f
0086
00bf
001a
029e
0073
000a
fe8c
fe69
011d
024e
0045
fd9c
024d
0263
fef1
0220
0244
fe28
fe71
ff75
feec
ff62
011a
00e1
ff09
007d
0161
fd03
ff12
fd4e
fd9e
ff6c
ff59
0226
fed1
fef5
0208
feed
fe8c
fe24
fed8
ff59
0082
ff33
fd16
fdc2
ff4e
00d5
fe28
016d
fe4c
fe1b
0174
ff9c
00fe
fded
fff5
ffc2
0373
0385
fee7
feba
ff4e
0257
0023
00eb
fe79
fdde
fdc7
0215
00e7
01ad
0129
0154
01e1
fffe
fe37
0165
006d
0034
ff1a
0215
fe1b
ffa9
025d
fe7d
ffaf
00c2
fe45
fe4a
01ed
0064
fd92
0254
fe98
0034
00f7
fffb
fdd5
00e7
0055
fe95
ffd3
0233
fe32
ffed
fed8
018f
00f8
ff79
024b
018a
016b
0115
ff65
fefc
fea6
fe64
ffd9
0162
ff07
009c
fe66
fe2d
010d
fe9c
006b
ffdd
fd9e
0083
00d7
01dd
014d
fe1f
00e0
00c5
fea7
fe1f
ff54
0022
0006
01a0
019a
fe76
fdbe
00d0
fe73
fd55
fe53
010d
0130
fd2d
016e
ffd2
00d9
0208
ff70
fd87
fe0b
ff79
fd27
ff1c
00ee
0078
feab
0213
ff9d
fef4
0151
01bf
00c0
fe68
01ee
011c
010e
ff75
fe34
fd5c
002b
0217
01a0
00ce
ff84
ff32
fda8
ff99
0119
0176
fd79
ffa5
027f
0260
ff84
0075
002c
ff93
fd6b
0092
fea5
005e
fed8
ff8c
fec1
00f3
012d
fe29
fe73
011f
fe5b
00fa
fff7
017d
0276
fea9
ffd0
fea9
01eb
01dd
00c0
02b3
fe3c
0010
ff45
ff92
01f3
0190
fda1
ff48
ffc9
ffdd
0178
0370
fe2e
fff5
010d
0128
00e4
00f4
fdc8
fe68
fdc1
030f
0174
037c
01fc
fdc9
fd5c
fd45
00e8
ffc4
ffb8
fdc1
ff33
002b
0123
fe5b
ffd6
ff9f
fd90
ff93
fdb7
0079
fe2d
0013
fec3
015d
0115
0146
fe81
01e6
0012
ffa2
00d4
ff2e
fe5e
ffa1
0062
014b
01f0
fe3e
feea
015f
0128
0075
0199
010c
00ae
fec1
0120
fd37
01c6
00d9
fe03
fd6f
0059
0215
0057
ffb2
0016
fe2b
023b
002e
fe89
01bf
ffdf
febf
0237
0192
00e6
fe68
fe41
00ae
0156
00b6
027d
00ea
00ea
009c
0006
0034
0245
ff6a
00a1
01b4
009c
0003
01e7
00f8
fe5c
fff7
01f2
ffc2
01ee
fdee
ff85
0208
0083
0130
fef2
ffc3
00fa
fe92
fe42
0043
feca
0182
0165
fe7b
ff3c
ffde
ff45
00a2
0081
005b
010a
fe25
01b2
00f1
0084
0002
00ad
006d
008b
fed7
0071
01ea
fdea
017f
fef0
fe08
021e
017d
0121
02c1
ff13
0217
0139
02bc
fe2c
fd86
feef
00a0
0163
00ff
02d6
0225
ffe8
febb
01d7
fd63
fe53
fe0b
fff6
011c
ffa9
0071
fed3
fea2
fee0
000f
0116
ff52
0177
fefa
005f
0034
fe92
ff5e
ffb5
0205
fd5c
ff74
014d
028c
fee4
01db
ff52
01fb
fee2
fe0f
0055
00f8
0181
ffcb
ff72
0000
ff6c
ff56
020a
fed5
0022
029b
02b6
00d8
0248
fd02
0222
0119
fd9b
025b
024d
ff6e
feb8
fe7b
fd70
022d
ffc6
028d
feba
0293
0001
01b2
ff3a
fedd
ff4a
ff01
00d0
fedc
0173
01ce
007b
fdb6
ff69
fece
fea1
0033
02b1
0068
fe79
ffc2
006f
013b
fde3
fe31
fec3
01e4
00fc
0055
0228
ff2d
ffe8
fea6
fc95
00ec
0182
0009
0152
0043
01e0
fd36
0072
ffca
0265
ff38
fe0f
002c
00df
01f0
fff4
ff6b
021d
024f
ffcd
fece
ff99
ff1a
fee7
010c
ff28
ffba
fe17
ff17
0179
0125
ff12
00d3
ff7b
fed0
fff1
fde8
00f4
fe80
021b
03b1
03d2
fcbf
0198
ff87
02a0
fddb
0156
fe9e
fdea
ffe4
0251
ffc0
ff1f
ff59
fd2b
008a
fe20
ffca
0117
ffc5
0207
01d5
ffc6
ff95
ff95
02ce
fee9
fde9
febe
01ed
fe21
0153
03e2
fe2b
fd92
0285
fec1
0236
0167
fe6c
feaf
fdc7
fd81
0068
01e0
013f
0002
01b1
0018
00d6
fd5d
fe62
ff6f
ffbc
0070
00cd
015d
00d1
018f
0060
ffd6
ff49
01d8
fe55
0009
ffb8
0263
ff58
020a
0053
0248
fea6
fde6
ff05
fe47
fee4
0079
ff22
ff3e
fd5d
ff8d
fe08
02b9
fde2
003a
fe3b
ff6d
00db
ff01
fe81
015f
ff15
0251
ff79
ffd1
fd61
fffe
0074
ffb7
0037
001d
fe46
ff59
0015
ff69
ff53
ff9b
001f
fdd5
fe09
0006
fed6
ff68
ffba
02ea
0286
0161
001f
ff60
0088
febf
023c
fc6d
0306
ff14
0246
0141
006b
ff89
01d0
0089
025c
ffba
0078
fe1e
fea7
ffa5
0165
00b7
00e9
01d8
fe49
01c4
fd3b
00c8
ff65
024b
02d2
fe04
fdc3
00e0
0034
fe83
0333
017b
01ef
fe8e
fee8
ffa0
ffff
00fb
0311
ff49
02b6
0126
00ba
010d
00c8
01b1
fdf6
fc90
fdcf
0044
fdf6
fdd0
fe92
017f
03a5
ffef
fdda
ff4e
fd57
ffba
01ff
feeb
0038
0045
001b
00ca
ff31
ff3d
fed4
00ac
fd8a
021b
0040
ff62
00da
fc8f
fcb2
fe75
00df
fe69
fe88
fe60
0198
ff72
fe41
0030
fee0
0153
003b
ff74
01a9
00f8
021d
fd49
001a
00e3
003e
0288
fe22
00ac
02bb
0141
005b
00a6
ff55
fbf8
0075
fde4
0087
feac
0129
ff99
ffc7
ffd1
fdf5
0301
ff6d
ff86
01a3
ff57
ff50
ff53
ff3d
0032
0086
0186
fdd2
0238
005f
00b7
0119
0111
ff71
0112
017f
fe96
fdc9
ff9f
fde6
ffc5
ff72
ffd9
0083
fd9b
fdf0
ff15
010f
0212
ff02
02a8
ff08
0106
0012
fe6e
030b
fe44
0216
02b3
0015
017c
fefa
fe23
01df
00f6
02dd
fef1
0193
fd23
fea4
fe8c
ffb3
0103
00d9
fcd2
0075
ffbf
fd41
01a5
0092
00ea
ff2d
026c
fee4
ff66
00f8
0085
0151
feae
ff4d
0166
fe50
fd55
027a
0069
01b4
0281
01aa
0369
00f6
ff72
0249
00f1
00eb
fe6d
ff27
fecd
00eb
0003
fe68
024c
02ef
fe8b
ff5a
ffdd
00ce
ff62
ff0d
003e
ff31
0126
fece
fd93
007d
fdc4
feff
ffe2
01d6
013c
00bc
010e
022a
ff47
ff73
009a
0043
fdcd
0097
fe9c
002b
fd4e
fe65
fdfa
fe4f
0194
01d2
00ec
0179
019f
ff5a
fc18
fec0
fdec
0173
0244
ff3e
0228
fdbc
ff21
fef2
0231
fee5
fdb0
0301
fece
ff34
01d3
fe91
fff2
0097
ff73
024e
00eb
feb2
fef9
00da
fefb
fe58
fe92
fe37
fe7b
002f
0127
00a7
fd96
00cd
ff39
feb1
feda
fe15
fee2
ff91
003b
ff39
ff45
0189
fcfe
fc68
ffbf
fdaa
ffe6
feef
0024
018c
0055
0062
0115
ffbf
019b
00ea
0006
ff33
01b5
014f
ff77
0288
002c
013f
fe40
ff46
004e
fde3
010e
0059
ff47
019c
ff33
0200
ffca
0095
ff29
0153
0258
0142
ff54
0056
020c
0191
0282
0156
ff07
02db
fef4
ff22
0028
ff3a
ffcd
ff65
0223
ffe4
ff30
fd86
ff88
02db
ff00
fde1
ffb8
0111
0196
fe70
0039
ff86
ffd0
ffe1
00b3
00f8
0036
fee3
fd4c
ff86
fe00
0244
ffa8
00fa
fe4b
fd64
fe8c
02ed
ff6b
0079
00b9
0158
01df
01c4
ff7f
0108
0175
01e7
011e
febf
0129
007e
ff3a
0111
009a
0338
02ea
ff2b
ff30
ff58
018d
ffac
00f6
ffe5
ff9d
02ba
017f
ff06
00b1
fe48
fe06
016e
00b8
fd7b
01c2
fd78
0109
01f8
018d
fd43
fe70
fd8b
00cb
0103
001c
01c5
0285
0162
ff0b
010f
02c1
02f6
feb6
fef7
020d
003d
fef5
ffaa
ffbc
0190
0009
0098
005b
0189
fef1
ffbb
ff1e
fe0a
fe41
002b
00a1
fee0
0014
00b1
0018
002b
feef
00a1
00f1
01a8
00c4
fe70
00e6
020d
0164
ffa9
ff4a
fdc1
ffa2
fe92
00c5
ff20
017a
0168
fed3
fee3
fe9e
0210
fecf
01cb
01ca
fe85
ffcf
0075
0052
019f
0063
015b
feab
0269
ffdd
021e
01d6
ff49
ff32
fdac
0071
fecf
ff2e
00ab
019a
02ef
0067
000c
02f7
fe44
014c
0172
fff0
fde1
ffe6
ffbd
fd2a
0327
02bd
fcd9
02d0
fdcb
0151
0277
fe1f
01ff
00dd
ff52
0036
0054
ffd6
0091
ffa3
00d3
03b0
00a3
0174
fff4
0238
0188
fe7d
ff0d
0061
fd9f
ffde
01a5
ffac
0223
fe5a
018e
0013
ff68
fec9
0218
0102
0232
ffa3
00ab
00b5
fe09
fece
02bd
ff89
fd00
ff38
ffae
fe41
fd24
003a
0165
03e7
fce1
0110
008b
02c1
fea0
023b
fead
00b5
0182
ffe6
036f
fed6
fcf9
001a
00cc
ff22
0218
01f9
008d
000f
02cd
fd29
0127
01a6
01c9
fd97
014f
03c4
fe37
0131
0087
02b6
01b4
fecb
fd65
00ca
feba
0220
fec3
fe6d
0109
ffae
01d7
ff15
ffa3
01c1
ff6d
ffcb
0089
0189
0120
017c
fc90
0069
02fd
003d
02a5
01d0
03b3
fc60
0204
fce0
0166
fe62
fd7d
ffc4
0016
ff29
ff8f
0196
ff02
ff3e
0096
fdc6
00a2
01a7
ffa1
004c
0029
feaf
004e
fe5b
ff8f
00c6
0352
02ca
ffad
ff50
ff11
ff85
0146
00d3
fffa
00ca
ffe4
fdc8
01e6
ffaa
016d
ff9e
ff7a
0267
fe8c
fe96
0048
005c
ff36
fded
0084
008d
011d
00be
fff1
fff4
0281
0166
fea7
0088
ffc1
0303
00e4
fe6b
ffe8
ffff
ff1d
0063
0148
00e2
013d
017a
fe79
ffa3
024f
fcdb
0108
012a
0180
ff55
fe28
0057
01e9
ff96
ff92
ff76
fde8
02d5
014f
0113
0022
fff7
01a5
00fa
034a
fd01
feac
fd46
00df
005e
00d0
fef0
0210
ff7d
00ec
0169
fec5
fdd2
fedb
fe4d
fd8a
01b6
ff7c
ffd7
0183
00c6
fe35
ff12
014e
fdaa
00ec
febc
0191
ffe6
0293
ffb2
02b9
0064
ffc5
ff3c
02e0
00d0
fcca
01e0
fe8a
00eb
fe46
fe18
011e
fdbd
fd21
fd54
00e5
fd94
0022
febe
fd7e
0141
007a
fd00
018b
0221
0091
fe68
01cd
fdfb
02f6
00be
0136
0159
fe3e
fd94
fdb4
0276
006c
fefb
ffa9
ff83
0073
ff95
01c9
fea3
fed3
ff63
0059
01c3
0124
fdca
030a
0192
fecf
feb5
01cc
00ff
fd7b
0075
0206
03bb
02c7
0064
004e
ffa7
fe6c
0033
0253
ffe0
ff79
fde2
fe64
ff7c
ff7a
0045
01b7
ff5e
ff06
ff88
fdf5
0094
ff8f
fdf7
fe86
01df
0289
ff69
ff82
0115
01b8
00b7
fe3e
0160
00e5
fede
fd92
ff50
01fa
0271
ff1d
fd24
019a
fdd1
02ea
fef3
029e
fe5a
fe25
01f1
ff42
0129
ffbf
fff4
ff03
fed1
0032
fd5d
fe72
00e7
008e
0080
02d6
0172
01f0
ff7c
ffb7
fdcf
015e
ff7f
ffa9
0120
ff7e
0011
fe87
019f
fecd
fc98
fff4
ffae
00d8
ff62
0297
ff0e
fe92
feb8
ff3b
00f1
0230
fec7
03f0
ffe0
ffe8
00af
ff6b
fd1d
00c6
ffd0
0064
fdec
005f
0133
008d
0277
018c
0016
016d
0254
ffc5
ff5c
fd34
fc09
fdb2
00e2
fee3
fec8
febd
fe3e
ff1a
02d7
ff31
fec1
0115
ff15
fddb
0123
ff1b
fd39
fe2a
ff3c
fff0
fe96
030b
fe53
ff8c
0050
fee0
00d2
fddd
ff3d
ffe2
015d
0061
fe01
0256
fc9c
ff08
fd8c
0241
fe61
0053
034e
00e3
fe6a
feda
006b
0110
ff6b
fe77
0233
ff72
01e3
ff12
0204
0166
011a
01af
0156
01c6
033d
01a9
01d9
01bf
00a4
0031
fe6d
021c
ff79
fdd7
fed1
ff80
0071
02fd
fd75
0077
02bf
00dc
006b
01d1
fd6d
fe9b
00f3
ffb4
013b
0204
febc
fd91
fd5d
febe
ff11
ff95
004c
00b1
fecf
021d
0037
0210
00f8
ff61
fe3a
0199
fdfc
0131
0147
fe65
00a8
ff25
02c5
0157
0230
ffe1
0157
ffbc
0059
fe0a
feaf
fe9a
ff08
02b4
025c
0182
ff3f
ff6e
fef0
fec3
0077
ffb4
ff9b
0236
fd54
00b7
0102
0020
ff63
004a
fded
fe5d
ff56
fe4c
fe19
fea0
0356
0201
014c
00d9
fd40
00e6
ffe6
ff42
fd96
ffbb
00ff
fee5
0131
015a
0092
01e8
ffc8
fe7a
01fa
026c
0146
022e
fde0
00ef
fd39
0108
febb
00ff
0071
0029
feb3
00fc
02af
0033
ffff
ffdd
00fa
ff6e
021f
007b
0031
fec3
feb0
0111
ffe2
ffc8
fe0e
feb8
005b
0244
00f7
ffc6
fff1
011e
fe81
fe46
00f2
01a9
011e
000d
002f
01db
fd80
022b
01ab
003e
fe20
002d
01d0
0081
ff8d
0340
ffdf
ff60
0085
006a
016e
fef7
00c8
ff63
00c2
00f8
0146
ff11
ffdd
fe5d
00f0
fe9c
ffe9
fe3b
fdf0
fed5
fe60
ff6e
ff95
01ae
ff01
fed4
019f
fe83
fec8
00b0
fe60
009c
feaa
fed2
00ba
fed7
0209
fde7
00e3
00e6
fff7
01b6
011a
feef
014e
ffd2
0170
ffac
fdf4
0197
008e
fda6
0076
ff56
020d
fdd8
0046
ff51
ff50
fe64
02b7
fe58
021f
015a
0217
0121
00b5
ffef
ff02
0026
0058
fe04
ff05
fee9
0217
0075
ff81
fe24
ff06
fe7e
0115
ff61
fc8e
0003
ffff
fdaf
feea
00e9
0142
02cf
fdea
01f5
0219
ff57
fe03
ff52
feee
01e7
ff7c
ffb0
ff11
0004
0253
00c1
0055
0157
ff8c
001c
01d5
ff2d
fed3
001b
0274
0005
fed9
02e2
fe30
fe80
0154
fe38
ff4a
03a4
ff7a
fe43
0181
0188
fea1
011a
0136
ff41
fdfc
0028
fffc
00fb
ff98
01cd
01fe
fe56
ffa8
fcd4
0282
ff66
feff
fde1
00dc
00b0
0079
006c
02fb
fd3c
00d9
fdf3
01e9
0016
0148
00b3
0130
01e4
fcc8
ff15
ff9b
ff80
0044
00e7
00db
fcd7
0188
fd12
0362
001c
fd8d
005b
fdaa
fe06
0049
0166
feca
0062
0162
01b5
fec3
006e
ff77
feb0
fd86
ff4c
009f
0216
02fe
0012
fe6c
025e
00a0
ff3b
0193
01f7
fdfc
ff8d
fe53
002e
00eb
013e
ff7d
0133
014e
fdba
fff3
fea5
ffc9
0095
fec7
00a4
fe69
0037
ff2a
fd9f
00f7
00c3
fe9c
0283
004c
012b
fe6d
0005
01e1
003b
0121
0294
ff81
fdef
032f
ffdf
fdec
fec2
fe54
ff55
ff23
0051
010d
02e2
00a0
ff2f
fdd6
0273
fe22
019f
ffa8
0090
ff5b
01af
00ff
feba
ff65
fea9
fec5
0100
fd3d
0076
01c7
fe7b
01eb
fe7a
ff1c
ff82
fe81
fe88
ff0b
fc9b
fed9
fe6d
01b8
ffa9
018d
ff6b
ff0c
fe01
0137
01f6
0050
fb4a
fd84
00dd
0006
018f
fd77
0083
0181
fddd
ff0c
018d
ff7c
0080
fd54
ff9b
019c
0168
0074
fca2
fd74
0088
ff61
0249
fe6b
0055
0192
ff69
0208
0012
fecb
0214
01da
fe4c
fc7d
fd7c
0103
fdf8
ffa0
fe17
0026
ff77
034f
0192
0200
01f2
ffc9
fe12
fd1a
0021
fd59
01c3
fe75
003d
014b
019c
0226
0099
0129
ff87
010a
fc22
fc71
011a
fda0
019f
0067
fde9
fe1c
fe46
fdf7
feea
0194
010e
fe3d
fedc
0176
0028
fc45
0094
00e9
02c5
0140
0043
01fd
fe05
ffc7
0284
fe07
00a3
004d
007c
fe1d
fd30
ff37
fdb9
fed2
fde0
0027
fdd3
ffae
fe65
fe0d
008b
01ea
fdf4
fe65
01ef
0160
ff22
0269
01dd
fe20
fea5
fef0
ff78
0169
0258
fec3
035b
fd84
0269
ffa4
ffa7
0027
0088
fef8
008b
fe5f
021a
01aa
fdf8
02f5
fdb1
fdcc
ffb4
0172
ff32
fe9d
0144
fef1
fed9
fe12
00a2
0040
005b
00b1
0237
01b9
006e
0263
ff9d
fc6c
fcd8
01dd
008e
ffc2
034f
0197
0029
ff54
ff9d
013d
019f
ff0a
fd56
0136
ff47
fe20
0095
016d
0055
fe8c
fd94
00d5
fff2
021a
005a
0131
0091
00eb
0031
ff3e
ff5e
0143
0110
0108
ffed
ff6d
ff00
fdf0
002e
fea4
ff97
fd32
0141
0233
0065
023b
0218
fe93
ffc4
000e
ff09
0065
0194
fcfc
fd3f
0222
fd06
ffdb
feec
016f
00ca
fcad
fe7d
0013
0169
ffa6
016a
02e5
fe98
0149
fe84
0147
fdf3
ff78
fe6e
027b
ff3e
ff29
0059
ff42
ffcf
fe2d
02b8
01e8
01f0
ff5b
0279
01b9
fe22
00b7
016a
020d
00b6
fd8a
ff2b
0183
fee4
01e9
fffb
018d
ff59
023b
feaa
ff80
fe95
0205
0188
fd94
00eb
ffcd
fe26
0143
ffb2
0392
0181
fc3e
ff37
fd2c
ff20
ffa1
00c6
0262
fd96
ff93
fe1a
02c4
0047
fd5b
fe1c
0160
ffcd
ff84
015a
0090
feed
ffc8
0032
fe60
0184
fd94
fcd6
004a
fec8
fef7
0256
0242
009f
feae
ff57
fdf9
02e7
003d
fcfc
fecb
01ee
0026
fe4b
0230
0125
fda7
ff7e
fece
021c
fe98
fef1
009b
0017
ff06
0261
0148
00e8
0214
ffec
fe95
0168
005f
0150
006d
fef5
fea4
ff84
0269
fed3
01b5
0200
ffbf
0134
00af
01bd
ff96
015f
0139
007e
fe26
0062
fe4d
0227
0212
fdf0
feff
016e
0100
ff58
01f0
fe2e
fde4
00ce
02b3
01aa
00ed
00c9
fda3
0089
ff00
024a
005c
ffe4
0001
0113
fe9c
ff00
fc8d
0000
0154
fe71
fe04
021a
0140
0084
feda
fdf4
fd87
02f4
ff52
028b
00bb
008b
ff06
ff89
fce2
ff02
023f
00b5
ff7d
0171
0298
ff02
ff09
0068
0183
ff4d
fe87
fde7
fe51
feb0
0139
fd51
fe91
fe0c
024b
01af
0052
0043
02cc
fec5
00d4
02a5
fffb
fe51
fed8
0089
ffe3
03cd
fea4
fe66
01de
ff44
fe5d
014e
ffdb
fcdb
02ca
0059
022e
021e
010a
0059
fdf1
02f3
fe3e
ffd8
fe7d
007c
feef
fe3e
ff03
0331
fede
fd9e
020d
fefb
fe9e
00fa
0004
02d3
0240
0039
feec
0237
ff41
01c6
02b7
ff5a
fdb9
0303
00ee
01be
0072
ff28
fbe2
fdfc
0230
ff81
0187
005d
00a2
fedd
0068
fea5
ff42
00f9
ffe6
00c4
fe03
ff2f
0137
040d
ff7d
fdb3
fefa
0081
ff97
03a0
00d6
fc23
01e1
feb0
010c
febd
feb5
ff70
019c
ff00
0022
006d
ff3d
ffcc
ff50
ff98
fedc
01ec
fe72
003d
ffd3
fde1
feec
fd88
fd4e
ff2b
0230
0136
ff7e
fdb2
ff0a
ff9e
0074
fec9
ff2f
feed
00d8
fdbf
0058
013f
fcad
013e
fe72
ff6c
00bf
02de
fdff
ff60
ffe6
006f
ff11
02a7
0075
fc82
ff72
ffb0
0157
0368
017e
ff4b
028f
ff69
0176
0258
003e
fd33
fde8
021c
fcf5
0223
023c
fda1
0209
ff98
012f
0107
fed2
fdb4
ff29
ff52
0125
0070
ff7d
005d
00fd
0094
00e3
00ab
fea6
0141
fd8e
ff92
fff4
fee5
01ef
0110
0103
fd22
005e
004e
ff09
fd6a
00f5
01d3
fffc
02a1
0134
fdb7
fe59
ff9f
ff33
00b9
01a4
00b9
ff1e
01d3
0218
0108
ff23
ff87
ff11
fd3f
fb81
fd7d
01bd
fdc8
02f0
fd6f
017a
0080
ffa5
00d5
01f6
ff6e
fd5e
fe23
0249
01f1
fdfb
0225
01cc
000c
fec9
fc7d
fcb3
0247
fd13
ff9f
fe73
fde8
ffc2
ff2b
010c
fe3f
0070
018d
fea9
ff6f
013b
ffbd
0181
0381
0193
fe7a
fde5
ff4f
01e2
003d
0053
fce1
0079
00ac
fde9
0258
010e
ffe3
ffc8
0281
fd86
0217
fe7b
fd16
006a
ff10
fe20
02e9
fdd0
fdff
ffad
00b6
febf
01f8
fdee
feb1
ff86
0139
0115
013d
012c
fed7
0003
004a
ff9c
0113
ffe2
008b
00bc
0229
0190
ff5f
ff79
fe9a
0063
0355
00cc
01f7
fd84
01e0
0030
0344
019f
0207
012a
fe48
00b8
fd14
00a0
0110
01c3
ffae
ffb9
00a5
fe14
019d
002e
00d1
0190
018f
fe29
0075
01f1
ffeb
ffb7
ff3c
ff0f
fee9
00b4
02ca
fe9b
0109
ffa6
000c
fdb2
ff85
ff41
0073
0179
01cb
0046
032e
fcc2
fe5f
fde0
fff9
0016
00da
01a5
017d
014c
ff9d
015c
0270
ff6f
ffe2
fe1a
ff33
0197
ff44
0040
ffa1
00f2
fd27
fd18
019f
fe92
ff20
0037
02cc
0042
fd58
ff0c
ffaf
ffef
01c4
0268
feaa
003b
01bc
00fa
fe21
fe9b
ff68
0288
feca
ffde
00c5
0128
01ac
fec9
016e
fdf7
ffc8
fd4e
fd41
fdf1
00b5
0020
fea3
fed2
fe8f
0177
0171
fece
00ab
02a4
017e
fe4f
ffbd
feb2
fea5
feb5
ff96
ff18
0110
ff68
ff4a
004f
01e4
02fe
0263
fe8a
00b0
022c
0194
ff4f
013b
0044
0131
fe20
ff39
feac
00e7
021d
fd6b
01e0
ff15
ff06
0097
fef1
0026
fc66
fdc3
0129
018d
000c
fefe
ff23
0085
00bb
ff8b
0123
021f
0069
0178
01a9
fff2
ff9c
00c9
fd89
fe83
ff16
fdd1
ffdb
feb8
ffed
febe
ffba
ffeb
01da
ffbd
fec1
00c3
0205
0112
031e
019d
000d
ffd0
fec6
009d
006a
fdae
0045
ff21
0287
ff4c
00a1
fdc0
ff61
0092
fea2
ff8b
0143
fe71
00cc
0102
ffb8
fdfa
ff4b
00ad
0095
fe6e
00aa
004d
fdd1
ff9b
fefd
0016
ff24
0138
ffca
00d6
02a1
fe0e
fe22
0052
013f
ff91
fef2
01b4
000f
feb4
01e2
009f
0247
00b3
015a
007a
00d6
ff8d
0089
00f5
fed6
0060
00ef
0284
fe31
fde1
02f6
fd10
ff8b
fe13
fed1
0125
0139
fdbd
fec1
00f2
0114
ff50
fec6
0144
01a5
fe4a
ffeb
fbc8
feb1
feac
ff9b
022a
fc57
027e
029b
0159
000b
018d
005b
01ad
017d
fdf5
ff7c
fefe
ffb6
fea2
03d1
fd93
0115
fedd
025f
009f
fe6b
028e
00d0
ff06
006a
fdd4
03b8
ffdd
ff2d
fee3
ff4c
0093
fe9f
00e8
0166
ffd4
fe5b
0054
01c5
0122
01d5
0019
feb9
fdce
ff82
020c
fde3
00c7
00d6
02c8
ffed
fddd
010c
ff71
0147
fff7
ff6e
004c
fdf6
ff6b
0173
fdfb
00de
025c
fd68
0057
ff62
012a
0142
fd51
fd63
ff67
00c2
0043
ff47
fe2f
ff86
ff5f
007c
fd7e
ffd7
0237
0245
ffd7
ff74
01a4
fcc2
ff15
ff62
fccf
00d8
021f
feba
0349
fef5
020a
034a
00f5
00ab
0068
fe75
ffc4
fdc9
0052
025f
01ff
0093
ff0c
ff24
01bd
022b
0248
fee9
ffaf
0099
019c
ff7d
018a
ffd9
fecb
fe05
ff33
fe6e
00b1
fdf2
01ce
0071
001d
021d
009d
fe52
fd6d
ff3c
0056
00a5
ff98
0161
0008
00c5
0110
0059
fd72
fe4e
0108
01b7
01b1
002e
012b
0107
014b
01e3
01fb
ffd0
fd6b
fe5c
01b7
ffcc
ff58
fe6f
003d
ffd2
ff13
00e4
009d
ff3e
fd6f
fc82
ff58
ffdc
006a
0146
00ee
00bf
00e6
fdfa
ff03
fe6b
ff70
fec5
ff02
0209
0154
fe1d
fdc5
fe68
0111
0178
02e6
fd81
ffcf
002b
0027
0048
ff24
010d
ffb9
fde7
ff80
00d9
00fc
fd79
00be
fe5e
ff52
ff1a
fe19
feec
ff38
0300
00c1
ff37
ff82
ff0e
fce1
ffde
0068
0045
ffed
003f
0052
00b5
fdb7
ff65
0228
ff5b
fdef
fc2d
0310
ff27
03c7
fdf6
ffc5
fd9a
0220
007e
0111
02f1
fe08
fe54
0152
ffd9
01e8
0123
ff61
ff83
fec8
fd74
fc1b
00ea
fd6b
fd51
fd27
02c6
fdd1
019d
008b
fe86
0325
01cb
ff07
0094
fe55
0098
0278
0160
ff0b
0190
fdc5
fd7e
ffdc
02b6
ff6c
fed3
018f
fff8
0199
0086
0194
fd76
0173
fc5d
0074
fde3
0205
0199
0201
00d8
0333
0419
fe0a
fdfd
0243
fd23
fddc
fd65
fe17
012c
00f7
0292
ff8f
ff78
00a0
016f
fee8
fdff
0018
0174
fdea
fdf9
fe06
fcc8
fd59
fffd
fc8e
ff4c
001c
011a
fce9
fede
ff5f
ff03
02a4
fed3
fd4c
fe0c
010f
036a
027c
010f
fdcd
fdca
00a5
feb7
ff16
ffa9
0120
fd8f
0002
fdae
fec4
ff19
004f
ff8e
fe20
fe51
fe66
fe6d
022e
00c2
018a
fe64
ff9a
feda
fe2c
017c
ff1f
fd8f
fde0
fdad
fe22
fdbe
01e1
ff92
01a4
0321
fe44
fd85
002b
ff67
026c
007a
fed5
0339
ffd4
ffca
fda5
ff33
ffd0
fe6c
009a
001b
ff4d
ffe9
ff35
ff75
ff84
fee6
feb7
fe89
fddf
ff2a
0147
ff51
00c2
ffd4
fe4d
0063
ff94
ffea
014f
02cf
fff8
fe61
0032
0000
fe67
0002
fdd8
0028
0086
fe4f
008b
ff65
017f
fefe
01ef
02f3
fefb
