00a0
fedf
fd98
ff79
01b4
fe0d
010b
fddf
0186
fefd
fed8
016d
01b7
fe9e
feea
feca
fd97
01d5
0142
fd3f
fdde
00a6
018b
ff41
0035
ff23
fec7
fe35
fca9
fe40
01de
ff28
ff0f
00c7
005e
fcdd
ff0d
fec5
015d
0078
ffb1
fe87
ff93
ffd4
fdbe
ffec
0259
fe90
ff3a
009d
0245
fbbb
ff8f
010b
015e
ffc3
00b6
fef3
0102
01b7
fff3
ff6a
fee4
fe3b
01f0
fdc6
01d3
fe2b
008b
009e
001d
fdaf
00a9
ff2e
ffa6
0185
00aa
0080
fe3e
fd10
006c
00de
0136
fdee
fd8d
ffb1
ffcd
fdc7
fef0
fd18
ffcd
ff7d
0365
008b
002c
031b
0395
ffbd
0121
fda2
fdd9
0143
024b
004a
ff0e
fd93
ff6a
0406
00ae
009a
01da
ffcb
fe2d
ff9b
010f
0059
0113
002c
ffb3
01fc
02a3
fec7
0070
00d5
ffa2
fedb
ff41
fed9
ff7b
fef6
0144
00de
0127
0123
ff1b
fee7
fe3f
fff8
00f5
007e
0138
fdc0
0146
0014
ff05
025c
01c3
014c
01e7
01b7
fec5
0163
ff50
00b6
ff6a
ff79
0225
001b
ff3f
0131
ff0d
00f6
0046
ff61
0073
00b0
ffb6
022d
0181
000c
01a9
feb3
007c
feb7
0071
fd39
ff00
0266
00ce
fe50
00df
00d6
0135
ff30
00ab
ffc7
ff2b
01c4
0120
0149
002d
0099
fda7
025d
01c4
ff88
fd40
00a8
00b4
012e
feba
0021
0213
00ea
ff9b
fffb
0179
fdc0
0163
0199
00d0
ff71
ff64
01ba
fe9e
014d
0100
fff2
011b
ffd5
0041
024f
0260
016f
012a
ff16
ff55
014b
0151
fea9
feec
0209
ff9f
fdc9
01f9
00b7
01e8
fe4e
003c
fdee
017f
016a
ff45
0057
016d
fe2e
fe2e
ff7f
020a
ff5e
ff0c
ffbc
011c
01ff
006b
ff7d
ff97
fcf3
fe31
0106
0113
00fb
fed6
fd9b
ff95
01e2
0293
0035
ffbe
fdaa
ff99
ffb9
0142
012a
ffbb
feca
007d
0288
014a
ff4e
003e
fc87
0120
fec4
0040
fd29
fdc0
035c
016c
ffea
0214
fe73
fdea
fdc8
01dc
ffa5
ff20
fe5c
01c6
fe90
0022
0088
02bb
ff6f
0106
0079
013b
0185
0036
ff50
01eb
027a
0142
0408
ff85
00cf
fdb3
02ca
fd9f
fee2
fdb8
0195
ff3f
fe80
0063
fe35
02b6
ff4b
fe9f
fde2
fe80
ff28
ff99
0235
00df
ffc1
fe4a
0196
011c
feb0
fe87
fdbc
021c
ffd0
0085
fd55
ffcf
00a6
018d
feb9
0071
fdc5
00e0
01b2
00a9
0226
0256
ff7f
fdf6
001f
fe50
0022
ff7d
0028
ff74
ff98
fec9
0227
0181
fdd9
ffc9
fec5
fec0
0097
fd3c
fe91
fc17
016c
0173
ffc9
ff2d
feec
00e8
0105
009a
0047
022a
ffa2
0220
ffc4
fd05
ff4c
ff60
0373
fd63
fde2
00cf
ff71
0164
00fd
fe9e
003a
0112
026c
00ee
ffb7
0148
0151
01fa
016a
fe33
019e
fdc4
fdc0
016f
0014
fe89
0029
0147
0212
fd9f
ffc2
fc7d
ff02
ffd4
002c
01ad
019f
004a
ff19
ff38
ffcd
01d5
0260
fdf9
0168
028a
ffd8
ff27
007f
00cf
01b2
008d
feae
0000
031e
fe9a
fda1
ff31
fe66
fe1c
ff88
0061
ffc0
fe8c
fff7
0003
00d0
ffe4
ff91
fd1b
fe60
fe1a
016c
0048
ff27
ff54
ff35
01b5
fe2a
020b
ff19
0011
ff78
fee3
026a
ff19
00e4
01a8
00d8
0139
0054
00ae
00e6
0087
fe19
ff23
0206
0092
0102
00a4
002a
fe41
0007
0070
ffa0
ffb3
ff94
fec0
fd31
fef8
ff48
010d
fef7
fdb4
ffe9
0290
ff08
ff09
fee6
fe6d
fd38
fe9f
fdbe
fffd
fead
01a9
ff16
0163
fc07
fe33
00de
02d6
00b9
ff57
fe4a
fd77
ffa3
01ef
0021
fed7
00cf
fd96
0167
0126
ffb8
0225
fff0
ffce
0061
fe21
00a9
0036
04b8
0353
ff78
024a
0136
00e8
0287
01ea
fbd9
fe93
01e7
0188
007e
01bc
ffa4
017f
0222
0036
00f7
fd80
ffcc
033f
fc75
fea6
015e
0089
ffc0
01a2
ff11
fe14
01f8
fb75
ffe8
fd1b
0020
01cf
fd52
0157
00e9
0024
fe0d
ff60
fed4
fece
00ad
ffc6
00cc
0000
fe91
0136
0041
002a
fe85
ff13
fe6e
ff3b
027d
00ea
012a
01bf
fea0
fd30
0226
00f4
005b
01d0
fdda
fe22
00fc
0183
ff86
ffc5
ffc6
ff24
0207
ff57
01e7
009d
02a6
ff91
0235
0060
fe35
ff11
ff3d
ff89
023f
fe22
002f
ff73
0000
ff84
00ab
0137
fedd
fd9d
ffa3
0237
ffb6
fea9
001c
feb9
fe64
0091
0097
fec1
fdd2
ff91
00da
00e3
ffb4
00b9
fe75
ff00
004f
fe98
fe36
fe47
015e
017b
0049
0013
00c1
fda2
fee8
00f4
0128
fd40
0018
0012
fd5f
ff16
0152
00a7
00ff
001d
fef6
ffd4
01ff
fe18
0172
0056
ff4a
ffe1
0033
fe7f
ff29
feff
fffa
00c0
ffad
0182
ff4c
03ba
0236
00ba
00d1
fe04
01c1
fd7c
01d2
ffc8
ff4d
fe19
0057
fdc0
0025
01e2
0195
feb1
fecf
009e
0069
01f0
fe90
0091
003f
0153
ff58
ffa0
ffcc
0243
fed2
ffac
028e
0151
0026
00b9
fe59
0268
0126
fef4
0009
feb0
ffa2
01e7
fde0
fe1b
fe24
019d
00cd
0202
009e
00db
ff7e
fe4d
ffa6
012f
00e2
01ca
0164
ff6c
0000
fe45
0034
ffc1
012f
fd98
fe37
ffc9
0207
ff60
015a
ff1f
0159
00d4
fea0
008d
00ad
ff58
00c2
ffc3
fe5e
feae
0002
fe2a
01bf
01ef
0082
fe7a
0141
fe26
0045
00b4
0177
fed3
fdf4
fe87
ff4d
fec9
01bf
fe46
007d
fe01
fe1c
001d
0105
ff2c
fea0
02b3
007f
0132
fefe
00a4
00e9
fe04
ffc5
ff39
ffe9
fe90
01c6
0264
ff7e
0021
01b2
010f
012c
ff9f
ff6f
0197
02be
ff42
02b0
01f2
0297
ff69
0202
fd28
fd13
fe92
fe3b
fe66
fe08
0132
fe68
0180
00ab
fee9
0008
ffb8
00a1
0049
0215
0296
00e2
fe8c
ffee
fe4a
01fd
02b0
0132
013a
0016
00c0
fe58
ff28
fe62
ffe1
012f
fde6
015a
feda
ff69
fe82
01b4
ffaf
fff6
fe23
fef5
fea2
006f
0154
0036
fef7
ff83
001f
fee5
00a0
01ee
0227
0038
01e4
fe50
fdb4
ff21
ff0a
01bd
fd5a
00d1
ff8e
ffaf
01f3
0232
fd9b
fdbe
029d
fe40
02c0
020a
0024
fcc4
00c6
fe5c
00ad
0296
003f
0034
0228
fdd5
ff9e
0262
fdbc
fe45
0218
017b
032e
02ac
0170
fdfc
0090
ffcc
fdc5
fea9
fee0
fe8c
0041
fdf0
fdf7
02b5
01aa
0138
01e5
fda8
ff2f
02e7
004f
ff91
fcdf
02c9
fe93
02a1
01aa
ffa7
fd6b
00ed
feff
01bd
0010
fef4
ff2c
fe04
fe4f
fec8
033e
fdc6
000a
00d6
ff5f
ffa3
0203
ff7f
fe0c
fdc8
ff38
fe2c
fcc5
ff40
fd3f
01c6
02f6
fcd7
01b9
0182
0382
ffeb
ff03
0167
00e8
00e4
fe3b
002d
0229
03eb
001f
fe2c
00b9
024a
ff27
0010
00bf
fdb8
fed6
002a
ffde
0099
fd95
ff45
0100
0127
fe5e
0338
fe3b
00fe
ffc8
0434
ff83
0147
fd83
00a4
ffc3
feba
ffcd
0209
febf
fbbf
fe7c
fc57
ffc0
fe41
00af
035e
015d
01a8
0074
fdc4
ff00
fd64
014d
fe1a
ffe0
fd8a
01a0
0139
02d1
fd77
0004
008e
ff35
fecb
0063
fcfb
0055
0179
fe05
ffcf
fdf9
ff69
feda
fd3e
0240
02db
fec7
00fe
00f4
ff86
fe02
fd88
0224
01ff
0157
fd8d
fd4f
fe21
008c
ff73
0175
ff23
feb6
01a3
0061
fdb8
014d
ff3e
014c
ff73
fff9
fea0
ffe7
ffea
0285
ff72
ff87
fd3c
01a9
015a
fe9d
ffd7
fdf0
ff47
0148
01bc
0120
ff37
fd70
019d
0012
011b
ff8a
fe55
ffce
fea5
ffc1
0220
01ca
ff25
fea5
ff1e
ff77
ff9a
00da
ff6c
fe1a
ff01
02b6
fd9f
fe74
0026
00bc
00df
ff10
ffa4
ff8e
006d
0095
fd15
feaf
0028
fff9
0078
00f3
0084
ffbd
fdc9
021a
0008
fd81
fef7
02a5
00f4
ff40
017d
03cb
0196
00ea
00f1
00d1
00a9
fcff
00c1
fe42
fe04
fd27
ff70
0364
fe59
02fb
feb5
fe7f
ffd2
fe59
fee4
fea5
0053
00a0
01ec
0141
00e5
fe89
fd96
feff
0136
0229
014f
fffa
fc97
ff50
fed7
fdc6
007d
0180
fee4
0252
0143
015a
fe08
007d
0281
00ab
ffa3
ff96
0084
02dd
fd3d
ffe3
fd7c
ff8f
0053
0043
fe36
fe56
ffd4
fe87
fefc
0156
00d4
fb53
0056
fea6
00f3
003c
01ec
fe37
fe16
fdf1
ffa7
ff64
0208
ff0b
024f
0091
ff95
01b8
ffae
00b4
00b3
fb1d
ff79
fd91
fe00
fcba
004d
022d
016f
fe3f
02c7
0259
0082
fd7a
ff24
ff2d
ff97
00dc
0135
00d9
0276
fd8c
02f9
02dc
fd5d
fd5e
fc52
ff2a
0130
00ad
fd55
03a1
003a
00fb
fcbc
02fa
fb46
01f9
01bb
027b
ff74
fec0
00fb
027c
0251
0070
0251
ffd7
0099
002e
002c
ff30
fcb7
fecb
011e
022c
fde4
014b
fe62
ffd3
fd55
01d3
fe8e
009f
ff35
025b
ffd3
fed0
00f2
0055
01c9
013a
ffeb
017b
feb4
01bb
023c
00cc
0108
018d
ff24
ffff
feb1
fe63
ffad
ff09
ffa7
00cd
01ec
fe03
011d
012d
0000
fe15
fe45
022b
0166
fd8d
fe88
fe61
feae
fdf6
0165
ff15
ff0d
0067
ff33
0099
0037
0054
ff4a
0097
ff42
01e6
fe89
fe79
0236
056b
fc37
014c
fd16
ff65
fcc0
004a
fed6
fe69
0176
fba0
02f8
0199
ff88
01fe
ff34
00f4
0162
016f
00c4
ff9b
01d7
fc85
0357
ffc4
0204
fe71
000d
00ed
fcac
02c5
fcc2
fe96
0123
0059
fdb6
fefc
fe3f
0252
010b
fe44
ff6c
016e
001b
fcf2
ff4d
0262
fcaf
fe00
fe7c
01f9
febb
0096
fe2f
02e0
0159
fe45
0109
01c7
ff32
fe66
fe91
fcce
0300
ff33
fe92
fed7
01ae
ffb5
00c8
0100
fe5b
009e
fe7d
0114
033f
004c
fe9f
0193
fe4e
01a7
0196
fe42
018c
028a
0093
00e0
0263
0238
ff29
fe53
0275
0108
fef0
0127
00ac
001a
0048
01c7
0000
fe95
01d3
ff93
01b3
0043
feaf
0277
fefb
fe09
fe85
016b
ff52
008c
00ce
fea8
033f
0271
0081
0130
fef5
0134
0225
ff2a
01cd
ff1c
fff2
fea5
0046
fecd
00d0
ff93
01c2
0004
01f7
fc4f
0034
fe76
0037
00ae
0151
fed4
02a3
03a2
0128
0293
feb0
ff9c
00e4
ff22
fd78
01c4
0067
feb2
003c
013a
fd75
ffa6
01bb
ff20
0053
0165
fee0
01c4
0409
020a
fff9
fffc
0039
01c1
ffee
fdfa
ffec
00c9
0033
fcc7
033a
015d
0041
005f
0353
fd3d
023d
fcbc
009d
00ac
0008
fc5d
fd19
0371
ffe6
047c
0061
fdd2
ff0e
fdfc
fe6b
003e
0125
febc
00e6
fe9c
fe1a
0103
0101
0119
0046
0010
0192
0249
fe96
fe86
009b
0267
014b
0035
ff70
00aa
ff81
fe4a
0012
fdc8
0133
fe03
fe35
ffe0
0051
ff03
0174
fd86
0200
fef3
01fb
ff43
00c7
00c3
ffc3
ff3a
006c
0041
01f0
028f
fe9d
ffa3
0305
fde9
0086
fedd
ff3b
00e0
ff6b
feef
ff58
0259
016f
001c
0006
ff44
ff2d
032d
ff5a
003a
ffb9
fc9b
fed0
ff94
ff99
fe71
02d4
00c2
ffed
00da
0233
00fe
01e9
fbd5
fef2
ff36
fcde
fe17
012e
023b
015f
fed5
ff24
fd95
ffc4
01f0
00cd
002c
ff63
ff54
02bc
0404
0377
fec8
fceb
015c
0290
ffba
024b
fe8b
03c4
fdcc
02cd
01ec
006b
fe2a
ffaa
fe6d
0176
00e7
ffe1
fd07
fcc6
fe91
ffff
016e
0086
fd7b
01f4
0092
0189
ff33
015e
fe4f
fdb8
0214
0018
0210
fec5
012f
ffef
fee6
fefb
0176
ffe3
ff05
ffda
026d
fe60
ff5a
008d
002e
0101
fd7b
fe9c
00c2
ff18
01f6
fd45
02b4
fee0
ff0c
fe10
00b0
ff51
fd02
fc8c
fdae
00a2
fecd
fded
01c9
ff97
fe9d
fefe
00bb
002e
0034
001d
00ba
fd77
fe5d
ff28
fe0b
0103
ffab
00aa
02ab
fe79
0104
fed8
fe91
0155
0041
fecf
fed6
fdcf
fd24
fdd0
ff2b
ff0d
0354
fe3a
ff23
0098
fd30
ffdb
005e
ff9a
fcfc
01f6
0282
fed2
010b
ffb8
fe3f
01be
0093
01bc
fca8
ff3c
ff13
ff75
0276
00fd
fddf
fe8a
00fe
001a
0291
fef0
fdc3
01c0
001c
012b
fefc
fd79
fe19
0318
00b2
0073
ff04
00af
ff10
fc6e
ff7e
009a
00a1
00c7
ff37
ff9d
0327
018a
ff4f
024a
00ce
0096
fd58
0174
0090
ff12
fd9f
ff3e
ffc2
fdd3
fd6b
01f8
ffa3
0086
010f
013d
00d2
fe71
01c4
00d1
fd7c
00a3
fffb
fdb2
0015
fd98
00cb
fef0
01b2
fec5
fd87
ff73
007a
00ed
ff2c
fe8c
fe6a
0193
0126
ff9a
fd22
fda7
00f9
fe71
ff0e
02d1
00a1
fda5
00f0
020e
0174
0084
fe37
fe69
0201
fe85
fe46
0181
02ab
0085
fd0e
fda1
01ed
0165
00b2
0186
ffed
fdb3
00aa
0135
ffee
0027
018a
ff07
fe29
00a4
fcf9
0050
feb8
00cf
ff36
001b
00f9
00ae
0082
02c6
fe05
01da
fd89
ff21
010d
fe11
ff1d
ffb1
00d0
0081
fcb3
00cb
013a
ff8c
fff8
02fb
fd71
00ca
00d3
00e6
fd0e
0014
fee6
ff74
00a8
0084
fe85
017d
0140
00ca
027e
025c
0129
fccd
ff61
ff45
ff26
fe0f
ff06
028f
ff1b
003d
0072
ffa2
fcac
ff78
0130
0214
fe83
fe41
ffc6
ff48
fe4c
01fc
fe7c
ffc1
00c4
fda2
0031
ff62
0199
0219
014c
0074
ff9e
0229
028d
fe1f
ff5b
ffab
0145
0004
01f2
ff75
fe53
0293
00bb
fff1
fdbb
000a
00dc
019b
00b6
feda
0168
fdfc
fe14
0450
0097
0169
ff74
001b
fe45
ff17
fdbf
017d
0012
ff17
ff50
ffdd
01b5
00b9
ff5f
0130
0078
ff6a
fefb
fec5
ffe7
01e7
ff72
fffa
fe1d
027e
fc1a
0163
0280
fea8
0244
fff0
013e
0214
0346
00ec
02a1
ffe6
fdd2
ff4f
0062
fc4b
ff2d
fe2f
feea
0159
fe9e
fd4c
fd6c
0028
fe05
fdc5
0247
0241
023c
ff58
ffde
02d3
fc1f
fc5f
0064
ff40
01c0
009b
015d
fe1a
fe74
0238
02a5
0124
fc06
0207
fe03
ff30
feba
023f
002d
feab
ff3b
fd9b
00b6
00de
0329
fe50
038c
fd03
fff6
ff3b
0241
fedc
fdea
ff1f
ff0c
ffee
fde1
01df
01ee
ffc7
ff87
ffa5
fd39
02de
ffca
0394
0070
0035
fe5f
fef6
fff1
0141
00b4
010a
ffd2
fe0d
007c
fe0c
ff5e
fe78
ffe0
fe8d
0050
00b9
feac
02ba
0137
ff3f
01d4
fecc
ffb0
fda1
0003
ff99
fe15
02dd
02b6
ff01
ff7a
0194
0290
ff19
fe11
02bf
00b2
00c9
fe15
0057
005c
fe0d
010b
ffc8
fc9f
00f4
02a6
01e8
0017
fda3
0251
fcc9
fe1a
003a
02c3
0119
0120
fd10
0175
0121
fd86
0173
018a
ff14
0046
ff85
fe00
fcdf
0022
0108
01a5
ff28
fd2d
01a2
ff70
fd29
0022
0236
01d2
01a8
008c
0170
fee0
01fd
fd5f
fe4d
0281
ff37
fefe
fe2d
ff4a
fe7d
ffc0
0574
fe83
fdfb
00f2
fc78
0320
ffda
fe1d
0146
fcef
ffa2
014b
0127
ff2a
ffdc
ff1c
01cf
fee6
0165
002d
ffe5
02f9
00d7
ff17
fec0
fbd1
0189
ff4c
0046
fba5
fea0
031e
01c5
ff65
001c
0051
ff1e
fb2b
fdef
00d2
fe64
01c0
005c
fe8f
ff86
fd60
0212
ff7a
fc97
fb7e
ffce
02b8
0433
fffc
fc76
02c7
feff
02fb
ff52
0149
fc2c
0089
fe24
01d2
ff6c
fd3f
ff19
015e
ff8a
ff24
00fc
017c
009f
fdcd
01fb
02de
008c
003d
ffb2
025b
ff86
0059
000c
fdf9
ffe0
02a9
0204
fedf
fe64
008f
01c1
02cf
ff7e
0236
ffa2
fe5b
0004
02ae
fda1
fe39
fe1a
ff8b
0318
0030
fd22
fcd0
fd6e
fea8
fd95
fea7
feb0
0200
0376
026a
01af
feaa
0008
fe44
0068
01e3
fe98
01f2
0075
fdea
0132
008b
01f4
fde9
ffc4
0074
ff53
0024
016f
0142
0080
0064
ff33
fec7
009e
01a2
012a
ff16
004d
00c7
fe22
ff6e
ff7c
ffc7
023a
03d1
fcac
0125
fcd9
012b
00a6
ffed
ff77
fd8a
0245
0226
00ee
0054
fdb4
01bd
fd32
fcc8
fe0e
ff59
feb5
00d6
0149
ff29
033c
ff18
fcf1
00f1
00f5
01d4
ff7f
0240
fe07
fee1
fe90
ff23
fcfc
02e6
ff85
fe6b
0121
fd1b
ffcf
020e
fed4
008e
ff16
fe12
fd1a
0375
035c
0025
0287
ff30
01fe
ff2b
ff42
022b
006d
02b4
fe43
01f3
fc1d
00bf
fe1d
016e
ff15
fec0
ffeb
012a
fd07
0034
fdec
fe05
0167
ff1c
014e
0052
0301
fe70
013c
01d8
02cf
ffb2
fe28
feac
fd7f
020c
fe43
ff6c
fdb5
fee0
ffcc
ff07
0045
01ff
0380
fed1
032f
fdf1
ff27
fc11
038f
02c5
004d
fff8
0138
ff30
0171
009d
fdba
0138
fe8c
fd3e
fcf0
039b
ff4a
fe1b
fec8
fea6
ffc6
fe54
01e3
010b
fffc
ff07
fe52
ff8e
0265
ff28
fffe
ff28
ff6f
fff3
ffa0
0116
ff48
018d
fd59
ffd0
02fd
0305
fe7d
fee2
025e
00a7
0342
0087
011c
ffd3
ffea
ffef
00a8
fcaa
fe9b
fdd6
04c4
0020
fc6f
fe83
02e2
01c8
ffc7
0178
fe14
ff6d
ffa1
ff95
ff5f
ffc7
fe67
00ad
fe11
0084
00a9
00e7
fddb
0384
fe73
fdc7
fe10
0063
fe8a
01ec
0228
fd0a
fed8
00f9
0177
ffce
ffe9
006c
ff57
0033
ff2a
fe36
0110
0251
ffd1
0363
fc7a
ff10
0088
ff1e
ffba
0203
01ac
ff65
0220
01a7
01fb
0052
0203
fe56
00ff
0000
fe48
0093
fdc5
feab
0244
01a6
0158
ff8d
fffe
0224
feec
ff6b
ff0d
fdcc
00f9
ffdc
ff57
fe71
0099
ff66
fcc0
01ac
0057
00ae
fedf
fe4e
fee4
ff1e
fc74
0197
ff3a
004c
0003
ff7d
00b0
01db
00f1
fda8
ff85
fde4
feb3
fef2
fec3
0259
fed1
008b
0049
0041
fefe
00e1
ff2e
013a
01ca
fdc9
00b4
0160
0096
00bb
fead
fdf5
feab
fe0e
ff7b
00d5
ffd9
ff08
fe26
012e
014a
ffb0
008e
ffd2
0121
ff3f
0094
0118
01fd
0168
fd77
007b
ffca
01dd
0200
ffe1
ff68
ffaa
fe31
fe89
01a1
0096
ffe1
0204
0183
ffd9
ffd2
0029
fec5
ffe1
0204
000f
0092
ffb6
ffce
02ca
fe39
fd70
0160
ff34
ff7b
00c6
ffb2
ffb4
ff4f
ff1b
fe39
0097
ffd4
feb9
fd3e
fdb5
005b
01f8
0153
fe6e
fe41
00ed
ff24
0257
0239
ff38
02b2
01a3
fd81
0278
0262
00b5
fe66
0234
018b
fe88
fe42
00d2
0195
008c
ff9f
fefb
fe73
ffa0
0038
fe19
0075
00b3
ffa1
fcea
fde7
0026
fe11
ff0b
0084
01ac
00d3
fe22
ff18
0074
0139
018d
023e
0120
fe2e
01ee
fe65
fe4c
0191
0190
0108
fea5
fe20
010e
0039
00f8
015d
fef2
ff12
0314
fd5b
fc75
fd0a
00ae
feb5
0108
ff8e
feba
feec
00e6
fe8e
ff58
fee3
ffaa
ff75
0029
0190
fe44
ff12
fe11
ffe1
ffeb
fce0
fd7b
fe5f
ff8a
ff03
01eb
012e
ff48
00d0
00e1
fe09
02f9
0043
ffa9
003e
ff99
fd89
0232
0319
017f
ff50
fea5
ffae
fff3
fdac
02fa
009b
0190
fdfe
fe46
023a
002e
ff34
fe24
ff96
002f
014a
ffae
00f9
fd8f
0165
fb65
ff07
fd68
01f7
fdeb
00cf
05e1
01c5
fd83
0160
01c1
00b1
fffd
fd01
fdce
009f
00a1
0170
fc92
fed9
fd23
fdfa
029d
fffa
ffad
fedb
0063
01d9
010e
012f
fe17
fcf4
008c
fffd
01ed
ffc2
0443
015e
fca5
0048
0060
026e
ff0f
0389
fe62
fe46
fe8b
023e
fded
ffbf
0164
fd24
02c2
0128
ff39
00d5
016d
0076
0030
0230
0186
00ac
fe6b
00cd
016b
fe93
fd68
00b6
febd
ffd9
017b
028c
000c
ff2f
0024
002e
0197
006c
ffc4
002a
02d0
0140
ff3c
0106
fd5b
0038
01c4
0013
fef5
00d3
008e
fc89
fe1b
ff5b
fe3e
00fa
ff1b
fcd4
ff77
fe87
01ec
0197
fcbb
0095
0285
fefe
0140
012b
fdd7
ff95
0056
fd42
0083
0112
fe6a
fdd5
fe76
00d1
0149
fe21
feba
ff08
016c
020d
fec6
0000
ff66
fe87
fe22
ff68
025d
fe3e
00dc
ff5e
022b
017a
fe39
0126
ff34
019c
0092
ffd6
feab
ff9b
ff15
0041
000d
0219
fef4
ff45
016c
007e
0108
ffc7
00fc
00b7
fe21
0093
011c
fe43
00c4
ff77
ff39
00a0
01f2
ff56
ffa4
ffe8
fef8
01bc
0193
feed
ff87
febb
0218
00c0
00a2
015c
fef1
ff39
ff15
ffe4
ff97
ffd6
015b
03cd
fd7c
0137
01cb
fdd3
0042
007c
feb5
00b8
ff0c
00dd
014d
fd88
ff1a
ff02
feca
fea6
0046
ff10
0185
fe9c
fd11
0045
01ba
00d1
018a
fef5
026c
fdd1
0136
0147
012b
fe67
0198
ffdb
013d
016e
ffb5
ffed
017a
ff29
ff52
002c
0056
017b
ff53
02ae
fea4
fecd
fd8f
0024
fe31
ff37
02a9
0291
0123
005c
029f
fee2
01c8
fdec
fe09
00c6
ffc5
fcfd
fdcc
fecf
0035
034d
fe2c
006c
005f
0219
ff5f
fd36
01f4
0100
ff58
00bd
ffdb
0236
fed7
010d
0257
fecf
fd99
fe3e
0294
0009
02b8
fed2
01f8
010e
0202
0071
01ac
ff6a
fea7
016b
00bc
ffa2
03ca
fdf3
02d5
fea7
0283
0114
018c
fee6
fee5
0164
fec0
ff13
fef8
00a2
ff24
fee9
ffe1
0142
0140
010e
02f6
fd23
0263
fe17
fed6
fedb
0185
0042
feb2
00cd
008b
ffdc
0125
ff34
02ec
ffef
fe13
ffc2
0095
ffa8
036b
006b
fc0a
ff50
02e5
0080
0059
ff89
0290
0108
02d5
fdf6
fdd3
fd42
fcd8
0095
01b4
fd6b
fec7
0182
00c5
fe5f
ff34
01f2
fe3f
fdc7
fd16
fdd0
00c8
0035
ff92
ffe0
fe1f
ffe3
0259
0199
fba1
048d
fd04
01f6
fead
00fe
fcfc
0334
fead
fe75
02ca
fbfd
ff16
0159
fe29
0325
0128
fdfd
00bb
fe35
ff94
fda2
0347
fd1d
fd4f
fdfc
032d
fe06
ffed
ffdf
ff90
03b3
fe8f
026c
01f1
feab
ff5e
016d
fe1b
fe19
fe7e
ffb2
fdc0
ff1a
ffbe
fda0
ffe4
022c
02bf
0079
0146
fef3
fd02
0054
ff1a
ff94
0162
00fc
ff96
fdb6
ff39
0211
01e7
ff7c
00d5
fe2c
ff28
fed1
0233
fd36
01a6
fdc8
0024
fea7
0189
015a
02b0
fe2f
fe0b
00ff
fe2e
ffcc
0050
fce8
ff1a
00d6
00cc
0254
00d7
ffa0
fefc
00a7
01c3
fdae
ff50
0051
02aa
020e
ff9b
fcc8
00f3
0035
feac
ff08
ffff
00fc
0269
0278
fe4f
003a
0034
00c6
fcd3
006d
0096
016a
02f9
fd03
003d
ffa7
024c
ffa7
0306
01d8
feff
00ee
fd66
fe35
029a
ff7c
0098
0102
00c8
0233
01b5
0274
0052
01b7
ff6c
ffe9
0059
01cd
0241
0291
fff1
01e0
00b1
0128
0150
0121
fef6
00b6
ff4a
009a
ffbe
01be
0194
00ea
0118
00ce
010e
014d
ff8a
fe11
fe3b
00fc
ff85
ff8c
016d
012a
feca
0095
ffcf
00ea
fe46
ff26
0231
01ee
0153
021a
ff93
0152
0082
fe64
02f3
0106
fe52
0062
00b1
016d
fee0
fee7
ffa0
007b
0249
fee0
00a7
ffb7
0071
fde8
ff34
00ee
ff97
0165
0020
005b
ffcb
fda8
0099
ffcf
fece
004d
feab
000e
024e
020d
fedf
0180
00ac
0181
0006
ff9f
ffa3
0038
ff9a
0108
00fe
0044
0062
ff5b
00b9
fe35
0021
00ae
0219
001a
0001
ff14
fd2a
fe7d
001e
0038
fdea
01a5
ffbd
ffd6
fea8
00fc
01c6
00c3
fd3c
fe23
00c1
fe78
0188
ff4e
02df
febb
ff64
013c
01ef
017c
0083
feff
005c
0051
fe95
0045
00ad
0011
ff80
fe4f
003a
ff92
fee2
0177
0119
ff5f
00f8
ff87
0160
0131
005f
021b
02d4
fdab
febf
fe11
ffb8
ff2a
fe3a
fe26
fd50
ff79
febf
ffb4
ffa5
fed2
0276
ff16
fdc1
0065
ff6f
ff46
ffc8
ffd3
fff0
00f8
0153
fe06
005e
00b8
febc
fe95
ffe1
010f
00ba
fe56
015c
013a
fbdf
fee4
0117
0002
00f0
0106
ff0b
ffcb
fcc3
001b
02a2
fb93
004b
00e9
feab
fefe
0088
fdff
ff7e
fda8
017b
fe44
010a
00a2
0112
006f
01ba
0055
fc78
0245
ff9c
034e
009a
0102
fecf
ffc8
008f
00bc
fec2
fe38
000d
fde1
01c3
0059
016f
0051
fe65
00d4
01a3
fe20
fdac
fe70
fe6a
ff85
01ef
012a
ffae
fe69
fce6
fdc2
0239
0285
fd2f
ffd5
fd8e
0047
00d5
024e
fecb
0287
fe52
00e6
00d6
0134
0074
01c0
fde1
020e
024d
01ea
fe56
fdff
ffb2
02be
feaa
00a8
02d9
00a0
005f
ff5d
00a1
018d
ff3b
016c
ffbe
fec7
fea9
ff50
0115
030c
fde5
01a3
fe1e
ff72
00c6
0172
00aa
0063
01ba
ff30
fed4
fe71
ff1b
0099
0111
014c
0019
013d
0280
ff23
0243
ff4e
fe11
ffc0
ff55
012e
fe9d
fe05
fd7e
febe
fe74
fff7
0242
01b5
ff65
fcbc
fff4
fec1
0097
01b0
fe80
fef7
001e
ffc0
0259
013a
fede
0193
00c4
014a
0272
0050
0170
fd97
fe2a
01d1
fdd2
ff21
0200
00e9
ff01
ffe1
fe6a
012a
00e8
fff4
ffef
004e
fdc5
00ad
feca
ff93
00c3
fefb
fe84
00bd
fd94
0005
ffdf
ffa9
0034
00e6
feda
0159
0376
01d1
ff3f
0214
ff6e
0041
fff4
0195
0000
fe59
01aa
017d
ff5a
000e
0043
ffcb
fe4b
00c3
00a7
ff7f
ff34
fedf
0071
011e
0072
fef8
ffc8
fd8c
0136
ff1c
fefd
ffef
004f
00c5
ffe5
019b
0152
022e
0082
0296
0031
ff59
02b0
fc91
024d
01bb
0040
006f
ffde
ff77
01af
ff13
fe21
fffe
0259
00e8
0085
fedf
0179
006c
ff20
ff45
ff81
012f
fd2a
00be
0014
fef8
0240
fd90
002c
fda0
ffff
013a
fcb0
fe19
000d
fef4
01da
00e3
01e9
fcf3
02d7
fdcc
fe2d
00bb
00c5
007e
fe1f
ffe1
ffaf
0188
00a2
0004
00d0
ffbc
0032
fce7
0147
ffe7
fc2f
0117
ff43
fe1e
ff3c
fdcb
ff07
00cd
02c0
ffc1
0203
0342
0256
00fd
fd81
fd32
01d7
005a
fd0c
fd48
0116
0081
0309
0203
0261
fe45
00ed
fe8b
fe4a
005a
0038
02bc
021d
fd61
ff18
fe52
fdd8
025d
fd49
0098
fffa
fdd2
00fb
0066
01e8
fe16
0114
fc87
fd3c
00ff
fdb9
028a
ffa6
ffbf
01c8
fc60
ff5e
fdd7
00a8
fca0
fe90
ff44
0220
fd79
011e
036a
012c
03e2
01bb
ff97
fdf4
fc37
ff46
fdcc
0305
fdd1
0050
ffe7
ff62
0095
0365
ff74
01d2
ff7b
0272
fd93
00d6
fef0
fbec
fff7
fcbd
ff24
0149
028d
01fe
0217
ffb2
0108
00c4
fdec
fe38
ff90
022b
01ca
ff8b
ff74
018d
ffd2
0093
00f8
fe75
fe7f
fe49
ff03
00a2
00ff
0014
0081
ff3c
ff40
0068
feac
026d
fe81
0263
00d1
ff58
0010
fe04
fd43
0041
fe04
ff9d
ff99
01c4
fde3
fe51
0210
fe7a
00f1
ff2e
fe96
00f0
0024
fe34
fdd7
01de
0151
0002
ff39
ff20
ffed
01bf
012e
02d3
ffed
001d
fe57
fffb
ffeb
fdfc
0283
fe80
febf
fd03
fe03
ffca
ff69
032f
029a
01b9
ffab
fec1
01ce
ff7b
0198
0119
01fc
fef9
fe76
015c
ff87
fd1e
00ef
0141
02e0
0011
00fc
0164
00a4
019a
0175
0409
017e
fe9f
0179
0158
0189
015a
0202
ff7f
00cc
021f
0024
ff4c
015d
fe88
02b9
0083
015a
ff72
ffc8
0057
ff47
009f
04fc
033e
fd52
0081
0095
01be
00f6
fd3c
0104
00fe
0084
fe0b
fedf
02bd
fffe
0239
000c
02b5
0100
fe86
fdbe
fe25
00d5
fdab
01b0
0105
fe85
0172
fda4
0206
017d
0076
0204
ffe5
ff7d
fe02
ffba
00d9
0050
ff45
ff34
027f
0051
fd91
ff78
037c
ff2a
fdde
03c5
000c
ff80
fec1
fe90
fcdc
026d
fee6
0134
fea4
00ff
012a
fecd
00a2
0171
fd74
03be
0221
0147
018e
fff4
014e
ffa5
fe29
0219
ff55
ffe2
fdac
033f
fddc
fff4
fde2
0158
fdfb
fd9c
01c2
0092
ff0a
fef1
0074
ff4e
ff65
00f2
01a0
02c3
fefb
0017
ff6e
ff21
00cd
fdb4
0002
004b
019a
0124
feac
ff93
fd57
0157
ffd4
0085
fec9
004f
fdc0
ff35
028a
0143
fe57
ff73
ffc9
fe26
fe34
ff72
001d
fed3
0137
029b
ffe9
ff29
010e
fcf4
fd60
01bc
fe14
002d
fed9
ff89
fef3
019e
feb5
00fa
01c6
013d
028d
0012
0189
fe1f
ff55
0173
fe2a
0008
fcf5
ff99
ff14
02bc
0106
ffa2
ffa4
0000
feda
01ac
007c
01fa
00fc
0174
00a9
ff3f
fffd
02e5
0041
025e
024b
ff9d
0202
ffe7
02bc
01ef
ff5c
024a
ffba
fe27
0015
fed8
fe77
0119
00c8
03bc
fe20
feda
017d
01b8
01bb
015c
0071
03cb
00e7
023b
ffe8
03d7
fff2
004d
014e
fe63
fef1
ff16
ff39
0104
021f
0111
ff33
0127
036e
fc4c
ff94
fde4
fe2e
fece
fc58
0100
0027
011f
ffd9
ff7c
00a2
033f
00ab
fec5
034f
002e
ff67
fe83
fff8
ff3a
fe76
ffc2
0046
0063
fe21
fe8b
00c4
0086
fea3
014e
002d
004a
0367
022d
003d
ff8e
ffaa
fff3
fd28
01f4
fffe
0135
fe8f
010f
009f
0214
fd14
004d
fd8a
fd11
feb4
ffec
02e3
0187
ffc1
fd9f
ff8e
026e
01f9
fe1c
01c5
feb5
ff56
fe34
ff83
0046
fee7
032c
fe0e
0000
01c9
0040
011c
03e7
001f
012e
0027
fdbe
0262
feba
ff78
01ce
034d
033e
ffc3
fed9
ffd7
ff9e
030a
ff69
0024
ffad
01d1
ffef
01dc
fd99
ff5f
fe93
0216
01fc
ff37
00a2
fcf7
0236
0264
0128
010c
03a3
fce2
fe81
fe19
012b
ffea
00b5
fcda
ff5d
0154
00b2
ff3b
0065
01e9
fe82
0213
01b1
fc16
fec7
fe94
012f
018a
fea6
0162
fd70
00a0
0087
ff4d
ffe4
fe74
fea3
00f6
020e
ff53
fc5a
fcb9
0080
ff0a
fe92
0025
ffa9
fe09
ff74
0372
0044
fe16
fffd
043f
fca7
0059
fefc
0197
01e7
03ad
fd0c
fe50
fea2
ff66
ffb7
01a7
fda1
fe21
00aa
fe99
fc40
fd91
02f0
0194
fc11
fd9b
0095
01e7
0019
fecc
019f
fefe
ff5a
fe12
01dc
fea5
01c9
0155
0023
fffd
fe06
012e
0215
fea6
ff8e
ff7d
ffdd
fdb2
0279
01d6
0176
fe34
0241
febf
fe79
0153
014d
00c2
008f
015d
00be
fe95
ffed
01db
012b
0270
fe62
fe0d
fee9
fe99
fe70
0295
0191
00eb
feee
003a
0190
006f
fe2e
fdc7
0054
001d
0111
ff54
0038
00cf
fd5d
fe89
fed4
0188
0092
002a
fd48
0214
0003
027b
ff0f
fe93
01b0
0012
febc
00f6
0131
ff6e
ff82
0040
ff26
ff84
fe7e
0015
02e1
ffd5
0128
ff42
0099
ff44
ff07
fea7
009b
010c
023e
0096
02a9
ffb8
024a
0061
011a
0183
ffcb
fec0
fdf8
fe71
fef1
0053
02c9
ff15
012c
0149
005c
ff60
008d
fdd9
0048
feab
0187
00e1
febb
fe26
ffac
00cc
03bb
002a
0137
0245
ff8c
0281
0008
00aa
ff26
fe1d
fea4
fe8a
00aa
0133
ffd0
fe7b
ff87
ffee
fd69
ff9f
0192
004a
fe57
ffe3
00ec
0077
fdc3
ff9b
01c6
00d7
0110
ffe0
01b0
fe9f
016b
fe01
01f2
01ab
00a0
006e
fe0e
004a
ffc3
ff36
002e
fff2
008c
fef2
fe90
ffda
008a
02e8
01bb
0028
feba
ff9e
0151
fead
00d1
0100
00db
003d
00ed
ff57
00bf
fe2d
feab
0286
00ae
0324
fe35
fe92
0146
fe50
0032
014f
fef4
fe99
feac
ff07
00df
026e
ff1c
00fb
00f6
fda9
ff77
01a8
fcff
ffbd
fd91
fdc5
0166
fedc
0127
fe71
fd2a
00ad
ffc4
ff21
00b5
fed4
fe87
fefc
010a
0057
0201
005d
01c4
0208
0322
029e
fe51
ff9d
fdb1
0100
fdf4
001f
ff7f
fed7
01da
011b
016e
016c
fdb8
02fd
0046
ff56
fe1e
fd1f
01cd
01ff
ffaf
fde5
0173
ffa0
ff76
ff6d
fef7
ff63
ff29
fd5d
005a
febd
0135
00b7
0081
000c
fe16
0063
fd55
feb0
ff41
0216
0066
01e6
fce7
031a
ffce
fe50
fe76
fece
fe69
ffa1
fe28
ff34
fe51
0004
00da
0061
0101
fbf5
013c
02e0
fe51
fe6b
00d5
00fa
039a
0043
003f
fdb6
fec8
ff65
00ae
00ee
ff3c
fb4a
0240
fedd
003b
fe0e
00aa
00d8
ff8a
0053
fed8
ffc3
fe00
00c7
fe89
fe51
fd33
007a
0113
ff04
fe0d
00b3
ff95
fe4e
0021
fdd5
0065
ff35
00db
fe79
005b
019c
feca
0214
fe4f
0420
00f7
ff4d
ffee
fe98
fc7f
0183
fdbd
0098
0099
0102
fdd2
ffc0
00cc
fdaa
feff
ff2c
004d
0048
02cb
011a
0096
010a
fc57
fec3
00c6
012f
0260
fe6f
ff60
004b
0324
000d
01e0
ff1d
00ae
fe25
008f
feaa
01d3
012d
fd3b
fc69
fe1d
0064
fe6e
ff96
ff3a
005e
0156
fd7c
00cc
00a3
fdbc
017c
00b5
feab
0006
00d2
fed5
fe65
feba
005e
01f1
fef2
0143
fff9
fe03
fd96
00d0
006e
fddb
ff57
0240
00e4
ff2b
01cc
0203
01b3
037b
0304
015e
0130
fd80
ff98
009e
ff29
00e5
fe48
fdb4
000d
0197
0165
01c0
02e8
0213
0050
ff8d
0000
002b
fd52
feef
0005
feb8
00db
ff96
ffe8
ff20
01ca
ffd2
fe27
fd29
ffb7
fe38
feee
020c
fd9f
005d
01b2
ff58
00f3
ffb4
ffaf
fd76
fe14
fda9
fed6
ff2e
feb4
0038
fde9
fe05
fe29
01be
009d
fdd2
fea4
feb3
fdbe
014b
fea2
fe9f
fdd1
010d
fea0
fda2
01a5
0094
ffc0
0123
ff6c
ff5c
fe13
013d
0026
ffed
0110
fe1e
ff12
ff55
ffe5
fff5
fcd8
fd88
fe5c
ff19
fe64
0053
0277
ff1a
00fd
01e4
0041
0165
fe91
febb
ff4f
01c0
0265
00b4
0160
0020
ff8c
001b
fe3f
0220
ff7f
0071
fdc0
0260
009f
01f0
004a
fd7c
ffcb
02a0
0100
fef4
fdbf
febe
0215
01e8
ffcf
feb1
fcf9
ff4f
00ef
fec7
feb8
0093
021d
009f
feaf
fdc2
ff75
ffd1
ff43
017b
01d8
fff2
01e5
ffbe
ff33
fff1
ff80
00ca
006d
000f
0044
0258
020a
ff4a
01c3
feca
fe20
00db
0268
0100
00cd
fff4
ff84
ff16
ff87
000a
ff2f
009d
011f
0034
0033
00c4
010a
02cf
00a7
ff1b
01db
ff03
0360
fd34
0118
0014
fe9c
0115
fd1a
ffaf
fefa
01da
ffd3
0072
0021
fef7
fe87
fe2c
0176
fed8
005a
00fb
fe07
ff16
00b6
020a
fece
ffb0
0184
023d
00d7
fe4b
ff28
ff4b
0052
fde8
ff8f
0078
00a7
ff60
0160
005d
00c9
fe71
fd21
00de
fe7b
fd71
02fe
016a
000c
0084
0164
ff27
00fe
005b
0124
fd89
00ba
0007
fe7a
0023
ffb3
ff69
ff1f
fe8f
ff38
000c
007a
feef
0100
003d
ff87
fe8a
003e
00f4
0132
fee8
0125
021b
003b
0122
00b9
00b3
00e8
fd90
ff47
0126
ff5f
ff08
fee8
ff58
ff50
007b
fed5
feba
00ab
ffd2
fe36
0060
ff4c
0114
fd5c
0088
fe18
fea7
0032
0064
01a2
ff88
0191
fe9c
ff4f
00ab
ffee
ffbe
00dc
ff30
fde7
ff39
02ac
fdf7
0265
fdaa
fe0d
02e4
006f
00f1
fe6e
ff56
0074
ff78
0077
015c
fe1f
0110
0036
febe
0014
ffbf
ff72
fea8
00d4
00a5
01bb
fd34
fe5f
fe8f
fd5f
01e4
0264
0283
01c9
02f3
ffa7
ff7f
0085
fd9c
fdd2
02cc
fed3
fdfb
ffd3
0023
0028
020a
0179
ff9a
ffbe
fde6
010b
0064
019d
fe3f
0191
ff30
fea5
029e
ff45
ff11
fe1b
01b6
fec6
ff64
ff25
0033
fed8
ff8c
00f0
ff7e
00c4
00a4
00f0
0202
022d
fc0c
fe86
ff47
ff94
ff44
0088
0172
fefa
020b
0284
008a
fcbb
00f3
007c
fff2
fdd1
000f
fecc
0310
ffe7
0072
fedd
ff99
fe38
01ef
0062
fc40
00c0
01f5
ff31
ff98
0181
00cd
007b
0037
fedc
ff8f
00a0
fe7d
fe8b
ff6e
fd61
004d
fed0
ff80
0071
0208
0012
fe2f
fd86
00d5
fe10
017d
002d
fef9
0190
fdbf
024e
00c0
002e
ffdb
0136
fed7
0161
018d
024e
0021
ff66
024a
002a
003b
fde8
fca7
fecb
fe2b
020d
007b
fff5
0196
ff48
0179
fdd9
ff36
001f
fe95
0323
00f2
007b
0090
00ee
0110
02d5
fcd7
fddb
00e9
011e
feee
020e
ff20
feea
fe16
015d
fff6
0041
ffa0
00a9
02ba
00b9
0123
015a
0087
fdf0
0058
fef9
02c4
fdc8
0077
febc
009a
02ca
02aa
ff1a
fe17
0091
01d1
02fd
02a1
ff9b
fe05
0260
ff10
ff8d
ff6c
fff0
0006
ffb8
0088
01c1
fe7f
fc08
017b
ff25
ff08
fe1b
ff95
0253
fea5
0046
fe73
00a3
0106
009c
fddd
fff2
fcca
01bd
fc57
001b
fe6c
ffb5
0223
fe00
ffb6
fd5d
fee4
ff25
fe24
ff70
0221
0120
fec9
00fc
01c0
0225
fe35
0168
00ea
0232
01c1
ff69
024e
fd1d
ffc8
feab
01f0
00ff
007c
fe1b
0083
0188
0177
0058
fdbc
0063
fe9e
0207
0237
fe11
0149
00d9
0211
fe50
ff63
fe72
fe1d
fea3
fe4a
009c
02b6
007c
004a
ff40
fe72
0023
00e9
0219
ffad
01a7
ff3b
ff94
feab
fe86
ffc3
ff5e
ff2f
0033
ffbd
0018
ffab
feb3
00b9
0081
0055
fcd9
fe35
020a
028e
02e0
0235
fc09
ff21
fed4
ffe0
0294
0101
0334
fe7c
fdf5
fdce
ffaa
fff5
ff24
fe2f
01cf
fe66
025d
006a
ff7e
ff66
fdf3
fef6
02a3
0182
01af
fc93
0010
0098
026f
034b
007e
ffce
015b
0250
fe36
ff0c
00df
ff8a
0019
fdc8
fdfe
0294
fed1
ff77
011c
0120
fdf1
fe8a
ff37
fdf3
0053
02bd
010b
ffeb
001c
008f
ff41
ff54
fdff
017a
00e8
fde7
fe7b
0234
0227
fea3
fd1c
00c6
0117
0103
01a5
ffef
0224
0022
0216
fe92
fedd
ff7e
0041
00d6
fe7e
01ad
01c4
0033
0257
fe61
ffd5
0131
fed0
00e9
ffdc
0028
00aa
025d
fe6d
00ac
01b3
022e
0128
0089
ff2e
010c
fe95
00f1
fff6
fe03
ff76
fe8e
ff93
fd71
016b
ffe9
0266
00d9
027d
00b6
0150
fdab
0247
001f
fce0
ff31
0210
01b5
fff5
febd
0035
fe9c
0057
ffad
ff9b
fe87
fedf
feb3
ff38
0004
018b
ff4a
0106
feef
ff2b
ffa4
fe27
fdfe
fed4
005a
0043
01cd
fd21
0077
0198
ffd8
0067
fe5a
006b
ff1d
ffd2
00b1
012d
fff1
0037
fee3
fea5
fd98
fef0
ff6f
0222
fe02
fe58
fdaf
fe20
ff3c
ff29
00be
feaf
fd33
fdcf
0060
0165
0251
0279
0062
0082
0192
0008
018e
ffc0
ffe3
00bc
fe59
fffc
0053
ff59
fe54
ff2e
026c
021e
012c
fe23
fd7f
fdf7
0016
ffd9
02c4
013b
0047
0043
014c
fe9a
0204
0155
02c7
0155
0137
01f4
ff0d
00a5
ffae
0231
ffec
fe2d
fd07
0049
0005
004a
002c
002d
008e
000a
fee8
fee8
01bf
02c8
01ed
00d4
000d
fe96
0072
0181
00eb
0201
0058
0060
0138
02a2
ff0c
ff8f
0117
fe7a
01bc
008a
01a0
0182
01f7
fe77
022b
feac
ff19
01b5
01a1
0143
fffa
fe30
0033
fd31
00c6
fec3
fee1
0011
008e
003a
02ee
fe43
018e
00b6
014d
fea2
fe94
fdbf
0223
0055
fe79
00c6
fdc2
ffab
01ad
ff2c
01f3
0108
fecb
ff4a
fec6
02b2
ffad
0060
ff72
02c1
030e
fd4d
030b
fca5
03e0
fed1
0222
ffe3
0072
0010
fd9f
010a
0089
ff3e
ff03
ffef
fffb
005d
005d
ffcf
fdef
0008
fedc
0278
fe21
ff1b
0082
fd9f
01b0
fdbb
0025
01a6
0093
00fd
0159
fef9
023d
00f0
01c1
00f9
0149
0215
ff4d
ff3e
0101
fd4c
ff0c
0134
01c0
fe58
004a
ffdd
007a
0020
0021
ff94
fe21
010d
012d
ffdb
0025
00a7
ff19
0075
fdd0
0057
019e
020d
fe32
febb
fe1e
006d
0282
fffe
004d
fec9
ff3b
fe74
01f6
fe56
ffd4
01cd
0038
ffd4
fe6b
021b
00c5
02e0
fdbf
fffb
fea3
ff36
fe4f
ff6b
fedf
0252
00db
00b5
00bd
0065
fd50
01ba
0155
ff5e
0002
fe4e
0171
00d0
fff1
ff99
030f
ff5b
ff2e
0092
01a7
feda
0022
ff51
fdb9
018e
ff54
0168
00a3
ff70
0096
ff9c
00bf
01e1
025e
0110
ff6c
009a
01bb
00f9
fe03
008d
0209
0261
00d7
0109
0206
ffd8
fe50
fced
fef4
0200
ffdc
0016
ff35
00b9
003d
02e3
015c
ff91
01a1
fd12
fef2
ff81
0133
fefb
00c7
ff85
029f
003d
ff38
0234
ff1c
016a
fff6
ff40
ff6a
0141
fece
fd8a
fd7c
fdf9
fff8
00fa
00da
0181
fe0e
00ef
fe59
01c5
0072
fd55
fe15
fcc0
fd36
fe94
febc
011f
001a
fe42
0221
0127
fef2
00ad
007b
fe9a
0239
ff40
ff91
022f
fe0a
ffd2
00fd
010d
ffd5
01da
ff3d
fd9b
0074
0055
ff4b
0205
fe4c
00bd
fe9a
01d9
fe81
012e
0121
003f
0325
fd4a
ff6e
fe31
00fd
fdcf
00ee
fb9d
00f8
035d
0010
01f0
03ff
fd4f
02ec
feb0
ffd8
00bb
01a9
01b3
fbe0
01d9
013a
fe19
ff10
0289
fe18
ff08
fe54
002a
0124
00b0
0093
02b8
ffd6
fffe
0035
00f3
fbcc
feae
001e
ffcc
fdd8
0337
fdc6
0396
ff76
ff31
0023
024c
ff51
0179
ff85
feb5
003f
ff1c
0369
fe84
fd84
fdb9
ff88
021c
000d
03e2
fe63
ffdc
fdcc
fd11
01a6
02b1
fde5
fd7a
fce0
ffa0
0198
0122
fd79
fd22
003a
0005
0074
0015
018d
fcf0
fd7a
010b
fe90
ffdd
feec
0001
0203
00bf
0063
00d8
0048
0291
ff24
fe96
fc3b
fe01
ff7d
ffb3
021c
fe0e
01af
0237
007e
fe60
fe82
0014
ff3e
ffaf
fe62
004c
ff6c
ffcc
ff03
0203
fe86
ff88
00a2
00d3
0070
fd23
fdce
fe55
fee1
0161
01c7
ff82
fe41
ff34
febd
fec7
ff76
ff8c
fee7
fea0
00e9
0037
013d
017d
ffff
0273
ffb1
fe08
fdb2
0123
fe26
ffa5
0248
ff92
fed2
0041
fe36
0209
ff0b
fdb5
feac
0128
fde4
0079
02f5
0221
0118
01e3
ffcb
ff63
0230
010e
fe1b
fd4b
025b
ffab
017e
004e
fdff
02a7
0206
0187
00e3
fe0f
ff68
fffa
00ad
ff62
004c
fe9f
fcba
00e9
0195
009a
fe35
ff09
0114
00f6
fd35
fbe6
ff25
006d
ff3e
ff0e
fe30
fe24
fe9d
fcf2
fed9
029d
01b0
fdb9
fe94
feb4
0181
feb9
0151
0092
ff27
ff75
ff74
02a5
ffbc
002f
00b7
ff1c
ff19
0037
fe4b
ffda
03cf
0249
00c0
ff73
ff48
fea9
fd01
fced
0087
0092
0165
004f
ff54
0397
0253
0021
ffa8
fdb8
0070
ff3e
0155
0215
fe94
00a6
01cd
fe6d
ff55
032a
ffc6
fffb
ffd0
fe57
010b
fd9a
fc5d
00d0
fe24
ffd1
fe57
0124
01c7
0109
008a
0100
fe13
fda4
00dc
fef7
fe63
ffba
0032
fdb8
fe88
008b
ff0f
00f7
009a
00a8
fe2c
fed0
fd59
018a
fdb0
0029
fe92
fea2
fef0
fec5
fe66
fe67
fde1
0278
0112
ffcb
01fb
0341
031f
0050
ffd2
0146
0056
fc8d
fe6a
ffd2
ff70
fec9
fe6a
fd71
ffff
0018
ffc8
01c5
fe4b
01c1
ff4d
fe4f
ff5f
02e4
01bd
0146
feb2
fd2e
01b6
0015
ffe0
01d4
0174
0258
00d3
0153
01b7
fb58
01d8
fe77
00e6
ff7e
01cd
014e
030d
025c
ffff
fefc
ff3e
016c
00c8
01ec
fec9
ffd3
ff45
01a1
00cc
0244
00b9
fd10
013a
fe64
ffe4
01db
fe4d
fdc0
0057
fdd2
fede
02fb
010b
00ca
fda6
0115
00f3
febc
fec3
0070
fe3f
0149
fec3
fef4
fd3b
0255
ff5e
007e
005d
016e
0100
fe72
ff14
01a4
003a
ffda
fda4
ffb5
fda8
00f8
0270
fed8
ff47
01f8
fee5
fd85
ffb8
ff40
fdc6
000e
002a
01a0
fe3c
00d3
fe68
fede
fe8a
ff4c
fc9d
006f
ff3b
0193
fe56
fd9a
fdaa
feaf
fed9
fd98
009c
fe59
ff62
0167
011d
0042
ffdf
00e0
fdf0
ff6e
028b
0055
ff69
00a6
0250
fe04
0124
fff7
ff26
ffaf
ff60
0168
ff2d
ff6a
00ed
017a
01fb
028a
fe96
008c
ff48
ffc6
00fd
03b9
01f8
01d1
00f6
ffc0
ff64
ffcb
01b5
010b
00a9
01b9
010f
015a
0161
01a0
00ac
fccc
fd53
0041
0137
017d
0079
ffa8
ffed
01f5
ff29
ffd4
ff45
fec1
ff72
0201
ff27
fef2
0388
027c
ffe2
00a6
fc36
00eb
013c
008d
fe72
00cb
ffda
0181
00b5
fe7e
003e
fd3e
007c
ffe7
004a
00a5
0087
feb7
00df
fe41
00d6
fe3f
fe91
ff72
01e3
ff8f
fd76
02e7
fdf2
fe9c
fdc9
0179
ff32
fd91
fe3e
ff96
fe50
febd
ff7b
0288
00ad
011e
fe73
fee3
fe76
fef8
0122
feed
02cb
fe09
fe42
0128
01d3
00af
01e3
fe6e
00ec
fe66
0136
fe38
0209
01a2
01d5
fdea
fd45
ff1c
022a
ff43
ffea
fd85
00fa
fe5a
ffb9
0101
0289
fe0d
fe81
ff5b
fff1
fe39
0179
0085
00a1
0241
00b5
02f2
fd53
ff89
fea3
0112
0123
012e
0027
fdb4
00e3
feeb
0067
ff9e
0100
00a5
ffa1
fecc
ff36
ff9e
002b
ff13
00dd
005d
ffb4
001e
00ae
013d
0248
01ae
ffdd
010b
0138
02b9
ff7e
0131
02d2
ff2c
ff63
0062
0223
00d4
00f1
fce3
ffd8
00b2
006a
ff24
fe6f
0113
016c
fd72
0128
00a0
00d8
0291
ff1e
ff9d
ff34
0144
0134
00e3
fd9f
00ae
fe26
fe3c
0067
0255
011f
0048
0119
ff4f
feab
0118
fd23
0219
fe6c
0222
ff8a
ffea
0247
fedd
004c
ffcc
ff33
ff7d
fe5b
0360
fee1
ffb1
fea8
00fb
fea6
ffff
00d4
ff94
fd92
00b4
0080
ff52
fe66
0202
016b
0156
fdfe
fe2a
0050
ffa2
0305
012f
0042
0106
0036
00de
026b
0268
ff29
fdf3
0170
fd98
02d5
ff84
0211
00d7
0098
ff7f
013e
013d
01ae
0273
0068
fe84
fdf3
0046
fbeb
fe77
00a3
0288
0105
febc
0013
fd44
ff24
fff0
fe08
0249
0088
fe3e
02d3
01e2
02a7
fc96
fc8a
ffb7
0041
ff6c
01e2
00f3
000d
fe45
02c8
ff9d
0262
fcbd
ff71
fe1b
fe72
010a
01b3
020b
ff99
0028
fe33
00f3
ff4d
fe59
fea2
02e1
fdfb
0288
0064
ff9c
fc89
ff66
ff48
fe90
ffc5
fe97
0231
024c
fd19
013f
00b3
feb1
033a
fdcf
022e
01ef
026a
ff02
ff84
01f3
003b
fe9d
fe6a
00b5
fdae
01b8
fea5
013a
fef9
fd49
00f6
019a
0255
ff87
010c
fda8
0268
ff9f
ff29
fd38
036f
ffca
0098
fef9
00d5
0204
01aa
01ca
fe23
011f
0252
fd9c
ff65
00fc
0077
ffa2
fd60
fe10
003f
feaf
fff6
fe4c
fe29
00fa
fe35
013c
00fa
01b6
0188
01b6
00e5
006d
ff77
ffaf
fd52
feb3
021d
00b4
feb1
fda9
010a
fdcb
fece
000b
ffa4
fe20
01d5
0153
ff81
ffa2
ff43
0062
0130
fd75
fd65
013b
0279
fe38
0060
0053
fddd
fe67
fdfa
ff61
0233
0134
ff40
ff96
0039
018a
fe4c
fd35
ffb6
ff3f
0107
fdae
0152
ffa2
fe92
ff1e
003f
01b8
0001
006c
ff0f
0158
ff91
020b
fe0b
00c9
fe51
fb7b
0219
fcdf
ffd7
020c
00bd
0196
0112
fff8
ff30
ff52
ffe5
0132
0055
fd32
00a2
0005
0397
ff8c
ff3f
0328
0012
013c
fe1c
ff8f
00b2
00f2
01cd
fce5
fde8
0207
febc
ff20
016c
01aa
00b7
feb7
ff79
00b4
fe4e
0080
026f
01a5
0298
0072
fe89
fefe
feb1
fee4
fd16
fda2
003c
ff79
ffd0
0091
0289
03dd
00a3
fea4
fd86
01a4
ff15
fff6
01f1
fcf0
002e
ffaa
01fd
0027
fd2d
fe11
009e
0086
015f
fe38
febd
0242
00b4
fc75
0015
017d
04c3
0130
016f
fe03
01b8
00f1
fd58
fe0d
0144
ff9d
fdbe
0132
fe4b
ffd0
0164
ff7a
00a8
00a3
fe68
fcd8
00d1
fef2
0177
0037
ff75
017e
fda2
fd5f
ffc2
008c
018e
fcf9
0023
fee7
ff65
0194
fe34
000b
011c
fd74
ffcc
fcdc
fd4a
0184
01d0
ffb5
fd50
0270
fd53
029c
ff50
ffee
018b
ff79
fd14
03d4
feec
feb9
fe8f
fdbc
fd59
0335
0093
ff3f
fdd7
fd62
007e
ff64
ffa7
fc9e
02a7
0061
ff07
00b0
0366
0117
fff4
ff9a
fff8
ffa0
0054
fd74
0108
0030
ffd0
fecc
00ad
ff1b
fe4a
ffa3
01bc
fffd
fe5f
fc8f
fedd
ff96
ffd7
0119
0159
fe06
fd22
01f1
0002
fdfa
ffb9
fd47
003b
0121
ffb9
ffed
0223
026b
0107
0238
ff41
fe7b
ff84
01a3
006b
00a3
fe7d
0177
ff14
0154
ff43
ff45
00cd
fd6d
ff8d
00df
0084
ff80
0136
fd7b
0008
01a2
fefe
fffa
0181
fde2
fe23
0293
fef4
004b
0016
ff0f
fc6c
ffb7
ff16
0066
00c2
ff9d
fe15
ff49
fefd
fed5
ff05
ff4f
ff37
ff8b
ffe8
fe95
0294
fe0c
00ff
003b
0139
0112
fcf9
00a1
ffe0
01ad
0118
0095
ff87
fd68
ff2f
0030
0125
fd19
fe6c
005d
014a
ffba
ff24
0276
ff30
01e7
018b
fdf5
ff56
fe1e
01b3
021a
00a7
ff37
0055
01bb
ffe6
fe00
0200
02cd
0198
fdc7
fecf
01be
fed5
ff02
0077
00ab
ff0a
ff6d
0036
00b9
0059
ffee
0090
01e9
007e
016e
ff05
0091
0226
ff6e
012b
fe6e
ff9f
008f
00a7
01f7
ffe5
fe4d
00b4
0154
00b0
01da
01d1
00d8
0183
ff82
02c6
0260
00de
ffd1
0077
fee9
02f4
fd31
00a6
ff4f
01ab
fed7
01d7
01e7
fe77
0158
0165
fe73
ff74
0031
01f0
00a7
007d
0008
ffc2
00af
018f
fe3a
0049
fd23
ff4c
0034
ff3a
0093
0150
ffff
00e9
fed7
011e
0212
01d1
fe7f
fe2e
ff5d
ff55
006a
fed2
fdde
01bf
002f
00dc
028b
01d6
fe57
fd92
ff46
fe4c
fdf9
fd39
fea6
ffdc
01af
ff8d
0286
ff1b
fea9
fe65
ff05
fe38
fefb
0229
ffd6
ff1b
004a
019d
01e2
ff67
febe
0056
fe32
ffbd
ff42
fe25
fcea
0096
0172
fd9f
009b
012a
fec8
fe14
ff28
fd85
fe88
ffdb
0322
ff09
000b
0070
fec7
006b
030d
fe2b
feb2
fdf5
027b
fed2
0063
ffff
01a5
018c
fcd3
0206
0206
01a1
ffd1
fea2
003f
feda
00d4
0217
002c
fe8e
fff8
0215
ff73
fd8a
009c
0176
ffe3
018c
0069
feb0
0017
0096
0212
ff6a
fcd1
013d
02da
fd7b
ffbe
ff02
0171
01fd
00b6
ffd8
fdb2
fee5
fee7
fd0a
002b
feb4
0271
01c2
ffca
0351
fefc
fe38
ffb0
0305
fd2a
010f
ffb6
021e
ff8d
0166
022e
ffe6
003b
0347
fffd
034a
00be
fd09
fd9b
ffba
fd64
ffd1
0143
fd62
00fb
01e6
ffd9
0156
00d0
ffe5
fe94
00fa
fd67
fefe
0186
0029
fe23
ffd9
0223
ff41
0100
0032
0285
ffc2
00d1
0053
0122
ffd3
ff5c
fdc5
0086
0239
01be
0109
fec9
006d
fe94
fc85
fe17
019e
fd3e
ff28
0215
fe15
fee9
0068
00ba
014c
fcd8
0294
fdc2
fe6b
014d
00ef
fede
010a
feda
0013
fcbe
02d9
fd9b
fd56
fe8f
fe10
fec5
000c
0054
fe2b
0262
0089
0138
018a
fd9a
004f
fe4f
ffff
0233
0079
01d2
fd68
fe39
00ae
0241
0168
fee1
ffec
fffa
ff52
fd98
00e6
fe88
0040
00a8
ff6d
fd4f
fe7e
00d8
fe4a
01b5
0232
ffac
0084
ffb4
006d
0022
fd06
ff85
fff3
0068
fed1
003b
ffdc
ff87
fe94
ffd3
fd31
0137
01a8
fde8
00db
0180
02d4
fe43
fe00
fd26
fd14
ff30
014a
0331
fe94
ff7f
fcc0
ff4f
03a3
fdeb
fe74
fe49
fc54
fd3d
fd7b
0243
fdd3
feba
fffd
fffa
ff56
0335
fe2a
fd8f
ffd1
0120
0099
fe8e
ff67
01df
fd3f
fe0f
00d6
ffa4
fe62
fe59
ffcc
0024
fef6
000c
fe9d
ff5b
fe53
0004
ff9f
04f9
0073
014b
fe48
ff4a
ffdc
00e5
fe36
ff43
01df
ff2a
005f
fd33
ff0f
fd5b
fef1
0132
01fc
010b
0027
fe7f
fe27
01a6
fe05
fe5f
fca7
0043
005d
fec5
ff47
021b
fe63
ff76
0146
fea4
001d
fe29
ff94
fedc
012f
00b4
ffc6
0183
fdf8
0379
fedf
fe34
0177
0114
00aa
fd6b
01c7
0056
fff0
fd4c
fe6b
ff00
00f4
ffbe
fe50
ffd0
00e1
fd19
007e
014d
01e9
ffcc
0005
feda
01ac
016c
fed0
001e
fec1
001d
008a
0010
00c2
003b
0265
fe1e
0219
ffbe
fd6c
0234
fe36
fcea
000f
0192
0122
001c
00dc
0006
0091
fec8
018b
000d
0157
fe58
fff3
fe91
012a
020e
00f8
ffd9
01cc
02ca
0289
0177
fcd4
023c
009e
010f
fea7
ff31
0118
fe88
ff20
0184
0036
fd9e
00d5
00dc
fdfe
fe27
0038
0105
0125
0084
ff8b
fd27
fe41
fea0
fedc
ff8e
008d
0226
fdb2
fe54
01fb
0259
ffea
ff61
00e6
0134
029a
feb9
fdd1
feb6
ffa3
fe8e
ff20
ffb4
fe7a
00aa
fd96
ff94
0057
003f
004f
fff9
01d4
02c5
fe47
0158
0052
01c5
019c
ff2e
fe2d
ff86
fd82
01b8
fe33
fd2d
ff36
ff6e
fed9
0263
028e
fed9
fdc8
01c4
ff59
0066
00a4
ffc7
fff8
ff23
0224
00a6
0122
01ce
00c4
febb
fe6f
0065
006e
fde9
01c2
fdf6
fe53
ff59
0046
fe9b
0147
022b
ff36
00b5
0219
ff70
fd9b
ff0d
0106
ff1c
fdb9
01ce
fd1a
fccb
0082
0211
feb6
fedb
01ce
0178
feac
0053
0164
fdea
0185
fe9c
0247
001f
ff85
fe8a
027e
ff65
004a
fffb
00ee
010e
fe0e
ff68
fe5e
ff5e
fe84
fed4
00d3
0357
0243
0125
0057
00d4
01dc
01b9
fed8
fef9
fedf
0048
fed7
fee5
ffbb
0051
0096
0120
011a
0232
ff6b
fe3b
0047
ff04
016e
ff63
00e0
fd60
01d0
00b4
0100
ffa6
fe1e
ffc9
0253
ffd7
0120
fea7
ffb5
febc
fef6
0050
fe5f
022c
ff1f
0252
fd88
ffd1
00fd
01c2
fdf1
ff28
fb4e
0092
0307
ffce
fd6b
fd96
01c4
000d
00f4
0002
0076
fe3c
0012
013b
00c1
fdfc
ff69
010a
fdf7
fe78
007f
020c
ffed
0154
ff39
ff05
fd1e
00c1
01aa
ffe3
016b
fef0
003f
fe6a
fd21
fd29
fda2
005e
fc4b
feb6
ffba
0357
0270
02f0
010a
ffce
ff86
fcd1
fed4
0170
fef5
0233
ff84
ff9c
fe07
ff1a
00a2
ffb1
fee4
0046
000e
fe81
fe51
0076
fd89
ff9c
ff81
fe98
00a2
ffbd
ffe7
ffea
0178
ff8f
fd00
ff95
0326
0109
fd0e
fefb
fef0
00b2
fea8
ff1e
0062
00a0
0046
fe4c
00b9
0317
00d0
01f9
00f9
fea0
fe57
0244
0104
fdb1
ffa7
fde1
001b
00f5
014b
0279
ff76
01e5
032f
020a
0072
0185
007e
fd26
00c9
0133
01b2
fffd
fe20
fe4c
feba
0063
01cd
005e
fd58
fe63
012a
fec3
fddd
ff23
fdb9
0028
0024
fe33
0165
fe11
fea3
021b
ffb1
01aa
0042
00c0
feca
0242
001f
0079
ffbf
ffe5
ff61
fe58
feb6
0260
fe23
02e6
ff9e
fe23
fe6d
fe95
feb3
febf
0162
000a
0138
0128
ff90
0166
0039
fd84
fe15
feb8
fe7a
fd75
019f
01aa
0198
fd8b
ff78
027c
00c9
fd05
0182
0081
ff11
feac
fd74
02e6
fea9
ffe8
fe1f
012e
ff45
011d
00f6
014e
fec0
fe69
02bd
fdda
ffd9
00ee
001d
0152
0097
fe55
fedb
00e0
fdae
01f4
0159
fe89
ff37
ff57
00ce
fd0a
0098
02c1
0277
ffb9
0153
ff72
015a
fd5f
002e
ff91
ff61
ff63
000b
ff07
fd21
0064
fee6
fdc2
0089
ff81
ff36
010a
01be
016f
fed5
ffd5
ff17
ff4a
0195
fe87
0167
ffde
fcf4
fcc4
fdee
ff8a
00e6
fee4
fe8a
fe6f
0103
044f
ff4a
02c6
ffd7
038e
0037
fe4d
fe9f
020b
ff22
004e
ffd5
02bc
024b
00b7
fdb2
00e7
008f
0132
fcdd
00ab
00af
fdca
03aa
02cb
01da
0059
fee2
fdb9
013e
fed8
0068
ff5b
fee0
fdad
04ed
01be
fe96
fbad
0204
ffc0
021a
fe6c
007e
02f9
fe45
ff77
fd99
fed6
ff5b
ffd6
ffaf
ff92
fe33
019c
ff2f
0118
fe3d
fe16
0131
fdfb
ff96
fff3
021d
00b0
fdaa
00f2
025b
ff43
ff73
ff52
ff30
00bb
fe60
0016
01a0
028e
03b1
fee1
0228
0020
01a3
ff33
fe5b
ff10
0075
0238
fff5
0093
fe31
feb8
01fc
005e
029e
feb3
fdc4
fef9
ff69
fec1
022c
fec8
016f
fe5e
0151
fda9
0356
fd94
01dd
fc39
fc70
fe92
feb2
0365
fec4
00bf
0167
fdc5
fe89
02aa
00a0
01b4
fdc4
ffce
fc2b
fd0f
0121
fbb6
0486
02b6
013a
fffb
fc7a
ffb8
009b
fea4
0180
fff3
0372
0020
ff3b
034e
ff6f
00cb
01e0
0297
ffe7
fede
ffd2
ff17
fe77
fec5
01bb
01ff
008b
0211
0055
ff06
042f
00ca
ff07
fc78
fefb
ffa6
ff71
ff9e
ffbe
ff6e
0282
00bb
01af
0169
fe3e
fe5a
001a
fe91
0075
ff5a
ffcc
fdd1
006d
