0219
fe40
00d3
ff10
0003
0141
ff0c
ff62
00e2
0011
ffb0
00e3
febd
fdda
0010
0193
0078
010b
ff8c
fec4
006a
0123
ff69
0094
fed3
01a8
fed1
fee0
fe73
01b1
00eb
0098
0113
01f2
016e
fef8
004a
00cf
01c9
001d
ffc8
00b5
0187
010c
ff19
feff
0171
014a
ff79
0035
01c4
0009
ff40
ff51
fef9
ff40
0013
ff4b
feaa
0189
010e
ff03
ff3d
ff2e
feda
fe49
ffdf
fe17
fe40
006d
0084
fedb
00e5
fe73
00f1
0105
0246
008c
0133
017d
022c
ff24
0055
fec4
006b
0155
fe5d
ff72
ff71
0164
ff1f
0047
ff8c
fffd
0104
0092
0181
017f
01c0
01b9
fea7
feeb
ffe7
fdcc
fea9
fe36
010e
fdc7
fe4b
00c8
ff52
fec3
00b6
ff49
ffb5
00c1
fe21
fe20
feea
014f
fe5b
ff6d
0114
0200
fd94
0134
ffc8
fe9e
fee8
fe14
fe4a
fe84
00f2
ff13
fe7b
0161
021d
febf
0021
01ce
00e0
009b
ff08
001b
00d6
ffda
fec0
00b8
ff13
0204
ff68
00db
012c
00c3
007b
0176
005b
ff64
011c
fea0
0092
ff41
0164
0099
022f
ff8c
fe59
fe88
ff3f
00e6
0067
fea7
0030
010f
fe28
0088
fec0
ff05
018b
fe00
01b8
00ef
01dc
fe9b
0136
fefe
fe36
0051
0168
0184
00b6
010c
010f
0117
021a
00df
011d
01c9
fe83
003f
0108
011e
fdf1
fecd
ff5c
007c
0022
fe4b
fe23
00c9
ffcd
fff2
ff14
ff90
fe65
fe51
ff7e
ff34
00e6
0153
feba
fea5
feb0
fe0a
0059
ff77
00cf
fecc
fe66
ff36
fe5f
fe6f
0102
010e
00cd
0091
0062
fec8
0070
003d
ff60
013b
01f0
01e4
ffbb
fe2f
fff4
fe82
ffee
0059
ff5b
0055
00a3
ffe3
0016
011a
004d
023b
fe9b
0229
ffb7
0098
fe1e
fef3
0169
0066
ff4f
0121
0038
01b5
013b
0071
fea8
fec7
ff3c
ff3c
0174
ffb4
016f
00b8
ffb8
feaa
0162
fe1a
ff3a
fee1
fe96
ffdb
ff41
00b9
ffbf
005e
011f
00d4
fee2
00b1
00fb
00e4
ff49
0179
002a
fe4e
0121
ff0a
ff91
0091
01d4
00e1
fff7
00d8
0045
fec0
fef9
ffa8
0181
00c1
ff18
00b1
0008
ff2d
feb8
0101
0198
fffa
fed2
ff1a
018c
0151
ff2e
ff04
00cc
fde4
0155
fe7e
00c2
00bc
fe98
00b7
fe2f
0103
00d4
ff0a
014a
ffb1
0032
feac
ffff
fe47
0003
0173
ffe1
002c
015c
00e9
003e
ff59
fe32
ffc5
fdd0
feac
0007
ff7c
0013
ff3e
ffbb
012d
ffaf
011d
ff92
00a6
ffd3
fee1
0132
ff44
021b
00b8
00e7
00ae
0145
0035
ffd6
fee7
fe97
fead
000d
fe5b
00d2
0042
0181
0107
0054
00ab
fe88
01bc
00f7
012d
00b8
00e3
01b5
0081
ff41
fec3
ff44
ff72
fe76
fe95
fd9c
ff2f
0021
fe63
ffc2
fea3
ff3e
ff93
0197
fe99
00e9
ff57
00d5
005f
ffe5
fe36
0097
012a
0124
015f
0001
ff4c
fe8b
003e
01b4
006c
ffe8
001d
00b8
0107
009e
0138
fed2
fec3
ff80
0044
ff45
ff18
0071
fea5
00e3
fe4a
fe11
020a
011e
010d
019a
feed
0117
00c2
fe94
0119
0193
ffbd
0149
009e
fed7
ff57
00a6
fedf
0105
feb1
fe5c
ff2e
0005
ffe8
0032
feeb
005e
fefb
ff4f
0150
00cd
ffff
ffd1
00a3
fee7
00f1
fe6f
0108
ffdf
011e
feeb
ff5a
002f
00f5
ff90
008c
fe07
00aa
0204
00bf
01f4
fef7
00cd
0223
0112
fece
ff32
ff5b
0061
fe9f
ff86
0198
01c2
fe29
fe9b
0171
ffae
fe0e
ff1c
fe8f
ffd4
ffa8
00d9
fe6a
017b
fe58
feeb
0073
fec4
00dc
feed
0035
00a5
ff68
ff5b
0188
ffd7
ff4e
00be
0020
ff38
0008
015b
002d
00fe
0074
00fc
ff31
ff0d
0088
022b
ff1e
019b
ffbd
feb3
ff59
0133
015b
0036
ffcc
00df
0000
013b
01d7
fe9e
fe39
ff6b
fe9f
fff3
007f
ff52
017a
0214
0235
0176
01f2
ffb5
0172
ff8a
0136
00a0
01a9
015a
ff9d
014d
ff5b
ffd6
ff33
0147
01be
fe7b
ffa4
0190
ffa5
00f6
fed1
0118
fea0
0079
fffc
fe7c
ff0f
00f0
0114
00d9
ffab
fe58
fead
013e
febe
ff6a
feab
0149
feff
004e
fe9d
ffbb
ff4c
feb4
005c
ff7e
ff89
ff33
001a
0015
ffb6
ff3e
ffea
012e
001b
0072
002c
feb0
fff0
ff64
fe17
ffca
00f1
ffc8
ff53
016d
fef8
fe67
01d5
ff8c
fe62
01fb
ff8c
01c3
0015
ffd7
00c6
0010
00dc
018c
fff5
00ca
005f
fe77
feda
009c
ff2b
fea3
fda0
ff03
00a0
ffa6
01c5
00c8
ffd0
ffbb
0114
00be
ff55
ff94
0111
0183
fedc
0122
fed0
001c
ffcb
0029
0175
0201
0209
0071
00da
0070
ff37
feae
019f
019f
0115
feab
0039
01a0
0166
008b
000c
004b
0165
002f
0211
fe98
ff01
0119
007c
0208
00d9
00bf
fdcb
ffaa
0015
ff4d
00a8
feab
0100
fe9f
0058
ff8c
0127
ff5c
ff79
fe53
ff23
feb3
01a9
0128
0188
ff3f
0082
00bf
ffbe
fece
0066
fe4e
ffa4
fe41
ffa7
ff96
ff46
005a
0070
0051
fe78
004c
0044
006a
fef3
0193
ff3b
fe75
fe6f
feb4
ff21
ff17
0128
0254
0132
010f
00c6
0164
0052
0011
0077
ff6d
00c7
fe4e
ff07
0050
0121
fe8f
011c
ff6b
006c
fe85
015e
001b
ff35
ffc0
fe0d
ff9b
0125
ffb4
00f6
014b
0036
0083
ffd0
00de
002e
feb0
fe6d
00f5
008d
ff42
ff61
00d5
01c2
00d4
0055
ff45
ffc9
010c
ff33
fecd
00a1
fea5
0197
00f1
fefb
fff6
00a6
ffaa
0221
ffd2
00a5
fe1f
01d1
fea9
0050
0144
ffdf
0039
0127
0181
007d
0005
00b8
ffa8
ff0d
007e
0024
00b3
0109
fe94
00bf
0128
ffb3
00c0
fee8
ffff
00bc
0065
fe85
ff3e
01ca
ff10
fe76
ff1a
ff92
fefc
ff9a
0093
00b7
024c
0020
0153
00c7
fef2
fe5d
00e7
feb4
0152
01ef
fe0a
fea9
0240
fe84
0170
feb7
00ec
fe0d
fe23
0191
ffbf
fe4b
0038
0052
0199
ffa1
febb
ff0b
ffef
ffe6
012a
0008
0098
0061
ff15
015f
fee1
ff29
0077
00f8
0210
fe45
0005
ff96
ff58
0184
0181
feed
0195
0173
ffcf
0213
fee9
0183
fe31
0192
feb6
003e
fef7
016f
feb1
fee7
ff95
0135
0143
008f
007f
ff5c
ff50
01b7
fe9b
fe48
ff4d
0006
ff87
00a1
ff2b
fea9
fef1
fe92
0139
0088
0150
024a
fe95
feba
01cb
01fb
0196
ff1a
0096
00f1
ff56
005f
fe38
011d
fec8
0029
feff
0141
febf
fea7
01df
02ad
ffb6
014a
fe7b
fe51
009e
005d
008c
0175
ff2d
008b
010e
ff09
fecf
0066
00d6
0119
ff31
0028
fe25
00d3
ff23
ff66
fe9d
0141
ffa2
0041
0057
fe74
ff70
001c
01a8
ff18
0025
ff21
fee9
ff9e
00ac
fec8
020b
0064
ff1e
01d8
fefd
ff7c
01e8
01aa
01a3
ffb9
fe0b
00f8
fdfa
007c
fdcc
0070
fe90
0197
0063
005c
fee6
0111
fed0
0121
ffc5
feb3
00dd
0027
fe71
ffeb
fe6f
ff34
ffbe
fee2
0081
0040
fec9
ff3e
ff77
fe86
ff69
002a
ff18
0047
ff82
00e8
0106
0070
ffd0
0089
013c
0143
ff44
ff25
fe2b
0041
fe12
ffd2
ff1d
009d
001b
00f8
006a
ff11
ff92
014e
001a
01aa
0047
ff37
0049
fde9
ffc4
ff0a
0033
0042
ff50
fefe
0256
00c3
001b
ffd3
fec2
0020
011e
ffc5
ff91
018b
fe58
0048
00bd
ffd7
002c
0056
00b0
0135
ff0e
fe97
ffb0
fffa
ff4d
fe48
ff6f
0019
00da
00ee
014a
fe4e
00e9
017e
003f
fee7
ff91
00eb
01f6
ff05
ffcd
ff68
ff38
00b4
fed7
ff85
fea0
01a5
ff5e
0055
00e5
00fe
0016
0090
fe6f
00ab
fe40
ff81
fe98
fdd4
011b
0177
0129
fe0d
fff3
fe08
00ac
fe0c
ff0e
fe20
fecc
ffd3
0147
00b0
008b
0104
ff3e
000e
025f
fe38
0009
ff13
008e
00ce
0109
00b6
0053
0092
01b4
ff4e
febe
0013
002c
ff21
ff65
ffe1
feff
fe21
ffa0
ff01
fe40
ff84
0030
0093
ffef
fff6
007a
ff41
0097
fefd
00ef
0058
00f6
00a0
0114
0060
007c
002a
00cd
ff1c
fff2
0025
0053
0004
feaf
ff5e
ff89
fe3f
ff97
ffe1
ff84
0061
0152
ff18
ff23
ff44
ffba
fecf
00e3
feda
0016
fef9
006e
fef5
027e
0244
fff0
ffa7
01b0
ff63
fe70
ff0a
01b7
00d6
ffa5
fdbf
0103
fe7f
016b
ff15
fea2
01c6
ff8e
feee
ffa2
ffe0
0167
ff8d
fedd
003e
0041
0094
0101
ff32
fec1
ff82
ffa2
fece
feb7
0001
ffff
00a4
011b
fe1c
fe5f
fe74
fe9b
fee8
fe57
014c
ffbd
ff5b
01d7
fe72
ff87
0124
010b
ffa2
007c
007d
fedc
ffe9
ff01
0103
0051
01bf
0242
0039
0219
ffad
01fb
0078
0041
020e
fd26
013d
fe07
0015
01cf
023b
02ff
00f5
ffc0
00ee
fddc
0036
fdb1
fec9
ffb3
fe3b
0013
01e1
fe82
00c1
fed0
003e
fea6
ff99
0008
00d8
00ac
fd3c
0232
fede
ff10
0115
ff3e
fea4
ff17
00fb
fe3e
0166
fef4
ffd6
0228
0246
ff42
fea4
fe6a
00ee
013d
00a9
0202
ffaf
0089
fe74
0063
008f
ffbf
fe7b
fe12
0226
0224
005a
fdf5
00b4
00ae
01ae
fe6d
01b0
0169
ffd5
ff31
00f5
ff2c
ffc3
0216
ff28
fedb
00ba
01cf
011e
fee7
feb9
001e
016f
fea3
01f4
ff51
ff78
fdf9
00c4
00da
ff26
ff3b
fecf
ff99
0006
ffbc
01c0
0003
ff31
ff9c
00d0
ff14
0098
fed6
0286
01f0
ff79
01a4
0010
020e
00fa
01bf
ff88
0183
ff26
ffb0
ff64
016d
00bf
ffcb
005b
fd50
fef8
fed6
fe00
ffea
ffd5
ffe0
0079
ffbc
fe18
ffdc
ff6e
012e
0053
feea
00d7
ffa8
fea4
ff38
ff5a
016e
003d
0245
fecb
ffa9
00ad
008b
0159
ffc9
0138
0115
fe5a
fe7c
ff57
0148
fec4
ffab
011a
ff88
fe65
0288
0027
fe47
fe9e
ffd7
ffca
fffe
003a
ffab
ff1e
fd7e
fe5b
0058
00b1
ffdf
0063
ffdf
ffe9
ff30
008f
0247
010c
00ff
ff2c
ff78
0107
fe8f
feb3
fed1
fe88
0133
01a1
fea9
00cc
ff26
0173
0194
fed9
ff24
feaa
00de
005b
00e2
00f8
0210
fe5e
00ce
fede
0218
fff6
fe53
008b
fe20
018c
00d9
00f3
0086
ff72
00e8
fee1
ff2a
0003
ff8c
ff88
ffbc
00e5
ffa4
fe05
0102
00f8
011c
0124
ff32
fe66
feaa
0150
0120
01f3
ffa3
fe5f
fe87
ff3f
ffda
00f9
fe5e
005f
ff31
fed0
fe2d
01b2
0139
0008
0056
00c7
0117
ffbb
fe65
0111
0013
ff6d
fe62
0093
0162
ffb5
ff77
0162
0163
0058
014f
00fa
0078
0128
0029
ffcf
ffbc
feea
00f4
011d
fea6
ff38
0128
0144
fefe
ff52
0055
00e7
002f
ff3d
010b
ff36
0001
00d6
00f8
0071
fff0
ff87
0130
ffeb
fee4
fed0
00dd
ffd1
ff34
feb9
00a9
00c0
ff49
ff07
feaa
00bc
fe95
0110
ff8a
0054
ff4f
00d1
011b
ff91
0098
fea7
0143
010d
00e2
ffde
0105
001c
ffeb
ff3f
ffbb
0099
00d8
00da
0101
0093
fffb
014f
0015
01e0
fff7
ff8e
0091
0052
ff4b
ff75
0027
00ec
018a
0025
fe8b
ffa5
ff49
fe6b
0035
00dd
feea
0058
ff4b
ffd4
0034
0174
0131
ffa9
00fa
fe1e
ff2f
ff11
ff69
01c3
fff3
0177
ffe9
fee4
0079
012a
0008
002d
0147
ffb2
fec1
00f2
fe57
0107
feb8
fdd5
015a
0093
ffe3
feb8
fda5
ff87
011a
fe09
ff11
fea0
01ac
011f
ffe7
febe
007a
0173
feea
00af
fff3
0157
0183
01de
005a
0055
01a8
fff5
ff5b
fe29
ff14
007f
fe38
fe2d
ff47
fe4d
feed
005e
0162
018b
ff82
0005
0026
ff9e
01b0
fff4
00e2
fe24
ff26
0113
0154
ff0e
fd8a
ffe5
ff4c
fe54
fe78
fe6c
ff71
0113
0028
ffa2
01e4
0096
00af
00a2
00a9
fff9
01d3
ffc2
0180
00bc
014b
00ba
fee8
00b9
00a2
00fa
ffd5
ff02
010f
fff5
016a
fe74
003d
ff21
0146
ff5a
ff8a
0033
fe66
fe3d
ff7c
012a
006c
ffb0
00e8
0003
febe
0094
ff0a
005b
010b
00bb
ff6b
009f
fe9e
01c1
0197
fec2
00c4
00d6
01c4
feb4
00b8
00e8
fef6
0188
015e
fed6
00c4
ffa5
0130
ff0d
fe71
014e
fe1b
020a
ffa2
fec7
007d
ff3f
ff66
ff9d
ff30
019c
004d
0151
fe93
fffc
0086
00a5
ff9f
00d7
fefc
ff57
0235
ff22
0122
011b
ff1c
fe19
ff49
feae
ffcb
00bc
004c
018b
fff5
ff9d
ff7e
018c
0081
00c4
0121
ff16
0065
fff9
0207
004f
ff20
fe72
01df
fe92
fe46
003f
01ad
ff27
ff55
fed3
fec8
001b
ff01
0126
ff3f
017d
fe26
0220
016a
0030
0080
0128
feb9
ffb6
ff33
feff
ff7d
00bc
0078
025f
ff3c
0066
0255
ff52
0126
006e
ffca
fff6
fe7b
00bb
ff98
ff47
ffad
ff8e
fecb
ff6e
fe9e
febc
026a
015b
ff89
0103
fff6
01ad
fe56
ffde
ff45
0010
000b
00bf
fe92
0254
ffb0
ffa2
fee8
fe96
00b9
003d
00e9
0086
fed9
0109
0129
0140
0185
ff87
01be
0028
ff25
febd
ff03
ff69
0105
0058
fe9d
015f
0235
fe9c
00c7
fecd
fe91
ff2d
005a
016a
ffa8
ff66
003f
0044
ff7f
00da
feb4
ff6d
fe9a
ff1c
ffed
007b
feb4
0107
ffb5
00d6
00b9
fee0
ff55
fff9
ffc8
ff2a
00ee
ffff
feb4
0047
ffec
ffb6
fe9c
0024
0123
0196
ff1c
fe08
ff2d
00f4
014c
ffec
00fe
0190
00f9
0077
fee9
0095
ff51
fffe
fedd
fee6
015e
0165
0138
ffc9
fdb6
fff6
006a
0037
009d
00ad
ff96
0108
ff7f
026f
02a4
009a
0118
ff1c
012b
ff48
fee1
00a7
fe09
ff69
fda5
01ba
fd78
018b
01d2
fee1
0099
003d
01ea
fe52
fd8c
012f
feb4
feb4
ffa6
ff5b
ffba
ffe8
015b
012f
007f
015b
00cf
01b0
01aa
0105
fd81
ff09
00fd
ffbc
0099
ff78
fe46
fff8
00af
fe69
fef4
ffb5
009d
ffbb
ff33
fe8f
01ba
0040
00e5
fef4
febf
013b
00d2
013a
00c7
00c5
ff3a
0034
ffe4
fef6
0165
0026
fe7a
ff28
017a
fe69
ffaf
fe59
0096
0149
ffcc
fec9
fee8
0124
fedd
0132
ffa4
fe9f
fea3
fed0
006f
0178
fea6
fe6e
ff24
003e
0000
ff7f
000d
016e
ff9d
ff1b
ff0b
ff9b
00f5
fd82
000c
0008
fe5f
00b2
fef7
0047
fe5b
ffce
008f
007c
00a7
ff27
ffd2
ffd4
fea7
0179
fdc6
01f7
01e0
feab
004f
0006
ff3c
00ea
fe62
ff96
febe
01bc
ff42
ff1e
00d3
0156
fec6
0033
01dc
01a6
ffed
006b
00fb
ff28
00b5
ff90
fe1d
ffc5
01d7
0032
ff9a
fe59
015b
01da
fe12
fe74
fde4
ff97
0149
fee7
fe16
ff0e
ff24
ff14
01c3
ff90
ff15
00b1
0050
fe6b
00f2
0145
fdfc
fe9f
fdf3
ff80
01d2
011a
ff9d
fea9
0162
01fb
023b
ff2f
ffdd
ffef
fff9
0164
0153
0004
ff3f
010d
ff20
0154
fe01
00c2
0172
fe7d
ffb6
01c4
011d
003d
ff7f
ffb9
0142
00d5
0075
ff87
fee8
fec0
014b
016c
0192
0101
0026
00c0
00a0
0120
febd
ff3a
ffcb
01f6
0040
016b
00d4
0114
002c
fef6
0131
0182
011c
ff53
0180
ff1f
fe52
fe11
0018
fe77
ff76
fea8
fe9e
00df
ffbc
00b7
00ad
0091
003b
ff39
ffd2
0238
ff64
ff0f
fec0
ff6b
017e
fe78
0022
fd2a
ff76
fe6a
0040
fec4
017c
0189
0066
01a3
fe30
ff5f
ff28
00ee
00b3
00ca
0190
0031
00e1
00b1
01c8
ffb1
015c
0072
024b
0236
0063
0185
0030
0190
fd87
0003
01bc
01fd
ffcc
ff1a
008d
fe74
fd98
fef5
fe3f
fe08
ff92
fdd2
fe98
fe35
fe49
ffbb
016b
fefb
0158
00e9
fe56
ff0d
006b
018f
01f7
fe77
fec3
01b0
ff31
00c4
0180
ffa3
00f5
ff48
01a7
0160
00c9
00ae
fffd
fe1d
ffbd
fe4f
ff31
fe8c
fe37
003a
ff7b
0029
0148
01a0
ffc1
ff84
febc
ffab
00b1
010a
011f
0098
fff9
0022
00f6
ffe2
0228
fed4
fed7
feeb
fe2e
fee4
ff0e
ff8b
fe8f
ffc7
ffdb
016b
0063
00df
ffed
00d9
0007
0029
ffe7
fef8
0186
ff51
00bb
01b8
0095
0172
fe32
fe7f
ff71
ff42
00e5
ff42
fd75
fe61
0089
fee7
00f8
ffaa
feb6
0155
01ff
fe1d
0122
feec
ffdb
ff94
000b
ffb7
fe9a
febb
019e
fe4a
0201
fff0
016a
00b5
fe81
ffd5
ffae
ffa0
0037
01ab
00af
00b5
01b4
ffbd
002f
01b0
ff7c
ff97
fe5a
0046
fe65
ff14
0005
fea8
016c
002f
fed5
0298
feaf
ff5a
0099
ffd7
0165
0012
01e0
01bf
018c
0027
ff2c
004a
01ea
017c
fd40
fff4
0274
ff51
00cc
0323
001f
004b
01ac
ff62
0063
023b
01b1
fe77
004c
014e
0059
fe02
00e5
0234
ffb5
ffb3
fe26
0107
fe9a
ff3f
fdf5
0089
ff53
ff62
00de
00b8
ff93
00d9
ff6b
fdca
ff01
00b7
ff66
fdb8
019e
0128
ffec
ff99
00a6
ff90
ffe5
002c
ffc1
0114
01fd
fe73
fdc0
fd47
fecc
0181
00bd
fe2f
00b2
ff92
fedd
fdf4
ff77
fe53
fe2a
00a9
00af
0108
fe44
01c8
0196
ff47
fd7c
ffb2
0010
ff74
00aa
012c
ff7f
ff82
ff10
ff5a
fe1b
0196
018c
ff8d
ff20
0183
0189
ff78
0126
00e0
ff00
01b6
fe36
003c
ffcc
fe20
012f
0138
fe84
0176
ff73
ff0f
fffd
ffad
016a
ff35
fffe
fe64
00c7
fe81
004a
ffd9
feb3
ff79
018a
0159
018b
0069
fe69
001a
ff14
0194
00b1
008f
fe81
ffe9
ff49
007d
0129
0149
fe0e
00c8
febe
019e
005d
00f1
00e2
fe42
fefd
017e
fee0
fd90
003a
0085
000b
ffd2
fda6
0118
009d
0109
ffda
fefd
01f4
002c
fe8a
0021
ffc4
0155
016a
00eb
01c6
0015
ffad
fed7
fe5e
ff71
0167
011c
01ad
fe8e
00b1
005f
0125
fe27
00ea
00fd
00f1
fee1
fff5
ff9b
ff28
fe54
004b
0169
0087
ff67
fe4d
016f
0195
0071
01f0
ff47
fef0
ff0b
fffc
002d
00eb
00e4
fef0
00bb
ffb8
fff4
007b
ffd4
0123
ff36
ffc3
0042
00d4
ff61
ff20
013a
0048
ff9c
ff48
ff66
ff6d
014f
0131
0102
0143
00e0
00ca
fee7
ff79
0158
00b9
002a
00f3
00bc
ffed
feea
ff95
0011
00d9
00c3
ffea
feb2
0165
ff12
fedc
012d
fe45
feb5
00f0
00ed
ff38
fe7b
fef9
fef0
00e3
00de
ff39
006c
001b
0120
0141
ff1c
ff41
00af
fe5c
004a
fdfa
fffc
011d
013e
ff41
fea8
fe55
fe70
fea6
0185
ff75
ff83
fe15
ff7d
fe66
013e
0149
000c
ff85
00a5
ff1e
ffa0
fe9e
0023
01ba
0168
0008
00cb
fec4
00b0
fe35
ff12
ffe6
01ba
feab
ffbc
fe74
0089
0015
0254
ff5c
fe8b
00d9
00bb
0054
fe1f
0107
0149
00cc
0015
018e
0038
ff23
fe35
006b
fd8f
fec5
fd4d
0086
fe8d
ff41
ff3b
00bd
01ed
01d4
ff88
010c
009b
ff7a
0155
fe84
0021
fda2
00a4
ffd5
001f
0192
01d5
ffb6
00fa
fdfa
fec5
020c
00e3
fe45
fe02
00de
ff8e
fd60
ff25
ff3e
ff13
ff66
ff5f
0014
0058
0286
0063
01fb
ff84
fef6
ff07
fed6
00be
ff35
001d
feda
012f
011c
000e
0065
0029
ff48
0106
024c
fe12
fdf9
ffe5
0089
00c2
010b
0039
002b
ffb3
ff99
ff93
00a9
00b3
ff82
fe2b
00b7
ff10
00d3
00ed
ffd3
fe36
0047
ff10
00de
018a
002f
014f
fec6
ffd8
0076
ff5c
00c3
fed4
ff65
ff10
00c9
fec8
003d
01a6
fead
fe9b
ff6c
017d
0092
ff12
0129
fed5
0038
fefd
008f
ffd7
016b
fe85
002a
013f
0080
fead
0038
00f5
0072
00a7
00f3
fefd
00b1
fecd
ff00
0169
0100
010d
ffd1
0204
016e
023d
ff58
012a
007f
00b9
fde4
ff4a
fe63
fdfe
feba
004b
ff83
ffd8
0285
ff36
00b2
ff02
fe32
ff3e
ff26
fec5
00b1
02b6
0224
025d
fdf6
fee4
00ba
ff02
ffa9
fe2e
ffe9
fe70
feb9
007d
ff7c
ff94
0193
fff3
fedf
00c0
ff25
00c9
00ea
015a
ffbe
01a0
ff2b
fd63
00e4
001f
ff02
ff14
fe8d
00f7
feff
ff53
00aa
ffad
fed4
fe9a
ff03
019a
0166
ff15
00f5
fe3e
0102
fd7c
0088
0157
ffc7
fecc
fe43
0034
fe13
00c9
fe58
00fa
ffe3
ff01
0051
00b1
0049
02b6
fe00
0022
ff30
00a2
ffc4
00b9
0117
0202
018b
00cc
fe0a
ff53
016c
0044
0174
0113
ff14
0092
fef4
00b4
0108
018a
0098
fed5
024b
0083
0249
012b
0264
fe4b
0046
ff29
ff1c
001a
ff38
fe7b
ffe6
fef0
ff90
fe82
0145
ffb2
00c4
0097
ff86
0107
01f5
008c
fe5b
feef
007a
0141
fe4c
01ed
0062
004b
018b
ff4a
0060
0116
ffaa
000c
ff1f
018b
0109
00c9
ff25
014b
ff99
ff44
0076
ffd4
ff04
ff2a
00cd
0042
0188
0092
0083
ff2b
fee0
0104
fedf
0000
0023
ff10
0182
00ef
00c4
018a
00f0
ffb4
ff64
007e
0045
ff33
fe90
ff0a
fff8
01f5
ffb0
fd76
fe31
0063
01ad
0217
fe9e
0164
01a0
00b1
0107
0057
00da
fe43
0120
fe54
0081
ff22
fdc1
00d9
005c
00f3
fefa
fec6
fe4c
fe10
fef0
ff5d
0016
01c5
ffb1
0012
0161
00ae
0039
01d9
009a
ff80
0035
013d
00f6
fe42
fea2
0133
0168
0035
019c
fdde
ffea
00f8
021a
fea1
ffe8
0276
ff14
ffc1
0189
00a4
ff8c
00ea
00ed
fea4
0086
003a
fea1
fe6e
0061
001e
fe52
ffba
019b
ff6d
01d1
ffe7
fe6f
00f2
ff01
ffbb
00c9
012e
fecc
fff4
019c
ff24
ffeb
fea4
0136
003c
ffd1
0071
012c
0098
00c3
0066
fe01
ffdb
017a
ffc8
00a5
ff73
fe77
ff23
feb2
ff9a
0057
0090
ff45
00d4
0108
ff5b
0012
01b9
ff14
ff14
019d
00b0
00db
00a8
019f
0145
ff94
fe88
006c
0132
ff37
fe2d
0167
01f3
fff3
fec9
ff72
0060
ff5a
ff3b
ff64
00da
fff8
fe1b
fe88
ffc0
004f
ffc7
ff11
ffca
00c0
00f2
0153
ffba
ffa1
00b0
00ee
0030
00b2
007c
00fd
fe67
0029
01db
ff1b
004a
feeb
012a
00ad
fec8
ff8a
fe33
00c8
fde7
fe1e
fee1
00a4
ff9c
fefa
0000
0129
00ee
0073
ffce
0115
019f
00e4
ff23
0043
ffaf
0044
ffab
fe04
006e
013f
ff9e
00d8
fe47
ff75
009f
0125
fe61
fec9
fff0
ff86
017b
ff6e
fe39
fe87
fe54
fed1
fed3
015f
feef
0172
00f6
000e
00c0
00be
0124
ffb3
ff0e
ff3e
008f
01a1
ff85
000e
00b0
fe4f
0131
ffa0
0073
00c9
00d5
ff84
fe5c
fee7
ffd5
0186
00fe
ff05
feb6
ff43
ff83
ff03
ff81
ffcf
00be
fe7a
ffb2
0050
0103
ff4c
017e
00f5
ff63
feb3
01dc
ff35
00e0
00c8
00a2
0056
feed
ff2b
ff9e
0246
017a
0235
0126
00c7
0298
ff55
fd2a
01d7
017c
fd96
fe8b
fe07
fecb
0074
00e2
0010
ff32
fec4
fe03
00d0
0188
009a
fd9f
01e5
fe8c
fff9
007e
ff1c
00a1
fe79
ffb4
01af
ff79
00fd
0126
0080
ffed
008a
011b
01ad
fe71
ff8e
ff4f
00c7
fece
009e
0177
0017
0046
01df
ff77
fe3b
0144
fd7b
ff8e
ffae
fe32
0166
0127
ff7e
00ed
fe68
fefd
fd71
0039
0264
ff34
027e
ff83
00b7
ff25
fd57
0135
0095
ffaa
feb3
0172
fe32
0181
0007
ff81
ffde
00a1
0109
feeb
0011
fe92
0066
0149
ff5c
ff45
ff97
002a
0004
015f
011a
019f
ffe1
ff91
00a6
012e
00bd
fe55
00aa
fea7
ff1e
fef8
01da
fe69
fe6b
fea3
00e7
0196
00e2
0006
008e
004f
fee6
0142
00ea
0113
fec8
0139
ff51
01eb
fd9d
fd23
fe80
ff4d
0179
fd9f
fdb0
01e8
ffd0
ffb4
0051
0211
fe0e
019c
020b
ff6a
fe70
ffe8
0171
0066
018b
ffb4
fd7e
018f
0134
010d
021d
0074
0071
00ac
ff59
0030
021a
00e8
00f2
0164
ffc7
0108
fe23
00f1
fdc3
febe
fff8
00f3
0139
ffee
ffde
009a
ff99
022c
ff07
0129
00b8
fe6c
0038
001b
01e5
00a6
017a
fee5
ff58
020b
013f
00fc
00d5
00c5
00ff
00c2
fe7f
fe6c
01af
013a
fe04
fe9e
020c
0162
fec9
fda8
0052
ff21
01d9
fff1
fe41
ffd9
0184
ffca
00b2
fe2f
000d
0000
0163
0092
ff21
00d0
0168
fe40
0069
fe7d
0117
016a
fdff
000b
fe8c
007d
0091
0169
0036
013b
feec
00eb
0133
ff0f
00d6
fe9b
fff2
0059
fde0
007e
0008
ff42
fed8
fe67
00a9
fe44
0007
0153
ff6d
ffac
ffaa
0139
00a8
0038
ffda
001f
0053
00e7
0028
fffd
0085
ff11
0152
0185
0029
013b
0167
004f
00c6
0137
ffff
0105
ff15
ffd7
014c
ff48
ffec
ffb0
00c0
ff24
00e6
ffd5
ffdc
ffbb
00fc
ff0f
00de
01ab
fee5
ff7e
fec3
fece
00dd
011a
0060
0002
013e
0092
ff74
00c1
0031
0007
0087
0173
ff82
ff21
ff8b
0110
fe32
0122
000f
fed4
0087
ff63
fee8
0207
ffbc
fea6
0168
01e9
ff91
0129
006a
ff39
0128
01d4
ff1f
fed6
ffe2
fe77
ff07
00d9
fe0a
006f
00eb
ff37
ffc4
ff36
fec8
0092
009e
0141
0072
005a
fe89
022f
0149
fe66
008b
ff9b
fefa
ff0c
00c0
ffef
0040
fedf
fea2
012d
017f
fea1
ff6d
0030
ffd7
fea9
fe06
ff42
000f
01a8
ff40
ffa9
fff8
00b0
ff3f
ff45
01a1
ff3a
0143
0068
00b3
ff5c
ff73
fdab
0298
0048
ffdf
0228
01ce
ff92
0150
0065
01f4
00c6
fff1
ff75
015d
0096
feb0
01b3
0014
00c9
01bd
fe44
00ea
ffb3
fd77
0138
fe97
012b
00ec
01e1
ff79
003f
feee
feba
0130
fe96
feca
00cc
00c0
0006
fdbd
feae
0219
00db
fde7
005b
00a7
001b
ffac
fede
00ac
00b0
febb
ff59
fe1a
fff5
0051
fedb
024a
ffe0
fef2
ffc5
01f8
0159
00fe
fe85
00de
01cf
006a
ff5e
febf
ff58
0070
0033
ff6a
006f
01e0
01fd
0068
0132
00f7
feb9
01fd
fedc
ffe7
ff68
0013
ff3e
0011
fefc
01c6
01d2
ffa0
ffdf
0025
0143
fe39
01de
ff62
febc
fe15
fe63
0126
fe50
ffa1
feca
fff3
0025
0074
ffa1
ff21
ff6b
016b
fe82
ffb2
fe90
fe54
0029
ff14
fe8a
0221
0098
006f
ffd7
ff78
024d
02db
00a6
0190
0111
ffd6
018a
0035
ff4c
fe43
fe46
fe56
ff02
fe4a
005f
ff54
fe9e
ffe4
fff1
00e3
fee7
feda
002f
fda4
0082
00b4
00e1
0033
00eb
005b
ffee
00fd
01bd
00c9
00fa
fdc7
fef2
ff2c
00ae
005b
fe16
0163
00e8
018c
0157
0056
0212
ffee
007f
ff48
febe
0052
ff41
ff3c
ff2f
00db
fe90
febf
0207
febc
01f6
0227
ff22
ffb7
0078
ff5b
feb0
00c3
ffcf
018b
0047
0025
00cd
ff42
0127
0170
007d
feff
fe70
ffee
00fa
008b
01ac
0064
fea0
feca
fe57
00fc
0146
007a
fff5
0019
00c9
00bd
fe3c
ffbf
003b
ff21
fe70
ff9c
01ba
ff0d
ff00
0147
00dc
00f6
fff3
0132
0258
0091
0024
ff57
ff96
ffb5
0031
0043
00b2
ffeb
ff9c
00a5
ff77
fffa
01eb
ff1e
019b
0157
fef8
fea7
ff1b
fff5
ff7d
fe77
ffef
fdf4
fec8
0111
0188
fd85
00ab
0090
fedd
0085
0080
00f4
fe8b
00ec
fea5
00e3
fe93
fec9
ff56
003f
00a8
ff88
00f5
ff8c
003e
ffe7
ff3f
ff5a
ff53
01d4
00eb
0040
fe61
01f4
0176
00eb
0038
ffdb
ffe7
0164
fedf
ff27
00db
0055
fe3e
ff95
fdf1
00d7
002d
004e
000d
ff58
0163
0030
00e7
00f9
ff1e
ff83
00da
0006
001b
fef5
fdfe
0199
00b0
fe37
ff19
016e
002a
00b6
fe12
ff2a
ff75
0128
ffa0
011d
0001
fe44
0087
0121
0026
0125
0163
fe54
fff7
ffaa
ff08
0039
0117
002e
0030
ffed
ffac
fed7
fe78
febb
00a9
0121
002c
ff40
ff27
fe86
ff23
fe6e
ff8d
ff07
0187
fe1d
0186
ffd8
000b
0120
fedf
020a
017f
fefd
0018
00cc
0029
ff4f
0172
0106
ff64
