009c
ffa4
ffb6
ff43
004a
ff85
fee1
0183
0155
0135
02a8
013c
ff69
0179
0072
0030
00ea
fe7b
fe4f
0182
0033
00c7
010d
00c0
00ac
0067
ff7a
ff43
0143
012c
ff86
ffb2
ff9d
01a7
ffc3
011a
ff88
ffe7
007d
fec1
00b0
fe4d
01ad
ff8b
0081
ff6b
ff89
ffbd
ff01
ffed
0188
012c
002e
fe27
0080
0052
0018
ff1e
ff61
00eb
ff34
fffe
ffef
fe85
fff5
fe95
fef3
0029
0097
01e0
ffbb
ff1d
ff80
ffc4
ffc3
ff26
00b4
00f0
fddc
fed2
0095
ff14
003b
01bf
ffe0
ff87
010c
0097
0099
00b2
ffba
00c0
001a
0101
ffb2
fe0d
00ce
ff17
fed3
ffa7
ffa0
fef0
00ff
fef3
00cd
ff4e
002f
000e
010b
ffac
fe89
ff10
fe84
009d
0177
fefc
0003
ffd3
0042
fefe
000b
ff89
005d
0014
ffcf
0008
00bd
00af
023c
ff13
007f
ff16
00b7
fefe
0185
0068
00bb
0030
ff4a
ffc7
ff9b
ff50
00f5
fe74
feb1
0143
0228
00cd
00db
ff21
02ec
0145
00fc
0089
ffe3
ffba
fe58
0128
00d4
ffe4
0006
01a9
0169
ffb1
fed0
ffe4
0106
015d
ffd9
0099
010d
0053
ffc7
000f
ff6b
00a6
ff10
00e6
00a0
ffbd
0274
ffcc
fe77
0109
00ad
ffa6
003d
001a
0111
ffe3
0130
ff73
fefa
ff48
ffb0
013c
0176
010a
ff0d
fe2a
0055
0012
0095
0101
ff7e
001c
fff1
016d
ffdc
fff2
ff97
ff22
ff93
0008
ff4d
0098
fe6b
001b
0031
fec5
00e2
ffa1
00ad
ff39
fee5
ffbd
ff29
0043
ff4d
ff4f
ff31
fdd4
ffaa
00a6
008f
00c6
0024
0177
ff94
ff3f
ffbd
01f2
ff08
011f
0008
01b4
00e9
0181
ff87
ff54
ffc3
ffd7
ff22
00e9
ffd9
001c
00a6
00a6
0150
ffcc
0002
0073
010d
ff46
ffb6
004a
00e6
011f
fe11
00ba
0001
000a
0064
fee9
ff80
ff62
0029
feb5
0000
01fd
0028
ffce
ffca
008a
fff9
ff94
ff50
ffce
ff57
ffb5
0233
00c1
009a
fe45
feea
ff39
0053
00f1
ffe1
00fd
0086
01ac
ffd1
ff74
fe06
ffb3
0162
00e5
fe62
ffaf
fed5
00ac
ff9e
0092
000d
01d4
ff8a
0017
0008
fd60
ffc3
003e
feac
fe8a
ff36
003c
0085
ff5b
ff68
feab
ffcd
00ab
006b
ff38
fe2b
0059
0105
ff3f
01bc
ffe3
00c4
0085
fe92
003a
ff26
ffa2
ff6e
0095
00e8
0194
0025
fef0
ff26
ff6c
0123
fedd
00e8
ff90
00c4
fecc
0141
ff2b
01cb
ffd8
fff2
000e
ff20
0191
fff1
0008
0075
012b
fece
01c0
fe70
fce4
fdd0
fee6
fdb7
013b
0073
ff2d
ffc1
ffde
0070
00e6
ffeb
00d9
01b5
019d
0066
0227
fef3
ffb3
feef
003f
ff6c
0114
00f4
01c7
004e
ff59
fffe
ff00
00f5
ffe2
0071
0075
ff81
0173
ffb5
00b2
0066
0170
fe94
0162
ffd9
fff9
00dc
ff36
ff5e
fe88
feee
ff29
012a
0050
ffad
fef8
00ac
0090
00b2
fe9f
ff28
ff76
fe6e
00f8
ffd3
0158
ff77
016b
0023
006a
0016
ffbf
0096
ff86
fed6
0132
ff42
fe97
ffe6
00bb
004e
0048
feb3
ff92
ffa8
0041
febe
003c
00c4
feaa
008b
ff31
fedc
00e4
fe47
ffb0
006a
008a
ffbc
008b
005c
ffb7
00c3
ffbb
0036
ff8a
fed0
ff6f
0071
fe51
ff0e
febd
ffb2
0109
00ec
0067
ff67
ff6f
0174
fec9
016a
fefe
ffdd
fef7
00ba
fe7e
0103
ffb7
ffe0
ff08
fef7
00fc
fff5
00a8
00bb
fe4b
021b
ffc5
00ae
0013
ff11
fe36
0177
0150
fe96
003e
0051
0120
0033
ff9f
ffaa
fe61
00f0
ffce
0051
ff9c
fe86
008b
0134
0114
ff52
ff4a
ff2f
fe19
0187
001e
ffe2
031b
00b0
01e5
fe1b
014e
0212
ff6b
0014
ff32
0279
ff69
00e3
0085
0000
0126
fe16
ffaf
fe6b
ffc0
fe90
0197
0044
fed6
010e
ff9e
017c
01cf
fec4
ff5f
00f4
0113
01a1
ffc0
0092
013d
005a
017e
fd07
ffe1
ff5f
00a5
fdd1
fdc5
000e
fe87
ffe9
ffd9
fcf0
febc
016d
fff2
ff6a
febe
ff2d
00f8
0066
feea
013c
ffaf
010e
ff67
0201
00ee
00ef
ff57
ffb9
0008
00ca
ff87
0090
00b3
014b
0136
ff1d
00a8
01e2
ff41
00f9
fe7f
010d
00db
ff9f
fe22
ff88
00d6
fedb
ff89
0009
0156
ff17
ffd1
0046
0010
0057
fee6
ff66
005f
007e
0047
00c9
0150
feda
0086
0058
ff0b
01c4
ff43
fea2
fecb
ffa8
ff92
ff11
ffb8
008a
ff7e
0033
ff86
ffd6
ff0c
0146
00ac
ffe8
ffab
ff63
fe59
00e7
ff8b
00e8
0046
ffd0
006e
001b
ff04
ffb7
fe76
ff75
ffed
007a
ff51
ffa9
00e4
0013
ff6a
004b
0034
ffe9
0014
fdb8
00eb
ffc6
ffa1
0130
0051
ff9b
ff46
ffcb
ffa3
006d
0089
00ec
0182
00e8
ff27
000f
0049
01a4
fec2
004a
feba
004e
0159
feb3
0091
ff12
ff3c
014e
ffa5
fffc
011a
012a
014b
feb0
fffc
003f
ff4f
ffd5
0102
0097
ffca
fed8
ff20
ff3c
00d2
ff7d
017d
003b
fefc
007c
008c
008a
006c
00d6
fff7
00aa
fffa
ffd4
fe60
0009
fefe
fed0
0012
ff43
0194
ff27
ffa9
ff41
004c
0083
ff8c
01da
00e5
fff4
001f
00e6
fec1
feb3
004a
0031
00de
013e
004f
fff7
00ae
00eb
fe7a
ffee
fefa
00ad
0041
01ec
0012
ff68
01bf
011b
ff2f
0115
0091
001d
ff80
00b9
00e3
00c3
004a
0167
0099
00d0
fe93
fe5f
fe1e
00ca
ffc3
0045
fe46
ffe0
fdd8
00dc
ffee
ff7d
fefe
011d
fe64
0021
00c2
ffad
ff6c
fe87
fefc
011a
fed5
000b
006c
0112
ff11
fe2e
febb
ff60
fef8
00be
013c
feb8
00eb
00f1
0053
ffe7
014d
ff42
018e
0200
0016
feff
0113
ff30
ffe8
fed1
ffd0
fe91
fe60
ff93
ff34
ff5d
ff31
0010
012c
0185
00f7
00a5
002a
fee9
00ec
ffd6
00a1
01e5
ff67
0005
00dc
ffa4
0103
ff6e
001e
ffe7
0127
0104
ff1c
02d6
fff0
015e
00aa
fef2
00a9
0146
fea1
010c
0021
00dd
fede
ffb0
feac
fea0
001e
025a
003f
0075
0009
0056
feff
ff3a
ff44
fee5
ff18
fecd
0052
fe72
ff74
004a
0080
00ad
005f
0061
ffd8
fe7a
0129
00be
ff72
ffe5
0006
0043
fe97
fffb
00c7
ff01
fe81
0080
004d
015d
00d9
007d
0118
ff17
ffe9
fe75
0016
ff1a
0004
0034
0126
ffa3
0275
fec6
fe83
ff17
ffab
0076
0116
0176
ff21
ffb1
fe7e
0103
006e
010d
001a
fe4d
ffad
fead
fff0
006a
ff7f
0015
00fc
feb4
ff0d
01aa
fe8a
0078
000c
009a
00b9
ffa6
00aa
ffbf
001b
ff57
fecf
0043
ff8c
0162
0048
00ae
009f
01a7
00aa
008e
ffbe
00b3
ff5d
0069
00ae
0163
fe79
ff21
014f
ff33
0179
004a
ff2a
0072
0006
0030
01ab
007c
00a8
00a3
0023
0191
ffc2
0020
ff01
fec3
00d0
fecb
0080
0165
ffc2
fdc5
ff77
ffc4
0001
00bf
0032
fec6
ffee
0117
fef1
ff26
ff69
01d1
0124
ff68
012d
00c0
001a
0120
0168
feed
0090
fee2
0098
001f
ff41
fedf
006c
00aa
00e9
ffd7
009b
ff82
ff2d
0017
01e5
ff72
00d4
fe30
0034
ff66
ff22
003d
fdfe
0002
ff5b
ff42
00c8
feb5
0039
00cf
007a
ff0e
005c
0222
010a
feaf
ff25
00ac
ff30
ff53
ffd1
ff44
00a5
ff66
ffae
011b
006f
0099
ffb6
ffae
00e8
fe87
00c9
0217
fff0
fee0
002d
000c
fef0
ffb4
fed7
0150
ff1d
00a7
fff3
00ad
012a
0059
001c
fe02
ffad
ff4f
0014
ff7b
ffb4
0052
01c6
fe6a
ff98
014a
ff72
0121
ffd4
00b0
0168
0073
013b
ff9c
ffcb
ff62
015a
ff03
fe7d
ff76
ff58
00e5
00f2
ffac
0131
0128
ff40
00df
fe7e
fea3
ff7b
fe56
020c
0004
016b
fea5
0079
fff0
0169
ff22
ffa1
fe87
00c8
ffe7
0036
00e8
fe69
fed0
fd60
017c
0001
0078
0235
0019
ff0d
01da
008e
fec6
fffc
0008
011f
feac
ffe6
fef2
00ff
fffe
ff77
0015
0156
ff68
006f
ff59
ff84
0187
0032
0054
fecb
010d
0125
007c
ffab
feed
01fa
0187
003f
0067
00a9
ff47
007f
0004
0148
01b7
ff09
fe19
00e1
feb0
0106
0032
fe72
019e
feb3
00d2
00db
fe81
fea5
0135
ff5c
ffe9
fe9d
00f4
0056
00b1
00d9
fe3f
01af
009f
0012
fe6f
0043
ff85
fefa
0037
ff4c
016a
fdf3
0042
0021
fed6
ffa1
fe0f
0008
009d
00b4
00d9
ff85
00c6
ff5f
ff91
fedc
014c
fd54
ffc6
ffc9
011b
ffd8
ffd4
0151
0039
ff01
ff1d
fec2
00a7
00f7
0027
0095
ff6b
0091
0165
ff96
0067
006b
0012
018c
0058
011b
004a
ff6a
0070
0020
ff76
00c1
0035
0056
fe20
ff9b
007a
0172
fdc0
fefa
fef6
ffff
0090
0073
ff5e
fff2
fef9
fefa
ff01
feea
0189
ff95
0027
ff4e
0134
0057
00a7
013b
006e
00f5
0064
00ea
009b
000b
0136
ffc3
ff13
ffdc
ff48
ff11
ff6b
0028
ff14
010d
0117
0091
00f8
005c
ffbd
0097
000c
0072
fe4b
feed
0139
001e
fe7d
ffb3
ff87
ffaa
00f3
00d5
ff78
ffb3
ffb4
00a5
000b
fe9f
0077
0007
0078
00c8
017c
0087
00b5
0084
01d5
00e3
00d1
ff73
01db
0205
00f4
0097
ff95
01c8
fe72
ff78
00af
00ab
0125
ffa8
018e
fee1
ff86
fe5f
fea4
ffb0
ff3f
00c8
018c
ff43
fe86
007e
ff66
0040
fe92
0140
ffb1
fe7d
fe18
ffc8
ffe0
0064
0009
011b
00b0
ff5f
fec6
0043
ff9c
ffef
0103
0155
008a
fef8
fea1
fef5
fecd
ffb7
0024
002e
013d
008a
ff63
00f5
ff3e
feab
ff85
014a
ff93
0027
006c
ff76
0140
ffd4
ff58
0033
ff75
003c
0128
003c
ffa5
fe9d
00cb
004b
ffe9
003f
0155
ff0c
ffc0
feb8
fea3
fe9f
007c
010a
fedf
00ca
008f
008a
feb3
001b
fefb
fe51
00fb
fec1
ff07
fe13
fe0e
011d
ff84
008d
017a
0055
ff7a
fe68
017b
ff72
0067
00d5
00fc
ff0b
005f
ffcc
fffd
feeb
0075
ffe1
009b
0017
feb7
ff4e
ff9a
fe9f
0032
0042
fea5
ff0d
0025
007e
ff06
0043
011b
0104
02a2
fffd
ffde
fead
ff84
feb8
0019
0048
ffa4
ff1c
ff8a
00c1
ffda
014c
ff0a
0021
0114
0053
01b3
fe4e
003e
004e
00c5
017d
003f
0060
ff03
01cc
005b
0045
00e2
ff28
01e0
ffc1
0048
fec3
ff7f
fff8
fed1
fffc
0041
fe52
ffac
ff85
fed3
0023
fe9c
0141
fdfc
ff5b
fe2a
0068
fec1
fc6a
000e
0000
fdce
002f
ff17
ffda
fff1
ff90
ffb3
00f7
ffae
ff21
000e
fed8
0021
ff46
ffa7
ff71
ff50
005d
ffb8
0162
ff99
fd5d
0083
fe9d
0102
ff8e
fe63
fdbf
00f6
0096
00bb
008c
ff47
0191
0048
fe82
001b
00f7
fea4
fe5a
00a8
fffe
fe58
feb1
0132
0087
00db
ff8f
0120
ff71
00b5
0006
00b7
ff24
ff20
ff99
00f2
008d
ff99
001a
017a
ff81
ffa2
ffc7
ffd0
fe8e
ff5e
ff88
01b9
0007
0020
0002
0046
0014
ffa6
01e0
ff2b
ff80
ff82
ff89
fecd
ffa7
0101
014f
00ec
fffb
fe9d
ff57
fea4
ff29
0190
ff51
fffc
fe9e
ff23
003b
ff5b
ffd3
ffd5
ffa2
ff66
ff86
ffd8
fef2
00d2
ff80
ff7d
0079
0041
ffc1
ff66
fec4
0071
ffbd
007d
012f
ff46
028d
015c
fffa
ffb6
008c
00d9
ffc9
0185
fe7a
fefc
ff8f
fd73
0135
01ab
ffbe
ff86
011b
ff4b
ff9b
ffa5
ff93
008a
ffa4
ff63
008d
00a1
015f
ffe3
00f2
ff9d
ff3a
ff35
fed4
fe45
ffdb
ff34
0034
008a
00ba
fd7c
007e
ffa0
fee0
ff3b
ff58
fd37
ffb0
fefe
ff2d
0134
feb9
0107
01c8
01a7
00c6
ff7e
00f7
017d
fef2
00df
ffdc
0173
011f
ff7a
00cc
0191
004e
007a
ff50
002e
fedd
fe7f
fe9a
ff00
ff72
01c1
001c
019e
00e1
0134
0097
ffec
0030
0077
014c
01ce
0126
00a6
ff33
ffcd
ff86
00c0
015b
0071
01c0
ffaf
002b
012e
fe53
fed2
feb0
00e7
ff9b
ff23
ffab
005d
0147
feba
ff66
fe98
ff0d
fefb
00c3
ffee
00f0
0090
ff07
0079
fe91
ffcf
ff84
ffa4
00af
febd
feb8
ff31
fed5
00ae
ff22
0132
ff5a
004c
0091
010a
fdff
0100
005c
fffd
0004
ff51
ff58
01cd
0066
0226
ff72
ff32
ffb0
0115
ff69
fe35
ffe9
00c4
ffa6
002a
0069
020b
000f
000c
0041
0064
00c2
01a7
fdeb
ff78
0183
0042
00f2
0167
017d
ffaa
00a8
ff3a
005a
ffb7
ffd6
0032
001f
0081
fe93
001a
ff4a
00dc
005a
ffca
ff2d
011d
fdc5
008c
fe7f
febf
0169
02ec
011b
fff5
ffed
ff38
0134
002c
ff2d
ff5c
0103
00fd
ffcb
fe27
ff14
0071
ff5d
ff46
0024
ff92
ffc1
0076
fe49
0127
ffd4
fe82
01a9
feaa
fec2
009e
009a
011c
00ea
ff66
006a
009f
ff46
006f
00be
009c
ff5f
fff5
ffd3
0023
01c0
feea
ffa3
ff9c
01a9
0200
fea3
ff45
0072
00b0
ffa0
0043
ff78
011d
00c7
0117
0072
009d
00e9
010f
fed7
0165
feb4
0044
00f1
0027
ff6d
00d1
00d3
ffc9
ff24
008b
0115
000b
ff81
004a
fe3f
fdef
feae
ffa3
0108
0068
ff9f
ffe1
fee5
fee0
006a
009d
00fd
ffa2
fea1
012d
ffcb
0022
feb4
fee1
00cc
0174
fff6
fe6a
0049
0056
ff02
ffe6
feeb
fff2
fe7a
00e3
ff4d
ffed
0023
0022
0037
009c
0173
fff5
ffa3
00db
005c
ff84
0048
fea4
ff04
009b
014f
ffe3
ffc6
fe66
00c0
0076
0006
008c
007f
0186
013b
00a3
016c
fdfa
0138
01c0
00a9
0164
00fe
01e5
ff0c
006f
ff5b
ff18
ffc0
ff34
0078
ff5a
0145
0056
0150
fea4
ff9a
0149
0112
ffcc
ff49
00bd
0267
00e7
021e
0008
ff77
0017
00f6
00af
feda
ffee
00cf
ff9a
fec6
fefb
009e
ffac
ff04
00bc
00c0
fedf
000a
fe57
0028
ff4e
ff60
0069
003f
ffdb
fe3e
ffff
fed8
fee7
ff1f
ff70
fea7
ffbc
008b
0056
fe80
004b
003a
ff24
fea3
00da
00af
fecd
ff64
004f
ffd6
015c
fdbd
fe6c
ff94
004e
01af
0071
ffe5
008e
0170
001f
00b7
008f
ffbc
0076
ffd7
ffc5
ff00
0006
002f
0077
ff78
00f8
ffff
ff5c
012e
00cd
ff05
0162
00af
00e1
ff20
00bb
fe1c
00ae
017c
ffac
0168
0140
0034
0178
ff8a
ffe2
fe93
fea2
fe2c
00a2
0038
ff49
fff8
ff3f
00cd
feae
fed7
ff31
ff95
010e
ffcb
fd73
01be
0089
012f
ff16
0030
ff68
0038
fee0
00f7
018d
fead
ff1e
0006
00e2
ff90
000f
ff06
012f
ff5f
ff0d
ff97
ff9f
01d1
00ce
00c4
00e6
ff89
ff22
fe6f
0148
01a5
0040
003a
0050
ff66
ff46
00b0
ff3c
00d6
00be
0079
ffd5
008e
00d7
00cf
ff9a
0202
0078
008f
ff44
fff1
ffb3
fede
ff3c
0225
fee7
00f1
ffbc
014c
fefb
0024
002e
fffa
0074
ff93
ff47
0174
fe6a
0095
ffb5
0104
ff72
014b
0214
0010
ff9f
0170
ff39
0136
fef4
fef0
008c
00cf
0016
00bd
0010
009a
ff8d
ff1a
0120
0187
00bc
0040
00ea
0118
ffba
01ef
00fe
0118
febe
ff2b
ffd6
012f
0029
fed6
fe8f
ffa3
021f
ff2a
ff6e
febc
0163
002e
fe65
fff4
00e2
fec4
0001
ffeb
ffdf
009a
fed5
ff44
ffea
ff4a
01af
00d3
ffb4
ff36
0127
ff58
00ae
007e
013b
ffdd
006d
ff02
fef4
0054
ffad
003b
fec4
0026
ff38
fef4
0270
fe07
ffe0
ff55
00e9
ff0f
ffaa
007f
ffd2
ffb2
ffd2
ff0e
0135
0121
ffb7
00cd
009b
013d
fecc
0203
ff11
005a
fec7
fe83
00cf
ffa1
fd9e
014d
00d0
0105
00fb
fed3
ff69
009c
ff63
ffec
fe79
0099
0136
00ad
01db
0002
ff94
0245
0084
fea8
00c1
ff90
ffdf
004a
ff22
ffa0
fef5
0080
0050
fec8
004c
fe81
005d
ff1e
ffc3
00cc
ff89
0119
ff0b
ff6f
ffbc
0162
ff16
ffd9
0082
0078
ff30
0153
0095
ff49
fe8e
0068
0019
0168
fef2
ffb3
ff68
ff72
fe42
0080
0112
ff82
fe9c
fef8
00af
009a
ff42
fe59
ff36
ffdb
fe80
ff6d
0138
ffb9
0004
fe4c
0024
ff9e
0088
ff09
ff12
fe9e
fe65
ffe3
005a
00e8
01ab
0161
012a
fed1
004a
ff77
feb3
010c
ff0f
ff9b
ff9c
00ff
ff81
00a5
ff04
ff8b
018c
00c4
007c
010e
ff14
fec8
ffbd
002f
00cc
00ba
006a
ff52
fefb
fff0
ff2d
fe89
00cd
0014
feed
ffb4
015e
fdd2
fe61
0081
0022
0000
013c
ffaa
010b
ff88
fe47
00a8
ff35
0002
ff26
fe22
ff80
ff21
01b6
fead
00a5
014b
00d7
ff2d
ff63
fec1
01fd
0130
ff48
01cc
ffa6
0235
ff4e
fff0
00e4
febd
0096
ff41
002c
00c2
fe55
ff4e
004e
01e2
00d9
fe9d
0024
ffa4
00ee
ff7d
00ef
006b
0029
0062
fef1
00f0
ff46
0073
feb7
fe7f
0036
0075
018f
ffce
fde4
0056
00a9
0095
005b
003f
00b5
005e
ff66
fee5
fe4b
fe0d
0163
0024
0056
0175
00cc
00af
014b
0120
ffb0
ff7a
ffe5
fe09
ff75
fe91
fea3
fe85
0016
0044
fee5
002b
ff5f
ff49
ff2b
ffc3
ff7d
fed0
00bd
ffb4
ff9e
0169
0105
009c
0031
0018
ff05
ff93
ff5b
0019
00f4
fee7
00b7
013b
ff85
ffd0
fe4a
ff32
00fa
00e6
fe07
ffb9
00ba
ffdb
fee6
fdcc
0134
0199
ffb8
0112
ff14
00bb
00d0
ffc8
feb7
ff15
ffef
fee9
fe6e
ffeb
000c
00b0
ff27
ffa4
feab
001e
0192
fe90
00e2
0032
ffac
fdee
006c
02fd
0199
006b
0035
fe93
0114
fe55
ffc8
febe
ff62
012f
ff86
feea
ff8d
fe9e
0073
008e
01c4
0043
ff63
fece
feff
00ff
0073
0259
fe62
ff40
ffdc
ff4a
fee9
0098
ff58
01a5
0048
00a7
0026
ffb2
0107
00ae
ff5e
011d
ff7c
009a
004e
0084
00a9
0049
feea
ff05
016b
000c
0068
fe95
ffb7
0046
ff10
0050
fdbe
0198
fccd
00f5
00f7
ffd7
fe3f
00da
fd7c
fff1
fd1a
00bf
0168
0126
fe77
ffc4
feeb
ffae
fefe
0013
00be
0031
fde1
0134
fe6b
0122
fef2
fe6e
0064
fe8e
ffab
012a
fe88
0029
01f7
02db
0025
ffdb
fec0
015e
fd97
014b
fe4c
ff60
0003
008a
015f
0068
0079
ff0f
ff46
012b
00f7
ff96
fecd
0086
fe98
00cb
0031
0088
ff7b
ff1d
00af
0016
0077
ff8d
013a
ffbd
018f
0021
ffaf
ff65
ff95
fefa
fee9
0032
00ad
ffc2
fe81
0155
00a5
00f4
00cc
ff7c
fedc
fed5
002e
ff20
ffda
fe0f
007a
00f9
fe70
ff48
00a9
009c
ffe7
003c
00fe
fe8a
00de
016a
fe54
ffc7
0004
fe8b
00da
ff46
01b9
ffb6
ffca
0135
fffe
00d7
fe2d
00a6
017a
ff62
fee6
ffed
ffd2
fee7
ff7a
0210
ff55
ff10
0158
010d
0282
006c
ffd7
ff88
ffe3
ffef
ff97
fe74
fffb
01d1
ff8f
fe91
ff17
feb7
0072
ff0a
003b
ff4a
018d
feba
fea4
009c
ff92
00ba
ff9a
0084
fe4b
0044
fea7
0072
fec9
0012
0008
fe8d
fdd5
0025
026b
fe6f
001a
0073
009b
01a7
ff2c
00f5
feb0
ffac
0139
fe43
ff54
ff17
fe2e
fe74
0188
ff79
fff0
ffcc
ffb0
009a
0189
fff8
0144
ff90
003f
007f
00db
fea8
014a
0079
0099
0120
feb9
00e9
fed7
fe8c
ff21
00e9
fe71
fe8e
ffcc
fd97
ff12
fd9c
ff8e
ffc1
fef0
0163
01a6
01a9
00f6
ff4e
0093
014f
ffa1
0005
0060
ffad
fec1
fe7c
fdd0
fed0
fe35
fe88
008d
ff0c
ffbd
00e0
016f
fe35
00c5
ffdb
ff3d
00c6
0081
00c2
ff8c
001a
0002
ff3d
ff06
fe42
002e
0042
fedd
006c
00e1
ff77
fee7
febd
0008
0097
ff7b
0128
ff64
005e
009d
0000
0028
feda
ff9d
ff8f
00c6
006e
fffb
00ce
0016
0077
00f2
002a
ffd6
ff14
febb
fe96
feb3
01ce
ff38
010b
0068
ff86
ffe3
0038
ffbf
0073
ffc3
00f5
009f
fe42
ff0f
ffd8
01b4
00be
ffe4
fdcf
0166
008e
0110
fff0
ff93
ff60
003e
ff0f
ff6b
0076
0166
fffb
ff04
00bd
0048
0122
0052
ffda
0087
005b
0086
ffdc
0099
ff2d
ffbc
006c
ff99
feb4
01c2
ffdc
0012
fe6b
ff43
ff95
00ff
00a9
ff6d
00ac
005d
ff15
ff2f
00bd
fec2
fde7
ffeb
ff7f
0031
01b4
febf
0060
ff93
ff5d
fe46
ff41
ff9b
003c
00a1
ffdf
0005
fffe
013c
00f1
01bf
001d
0105
ff04
0076
0120
fe5f
ff5a
01e6
0063
fd50
00ce
ffc5
00fb
ff48
00fb
ff69
00e3
006e
feff
ff02
ffa5
ff7a
ffa8
ffec
ff6b
0244
014e
ff80
01b0
0109
006e
ff2f
00ba
ffac
ff19
012d
0152
0180
fedf
fe7d
0051
fe70
016b
fe8c
00fa
0092
0038
ff3f
ff1d
ff11
0119
fee6
feea
ff5d
ffa4
0179
0037
fe56
016a
02c2
00ab
0098
ffc2
ff4f
ff98
012c
0004
00d6
00ab
010a
ffbf
ff71
0349
ff1c
feb5
fd5b
0125
00e8
0020
ffdf
0022
007f
ff12
00c1
01cc
fe99
ffaa
ff30
0042
ff50
014d
01a2
ff78
0113
ff00
ff0a
0094
ff80
011f
fec8
fe6e
fec6
010a
fe3e
00ae
ff5a
ffbb
ffab
0053
001f
ffd9
ffc3
ff22
0169
01f6
0067
0068
ffa0
ff98
0103
ff93
0104
ffce
ff7a
ff5f
ffda
ff06
0226
ff13
0150
ffb8
ff11
fe96
0116
fdc9
01b9
0118
015b
0154
0113
ffba
0073
ff33
ffb4
ff50
fef6
ff75
00d5
ff9d
ffe8
002a
00e4
0063
fed1
018d
0124
0081
0131
ffb6
ff5e
021e
018c
00fc
fe01
00ce
0109
ff35
fff3
0085
ff49
000d
fe6d
fee6
ff2e
00fe
0063
0029
00f1
0074
00a6
007e
002c
ffb7
00ee
ff81
ff6d
014a
008d
002f
01a3
ffde
0040
0055
ffeb
ff47
ffe9
006c
fe16
fffa
000f
0031
fe59
00a6
ff28
00a0
ff8a
ff1d
0004
018d
0114
fe8f
fe82
feee
fffd
00d6
0009
fe7f
0010
ffbb
ff1a
0010
ffd5
feac
ffba
0055
00cd
000d
fea1
009a
ff5f
0097
ffe8
01a9
feaf
ff6c
ff73
00fd
0100
01a0
fe2e
0035
ff67
ff44
00a8
ff42
fef8
00a9
0103
00fd
ff87
0191
0003
ffca
ffce
00d2
00ac
ff70
0040
ff83
00fc
006f
00b6
0163
fe93
011d
ff61
fff9
0138
00f5
fead
009a
0168
fed4
ff79
ffcd
020f
ff05
ff40
0197
0221
0092
fdf0
ffc1
0174
fff3
ff7e
002e
002f
0144
ff3d
0189
fe99
fec6
ffe6
003c
ffd9
0088
ff81
ff8f
ff94
ffb2
ff17
ff83
0050
ff0e
ff4b
ff10
ffc5
ff58
00a4
0021
ffe0
ff1a
ff90
ff25
006a
fede
003d
ff01
ff89
0037
00a3
0050
ff2c
0111
01b2
0176
0005
012d
0191
ffdc
ff95
0035
0159
ff29
0072
ff88
ffa1
004c
ff1b
011e
ffba
00e0
ff0f
00f2
ff0e
0013
00a5
0022
ffcc
ff87
ff9c
005b
ff4c
00d5
007e
00bf
019c
0100
001b
00bb
00a7
0023
005b
0168
ff21
019f
0160
fffe
0290
fed3
ff25
022c
fff2
0101
0075
0091
fe59
00a3
0112
0056
014d
0070
ff54
ff47
007e
0100
ffcf
ff27
fdb8
0111
007a
0100
fe93
0005
ff13
fe29
00c0
ff87
0093
003c
0181
ffa8
0129
ff4e
ffe3
ffa9
ff58
fef8
008e
ff29
fed4
009b
fee7
014e
ff4d
00b5
ffe1
fff3
00b5
0097
016c
ffd5
ffc0
0101
0003
ff08
ffeb
feb4
ff54
fea7
0021
00a7
006d
0011
0031
ff53
fe67
00cb
ff41
012f
ff1f
0011
ffb3
0002
0137
ff80
ffb9
0071
ffc5
0092
0102
007f
fe67
0052
ff9f
00d2
00b7
0067
ffc3
ff77
0114
ff50
008f
fef0
ff91
00b2
00df
019b
ff9e
016b
ffed
007c
ff7a
00a9
005c
00cd
00ba
00a4
00aa
003f
0057
ff2a
ff20
ffa0
ffcd
feda
0122
fde2
fe98
0044
01d3
ffdf
feef
00d5
ff66
0085
febb
0026
fe0a
fe72
003e
00c6
fe7b
00d7
008f
fef1
fe60
0141
0055
fe89
ffbe
ff47
0094
00ae
ff99
ff16
ff49
fe9c
0090
007e
004b
00ed
0091
fe7a
0099
01b0
0233
0008
012d
ffb1
00f8
0190
0119
00b1
ffa8
0005
ff81
005f
012e
ffd9
ff95
0012
016b
fed4
0004
ffd1
01cd
0117
010a
fe38
0089
0214
0060
ff5d
fefa
fe8b
ff29
0053
ff8d
0149
00c0
ff30
ffad
ff17
ff05
003f
ff65
0104
fe70
ffe8
0128
0188
ff36
fe22
004b
ff72
feea
0191
0059
fe88
ffe5
ff3f
00b2
0018
01f9
ffdb
fea1
ffab
ff62
00ac
0101
005c
0057
ff72
0010
fe50
ffab
0145
feef
fd48
0042
00f5
0006
008b
014a
ff0a
00d0
fe74
fffb
ff29
0024
017b
fec0
ff33
ff47
00f3
fe97
ff7f
fedc
00f9
ff58
00e2
ffac
ffef
fe72
0128
0067
fe79
012b
ff1b
fdf7
00ae
0266
0035
003b
ff97
fe93
0032
ff33
ffd4
fefc
004a
ff9a
ffe1
ffae
00cf
ffb8
010f
000e
00a7
005d
fffa
0146
0012
0137
0082
00fb
0161
ffe0
0187
fec3
00e0
fe86
00a6
ff63
00f1
fe70
004b
ff9a
0075
004d
00d5
0029
ffb1
00af
0002
0100
00aa
fef2
feb5
ffd4
ffab
fe24
fefa
fef4
ffd9
009f
ffc8
00f5
000e
ffbf
ffb4
fefc
0067
0135
fdf4
fff8
ff91
008c
ff28
00df
ffc3
00d9
ff0c
01b9
ff7b
ff5a
0277
ffa1
ffa8
ff78
010c
01d4
ff52
0034
ff7c
0069
ff61
ff51
0092
fee2
01b9
fe90
ff50
0051
00f7
0073
00c2
0096
fec6
fec4
ffee
00bd
fdfc
fead
fed4
fe54
015f
011e
fe35
fff8
0190
005d
ff37
0042
ff5c
012a
ff84
0001
ff76
009c
01f0
ff66
ff75
fe97
ff55
0148
ffeb
0149
fe2a
ffd1
ff88
ffc0
003d
fffe
015d
fe76
005d
ff0a
ffb4
ff77
009d
0028
ff5d
016f
00e8
ff76
ffa5
fe26
009f
feeb
ffe5
018c
fe46
ff65
fef4
0091
005b
019b
ff60
018f
ff09
00bd
00a4
fd94
fedd
ffe8
0035
ffa6
00a1
00e5
fec0
0105
00db
00d1
fe8c
022f
fe89
fde6
ffb3
000e
ffff
0008
0111
009a
00b7
0119
0015
ff5f
019a
0062
fef0
01ae
0144
fec1
0031
00dc
fe30
ff9c
00cf
ff86
0087
01fc
007a
ff13
0007
0027
ff2b
00ef
00c4
005d
ff33
ffb5
ff2b
ff85
fe5d
ff92
018b
ff91
00c9
ffac
ffb9
ff82
00d4
0102
0074
0062
ffc8
01de
ff4a
013d
0057
0140
003a
014b
00c1
0141
0105
0014
0052
fef8
00a2
0369
00bc
fef7
fed5
001e
ffc8
0092
ff28
fe3d
0068
014d
fec2
0008
ff8b
0131
0191
004d
0008
ffbd
ff2e
01a4
0153
0060
0088
ff75
ff58
fff6
00e6
005b
0021
ff4a
0185
00d1
fe18
ff46
fee5
fdf5
ffa2
013d
00da
009b
0251
002f
ff32
ff5f
fe7f
ff55
010e
ff83
00c3
00ed
ff5d
ffa2
fee2
ffd1
0096
ffb4
ff3f
0077
004a
005b
000d
003f
ff6f
0141
ff30
ff49
0050
00a7
006b
007e
fd77
0049
00e0
ff88
0189
feb7
ff5d
ff6a
00d5
013f
01df
00c4
ffb5
008f
fec4
0138
0037
ff9e
0139
0041
ff06
0043
feed
0056
ffa9
00a6
00d0
002e
ff0f
ffc5
ffea
00b6
0100
00e4
ff53
00f6
01e9
ff2e
ff2b
fe68
fe56
ff28
00f9
fef8
003d
01f2
ff36
ff70
ff9c
01ac
ffed
fef4
ff3d
fe90
0207
0002
ffc0
ff08
00e1
ff21
fe5d
0136
005f
ff6b
0061
fe4d
ffc1
0024
01a8
015b
fea3
ff38
0137
01b2
003e
0046
ff78
ff95
0069
0065
fec0
0069
ff6e
ff75
ff3d
00ef
00c6
ff3f
0073
ffa1
00a3
00ab
0096
00ce
0180
ffb9
006b
ff9b
024b
002a
008b
ffb5
0110
ffcb
0076
fed8
00c2
00b1
0046
0158
0078
0130
00e6
ff25
fe82
ff73
00f6
fe19
ff85
0092
008e
febb
feca
00c8
ff74
0003
015b
fe7e
00e8
ff41
0072
fff2
003a
ff4c
014b
0173
0133
ff67
0029
0215
feec
00be
fed6
0161
fec8
ff16
0248
ffd9
ff21
011f
00e5
ff07
003c
003d
0163
0052
0053
ffd4
ff3d
00c5
00ed
0160
feb2
0101
ff79
fffd
0050
ff29
0048
013f
00b3
0062
ff53
ff7e
ffec
ff8e
01ef
0021
01c0
00ba
01b4
004a
0014
fd2d
feaf
001b
00af
001c
ffcd
ff46
0058
0082
000c
007d
ffe9
ff30
ff12
ff55
ff9c
ffa9
fde6
fe28
fff9
004f
ff0d
ff96
00af
0086
00f1
ff1f
fecf
0193
0117
ff25
ff5d
0139
fec0
00f4
ff31
ffe3
00c1
feb8
fd57
fe43
0006
fea8
feb7
010e
ff02
0162
0104
fe55
ffbc
fe75
004b
ffb5
0148
0078
ff69
0151
fe72
0045
000d
ff2b
0054
fde2
fffc
0156
008a
fffc
0131
0132
0147
017e
007a
ffdf
fefa
00fa
001d
ffbe
014b
0106
01aa
003c
0068
ff6b
0177
0112
fe9d
ffe2
fec2
0042
0014
ff8a
ffdf
ffc9
0041
ffa1
0063
00b0
0030
0128
0034
00ba
0110
ffc0
0092
0085
002b
ffac
fff1
fee1
01a7
fedc
0086
018e
0216
feaf
01da
01e3
0198
01ac
0040
ffd7
fe4c
0052
fe58
fed6
fe54
0127
021a
ffe1
ff2a
0096
ff37
00b7
00ff
0151
0137
01d2
fe8f
00f5
ff22
fe85
ff47
010e
fea2
fedb
0034
fe87
00e9
0053
ffe2
ff79
ff4a
0085
fffe
0128
ff41
fea1
010e
fffb
ff40
00fb
015e
00f8
fffd
00d8
fe95
fe3d
ff23
ffed
00eb
0187
00f1
011d
01d9
0210
ffb8
ff17
ffa4
01bd
010b
ff9c
fe73
ffdc
0096
fe6a
00c7
fe79
ffaa
00d9
fee3
feb1
ff48
01a9
0132
fe8b
005a
fed6
ff5e
fdd9
ff90
fea0
026b
fec4
ff8d
01d9
fd64
ff83
01af
0148
0099
fffa
fe94
ffd9
006b
0127
ff70
ff97
feca
00e8
fe88
00de
ff37
001c
014e
019b
fe1d
ff14
0023
ffd4
012a
0130
00ad
fef3
00ed
0140
ff4d
fff0
0107
008c
00c9
ff5c
ff93
ffa7
0143
fe08
0067
014c
ff51
fee5
003a
fe0f
016c
ffd9
0069
ff6e
fe8a
00f6
020c
00bf
fecb
ff57
0012
0037
ff62
0138
ffe7
0088
ff4b
ff63
00b7
ff4e
ff40
0182
ff92
ff6f
ff53
00c3
005f
fe74
0027
01fb
005b
ff2a
000e
0096
fefa
ffb9
ffea
001e
ffe6
ffb0
fdbf
0024
fe66
0145
ff7e
0061
ff94
ff39
00af
fe9d
ff34
feb2
fe89
00a9
ff43
ff57
0118
ff28
ff0d
fe72
fe67
ffb9
0067
ff28
ff61
0196
0056
fecb
fec4
012f
ff02
005a
00ce
00fd
ff57
004c
007c
ffa0
01e3
ffad
0112
00d6
0136
006f
ff5d
01e5
01ec
ff8d
00a2
015f
fef1
005f
fe58
ff7c
ffc0
0139
0089
ffcc
fde3
0022
0096
00dc
00c8
fe96
0084
013a
ffc9
005b
fff2
0068
fedd
fe77
0131
00f7
0172
0094
ffa8
0104
0186
000d
ffaa
fedb
0008
ff6b
01bb
fee0
ffff
fe7c
016c
0096
ff9c
ff36
00b7
fe27
008e
00e0
ff9a
00ba
ffa2
ffd9
fee3
fecd
ffaf
ffed
ff4c
ffe0
ff7a
feaa
001d
00a0
00bb
0035
0102
ff3d
001e
fed9
ff11
005d
011d
00e6
00f3
00b5
fe88
0079
ff5f
0021
0012
00c4
0064
fecf
fdcb
fec7
009a
0001
015e
0163
0071
0029
003a
0092
ff52
006f
01a1
fefe
00e0
005a
ffef
007f
ffd4
0116
ffba
0029
0138
0053
01cb
00b6
fffb
ffd9
ffd2
0149
ff56
ff56
0085
00cf
018a
fedc
01b3
fe49
01bf
fe85
ffaa
012c
feef
013b
00c0
fef3
ffad
ff4f
fedc
0053
0044
0194
ffc8
0247
0105
ffae
feed
00a6
ff84
0007
01c7
fffb
ff4c
ff49
01c1
feed
ff01
ffc3
00cc
ff68
ff3e
00dd
fee3
0174
feae
ff95
fed2
feda
ff67
00a0
ff39
00dc
fecf
004e
01d8
01d6
fecc
ff4f
01e4
ffc5
0010
014d
0102
0161
0042
ff4c
ff09
ffe6
00aa
fd79
ffd8
ffd8
fdfd
ffb7
0101
ff27
fee5
002c
fe15
009b
006a
ff1f
00a6
0179
0028
ff23
018e
01d9
0088
fdf2
0004
00c2
fee8
0276
00cf
00d5
0071
ffae
0123
ffc8
fefe
00b4
fe2a
0066
fe28
ff4d
ffc4
0127
ffba
0080
fe2a
00ad
fde1
ff40
fc91
0056
01a5
ffef
0058
0187
004e
009b
ff64
01e5
0178
0085
fe59
0125
018f
ff08
00ee
00ca
ffe6
fda9
00bf
0126
ffee
016a
ffec
ff06
feda
00b2
0065
fffb
ff31
fec6
ff43
0233
ff80
ff5f
0004
ff9a
0094
01a0
005b
0181
fd96
00ea
fea2
fed8
0136
0051
fef4
005c
ff63
00e8
001d
ff30
ff13
0027
ffc0
0025
ffc2
005b
fef9
ffbf
0156
012c
ff2f
ffd7
ff69
00f3
ff93
00e8
fea3
00a6
0040
0033
0151
0018
007b
ff69
ff2b
0167
ffc3
00d5
00d4
0215
fdf1
ff3b
fee5
ffd5
ffac
ffd6
fe9d
ff4f
ffd0
0170
ff6e
002d
0117
ff49
015b
ff74
005d
ff9e
0008
0130
01f2
ffff
00e2
004d
0143
0037
feba
0156
0156
0002
ff9a
0082
00ba
01bb
007a
ff96
0119
ff2e
fecf
01b9
00b6
fe37
ffaf
fec8
0081
0067
0073
fe92
0022
001e
0198
0031
0118
fedf
006c
feb8
fe80
ffd4
003e
ff84
fea2
00ed
003f
ffa8
0049
ff74
ff5a
fff2
0029
00d7
fe69
fe50
ff6f
0011
01b0
ffd9
008e
ffd8
0072
ff3b
ffbb
005f
fe53
00dc
0213
00fd
ff92
0130
fe10
fedd
01c1
fe8c
fefe
febb
fe97
00e6
0172
ffbd
005a
0101
009f
fff3
ff08
fffd
0127
009e
019a
fe78
00bd
ff77
01d4
ff37
ffe7
ffb4
ff46
ff6c
0077
ff39
0027
ff0d
fcf6
ffff
00ff
ff42
ff07
ff10
ffb9
ffdb
fed9
0058
00fc
fd93
ff7f
0017
014d
0103
ffe6
ff35
ffff
013a
ff30
fe75
fef2
0070
0122
ff48
ff24
0054
000c
ffea
ff3c
00ac
0076
ffc6
0130
ffcb
ffce
003f
fee1
ffdc
0088
00c6
00df
ffa2
ffd3
ff0b
00ae
fe45
fef1
0209
fe42
ffbe
0061
014c
fe5a
fe33
ff31
00ee
012c
0177
ff30
ff79
0032
ffc6
00c4
0092
ff10
ffe9
00d3
ff52
008e
fecf
00b8
ffcf
ff20
fff2
004e
ff08
0043
fede
fde0
0146
01b2
00a9
01e1
0128
00ce
ff53
ff40
ff17
0128
0007
fe71
01f5
ffd7
fdf4
0042
00bd
ff0a
010a
ff55
ff42
fecf
fe10
fefa
012b
0132
00a6
0046
0068
00cb
01e0
00fe
009e
ff18
0137
fe8f
fde5
000a
00e6
fe29
0021
0053
feea
fff6
0017
ffdf
ff9b
002b
fee6
002d
009f
00db
fed1
01d1
fff6
fe9b
00a5
ff03
fed3
ff60
0027
fe4b
014f
fffc
fd7b
00b4
0059
0166
0094
ff2d
ffc3
00b2
004c
005b
fece
fff3
ff78
ffac
0097
fea9
ff8e
00de
0195
013f
ffe7
0024
0086
004b
00a0
00a2
feab
ff02
006e
ffa0
0019
ff7c
004e
0119
002e
009b
01c7
fed5
00d6
feaa
00f8
fee2
ff09
fe4e
fe2f
018c
0193
015d
00e3
fff9
0266
0162
ff38
ffa2
003c
fea8
ff68
fef2
0051
0045
0048
014e
00d8
00c5
0054
ff5e
ff35
0081
ffe4
012a
003c
00b7
0078
ff40
ffb5
00bb
ff99
0167
fe50
012f
feec
ff1c
ffa5
00a1
0071
02f2
fef0
00c5
0000
01c3
ff53
ff36
0144
01cb
01b6
fece
ff7b
0046
ff90
ff0a
ff12
0065
ffeb
0099
005b
0128
fff8
ffcf
fe61
fffe
ff5e
0090
ff62
fe1a
0181
ffa4
ff49
ff22
00e0
fff3
00ca
ff85
01c7
0077
ff49
fe21
ff38
009b
ff85
ff46
00ef
00fc
00ac
ff4f
ff26
014a
fe65
fe00
013b
018b
fe8d
01b8
ff8a
fe88
0074
00fb
00fe
ff5b
012d
fe9e
fff4
007c
0067
006d
004e
006c
fffc
00ca
ffa5
0072
ffd2
00c0
00c8
ff36
ffb3
ff4c
ff7c
014b
fe1a
00cb
fff1
01bc
0109
012b
fe64
ffa8
ff37
00fd
0021
0000
ffba
fecc
fed8
0075
ff66
ffe2
ff32
ff74
0136
ff2e
fe40
fece
fef8
0157
ff2d
006d
0042
feb6
0112
ffda
0150
0015
0099
fed7
0176
ff3d
ff0c
ff58
007a
0118
00f9
ff24
00e9
0097
fff4
ffa7
ff64
0048
fff1
002d
0081
ffbd
00ae
008f
feac
00d8
009e
01ad
fdb4
fee0
ff0c
fffb
ff67
004b
008f
ffe7
feb5
ffe4
027a
ff89
fe60
ff3a
0076
ff1b
00f4
ff59
0125
0040
000a
00e8
0257
ff69
003f
021c
0082
ff5d
01d4
00c4
00a6
0144
ff8c
0028
014b
fe9a
ff99
fee5
0111
00dc
fff8
0045
00fc
fdcc
fff6
ff45
01c0
ff1f
ff85
fe84
0072
ff03
00a5
ff74
0178
fef4
ff48
0158
0214
00cc
ff4b
00d3
005d
00e8
003a
ffc7
fef7
ff5f
ff1e
0077
00ce
fea6
fec6
00a8
ff9d
fde6
017f
fe9b
001c
0124
0077
ff44
ff61
00c5
0197
ff02
ffd8
0062
007e
ff1f
ff97
0046
ff28
0031
ff6d
0136
0128
0007
00f5
ff0a
00c3
00cb
0034
00a7
00bf
ff41
015c
01c6
fedf
ff55
feae
fec6
016c
ff17
01d3
0090
0196
ffd9
fff0
fe72
fe7f
0099
0000
fec3
ffa5
0067
0193
0107
fffb
ff6a
ffed
ff09
fec8
ffdb
ff00
fec0
00cd
ff2d
ff09
ff37
fffb
ffce
fee6
feba
ffcc
00f7
0010
ffe4
fe74
fe7b
ff7f
fe41
fe0d
0148
016e
013d
017c
009f
024a
0076
ff46
ff72
ff72
0007
ff46
006e
018b
fee3
0031
fff9
0010
0138
00cd
0064
ff79
0090
fef4
004f
ffb6
0020
001d
ffff
ff5b
ff89
00c9
fed3
002c
004f
fe52
00ef
009a
feb6
00d4
0149
fe4e
ff71
0078
ff9e
000c
0019
ffe6
fea1
fdef
ff04
fe67
0069
feda
0101
fee0
018d
fef0
ff81
ff58
016c
fee0
ffb5
003e
fe52
ff11
0135
fe27
0051
fe92
005d
ff58
fe48
0125
001d
fee6
00b5
fff0
ff10
ff91
ff71
febe
ff29
006c
00c3
009f
00b8
ff32
ff6f
0128
fdc5
0066
fee5
0063
00aa
ff12
0086
0024
0048
0067
005f
ff92
008b
004b
ff11
0112
ff7d
0015
00fb
ff56
0240
ff0c
ff41
fd91
fe6c
007e
010a
012a
fef7
0076
fde5
00a5
ffdb
0163
ff4a
ff87
015b
0121
0097
ff7c
feb4
ffd0
0106
009f
003d
00b9
00c7
ff24
fe5c
fe9e
00f9
0137
007d
0082
005c
0121
ffaa
ff40
ffc9
007a
fed0
fea2
ff81
0143
fef8
01e8
0124
fe6a
ff1c
009e
00cb
ff23
fddb
01d6
00a6
0009
ff87
00be
feba
fecb
ffc2
feef
ff8e
009f
ff57
ffd5
ff9e
0157
ff41
0175
010b
fe8a
ffb2
fec3
01a5
0135
ffc3
00b6
00d4
ffc6
ff0e
fe6c
ff29
ffe7
fff6
feed
00c9
0188
ffd1
0277
ffe4
ffc4
0081
01d6
ff77
fea8
fe99
0104
008d
01c7
ffab
ff5c
feab
0116
00ae
ff1c
fdda
0033
ff56
ff95
ffb8
ffc6
fe5e
ff1a
ffb7
0027
0031
004a
00f4
ffdb
006e
014d
fff7
0173
fe66
001d
feef
ffa7
ff58
0175
00f9
ff85
ff52
006c
0138
000b
ff46
ff36
ff6c
ff44
ff0b
fff9
00cd
0099
ff0c
0000
fe74
0099
ff39
ff97
0197
ff74
02b8
019a
ff52
ffe5
006d
000f
fe37
0020
0046
ffb3
003f
ffd4
ffc7
ff37
ffff
ff82
0062
ffb2
ff37
fe1d
ff38
fe50
0019
ff62
fec5
fec1
009b
00ea
0007
008e
0074
feee
0127
ff44
0094
00f5
00a2
0076
fee2
fee5
00a8
015f
0001
013d
006c
fe8e
004e
ff59
fe9b
ff50
ff41
0148
ffc5
ff42
002d
feef
011c
fff8
00a3
0042
00f1
ffbc
0034
ff15
003a
0119
00c0
002f
01a0
01f4
fe6b
fe5e
01ae
fec1
ff56
ff72
00cc
00fe
0291
001b
ffff
fe68
ff18
ffa7
0085
0106
017a
0005
ffaa
014c
00ba
fe70
010b
ff01
ffc1
020d
fec6
ff9f
001e
ffae
014b
ff38
fec9
0038
fed3
010b
00ad
feb2
ffbd
ffef
0097
00ed
0028
ff7e
fe98
ffab
ffd4
ffbc
fe6b
010e
0152
0006
0020
ffc8
ff95
fff0
004a
ff7a
ffc2
ff84
01af
ffb1
fd35
0036
0018
0203
ff0c
00b2
002d
00d6
fe9d
01ea
00bc
0188
fedb
0000
0048
004c
006f
ff5c
0056
ffc6
007e
ff00
ff35
ff83
ff01
012b
ff1c
0175
ff7b
005d
00d5
ff36
016e
ff70
ff4f
ff0b
fff1
0114
ff99
ffaa
fece
006b
0072
011a
fea8
0125
fdbd
fea4
002b
0091
011c
ffbd
001f
0169
017c
fdfd
ffc1
01e5
0137
fee0
fffa
0179
ff2f
ff99
001d
ff84
007e
ff88
ffcd
0035
0110
ff36
ff2b
01b4
00c1
ff83
00f7
ff16
0122
0120
fe8e
0008
00c9
fe99
ff05
01d1
ff9f
0159
01ce
fee5
0167
ffb7
009d
0090
0275
0056
0158
0132
ff22
ff34
ff32
ffc3
fe89
ffb5
ff7d
0168
fdc3
0075
00f7
ff89
ffe4
021e
ff79
0158
ff49
ffe5
fe22
00a8
00d3
fe18
fe3a
ff7a
ff48
fe42
fecd
ff38
013d
0196
0137
00f4
0100
fe55
ff79
ff80
ffdb
ffe0
0190
ff57
fe37
fd5c
fe0f
ff3f
00bc
fe0f
00aa
ff9c
006c
ff83
fe81
feac
fe80
008a
002b
0065
fe56
fedc
ff7b
ff4e
015c
0035
01a5
fffa
fff8
ff10
015e
000a
0061
0040
0147
0118
ffc4
febe
fffd
ffcc
ff77
fe12
00c9
fe25
ffe8
ffc8
0070
ff80
00c1
ffb0
fe39
0140
0172
005a
fe62
fe97
0009
00de
ffd4
ff43
ff6a
ffb8
ff83
0093
004c
ff22
ff67
feee
ff69
002a
0089
ff90
ff74
006e
fe9f
0080
ffad
ffe4
00e3
00d9
ff3b
0197
ff97
0083
ff69
0173
002f
011c
00d5
ff62
ffe8
fe3a
fec8
017b
ff43
0180
00fa
ffbd
fee3
ff54
ff28
0029
003e
0034
ffb0
ffa0
ff6d
002b
ff0d
fffb
00ac
0002
0148
ffdd
fe8e
feec
012d
ffbc
ffe4
fe7c
ffdc
ffda
fe55
ff5b
fefa
000d
fee4
ffe8
0058
fe9a
ffcd
fed4
ffe7
ffea
0029
011f
ff7a
ffad
ff43
0169
ff29
0048
ff73
00b3
0034
010f
019c
0162
005f
005f
012f
013c
ffba
ff48
ffd0
ff08
fef6
fe64
022c
012a
00c8
fe85
0065
0019
ffd7
ff78
00e9
00ba
ff80
005e
fede
ffd6
ff0f
0137
0186
0179
01af
fef5
ff6e
007d
ff00
fff7
017d
ff5f
ff74
ffba
0190
0151
ffa0
0009
fead
ff8f
fedb
0231
ff7a
014d
fdfa
fffe
ff5a
004a
ff69
00ec
009a
0026
014f
0270
0179
feb9
0284
007d
0230
0073
ff7f
001c
ffdc
00f2
ffe7
ff8c
fe68
fe68
0104
ffc2
00f9
0197
ffc2
007c
ff6c
010e
0008
0084
ff87
ff9e
fe9a
fd92
00dc
ff8b
fe49
00bd
0014
0095
fefe
0050
0069
0032
0067
ffd8
0025
017a
feea
feea
fe25
0074
feac
fe3d
006c
0059
fecd
ff21
ff97
0040
fe2b
fffb
ffa5
0152
010f
fe4a
ffdd
fe9a
0097
fdc0
ff91
ff7e
0057
0112
fef7
013e
ffb9
0197
013e
fed4
001c
ff49
fe4d
003d
00ba
00a0
01a4
001b
00cb
005d
fff6
ff3c
ff97
fec5
0022
fe4c
00b4
ff2e
0019
013d
fff3
ffd0
fe99
0176
00ac
00d8
000c
0008
0123
0062
0072
0009
fe8e
000e
0096
ff9a
0054
fe81
ff1d
00b8
feb1
ff44
fed8
0008
ffb7
01fe
ff39
ffeb
fede
ffba
0161
00e8
0042
00ea
ffef
fe0c
00cc
00a9
ff20
01dd
ffc7
ff57
01d5
018e
003d
001d
ff9b
015b
00dd
00ba
fee2
fffb
00d6
ff81
005a
ff9e
ffab
ffb7
0044
0165
0156
fec0
fec4
0144
ffc5
0003
0067
ffdd
0036
ff39
0026
fff1
0035
0038
ff57
001a
016b
0045
007f
00f2
ff14
00eb
0172
ffae
01ae
0066
0073
ff88
ff44
008d
00e9
ff44
001e
ff4f
0044
ffdd
ff85
ffc3
0023
0032
0061
001c
00a2
ff85
ff61
ffd1
0072
006f
ffae
00de
0012
fe6f
013e
ff8c
ff96
ff3e
ff4a
ff0c
ff94
0038
fff3
01dc
ff55
fda2
ff62
0169
00fc
0126
0048
ff47
ff33
ff1c
ff70
ffbb
00cf
fdd9
ffb6
ffaf
0089
fef9
ff63
fe34
ffe6
fea1
ff65
ffde
ff69
ff9f
022e
ffd4
feb8
ff77
fe64
0043
0105
018c
ffb1
0084
ff97
ff29
ff28
004c
014b
fe50
fe37
ff9d
ff99
fef5
fe82
fea6
0109
0150
00a9
ff0b
febb
ffa4
01c0
ffac
fee9
fee7
ffad
fee0
ffd0
015d
feb5
01d0
0128
ff90
0040
ffe7
ff3c
009f
ff0e
fe67
fe8d
fef3
feec
fecb
ff62
0063
ff20
0172
0025
0103
fe64
017c
01e7
01c0
002b
0015
ffab
ff86
ff55
fe69
ffea
0162
00c8
003b
fe7e
fed4
ff97
ff44
ff1e
ffb9
ffd5
0007
ff5a
0093
0124
ff6b
ff4c
ffbc
ffbe
ff48
00ad
fe74
004a
ffe2
00dc
fe33
fffe
fdd2
0180
ff71
ff5e
fde7
002d
fe42
0098
ff1d
00b4
ffb1
fecf
ff23
ff65
feae
010f
0004
ff30
ffa7
00d2
ff3a
0123
fede
ffbb
0163
ffe3
0005
01e8
00b1
ff94
ffba
fed2
ff33
018f
fe4f
fec6
fe2e
ff2a
fe40
0005
ff03
ffd6
00a9
ff80
ff35
005b
0091
ff7f
01a4
0009
fed6
014b
00fb
fffc
0069
ffe7
ff27
fecd
0117
00bf
00b0
0029
0068
fe77
ff3e
0097
ff6d
fe0a
00bc
fe3f
0087
0008
00ec
ff9a
00b1
fe94
0036
ff69
fec6
fff7
ffd9
fe7a
ff23
ff16
ff45
ff7e
013b
ff0e
feeb
ff98
00e2
ff63
ff20
fe01
ff3f
fe24
fe6a
0157
fffa
ffe7
0008
00ce
0106
fec6
002b
fdc0
febd
0017
ffe7
fe5b
fe7d
00de
ff40
ffad
0003
ffa7
0178
000d
fed0
0157
0030
00ac
ffc8
feaf
006a
017b
006d
ff6a
015a
0132
ffc7
00bc
009a
0005
000a
0000
0007
fef2
010c
011b
019b
0023
ff41
0171
026e
ff12
fee6
00c3
ff2d
fede
01ef
0212
ffa3
00da
ffce
00c7
019f
0069
00f8
0029
fed6
fdd5
fefe
00c4
0100
ff45
fe8d
0002
0125
0062
fe6e
005f
01b9
008e
0029
0214
0020
ffaa
ff9c
0103
fecb
0073
0043
fee3
0246
fe74
0087
ffb8
0016
fe77
00fc
019e
0143
0012
0028
fe5a
fef3
ffa3
fe9c
fe48
002d
fe96
fef7
ff7a
fd18
00f7
00f8
fef1
0138
fe26
fe67
ff6c
ff43
00ae
fee7
0042
019d
ff01
01d7
00c1
01ed
ffa1
ff5c
015f
004d
0027
feba
004b
0082
0057
ff37
ff7d
00e6
ff80
fedf
01b6
00d0
ff9f
ff50
fe50
ff54
feaa
0093
ffaa
01a3
0029
0037
0089
005c
fdeb
0114
fdea
0100
002d
0184
0156
fde0
00b5
0132
ff4c
0064
ff39
007c
ff20
ffb0
fed7
01a2
0138
0019
fea0
ff1a
ff83
ff95
0007
0127
ff80
ffce
ffcb
0017
fde1
fff3
fe61
ff7a
00b4
0075
01be
01a2
feae
0147
002c
ffad
ffd0
0115
ffd5
fea6
0016
0128
ff7d
ff87
009e
0010
000a
ffa6
ffec
0125
ff7e
000f
001f
0066
ffa8
ffd3
0084
00c0
0158
ffd5
fe36
feaf
00e8
ff03
ffb2
fe09
01ca
00bd
fffa
ff50
ff4f
ff2b
fe3e
00af
00b8
00fe
0001
fee6
fee4
025a
ffd5
000d
00e0
003e
0003
0019
00d5
01a1
00e5
0146
ffee
fe9c
fec0
00aa
00f4
fffe
ff35
0053
ff1f
0058
ff4f
ff34
0067
ff7f
ff17
ff37
fe85
ff65
0181
002f
0162
ff82
fe9a
0054
0079
fe47
ffeb
00d2
ff41
0161
fefa
01c7
001b
fedd
013e
ff04
fe66
ffcb
ffd5
0010
ff1c
00d9
fed5
014a
ffed
fe28
003c
ff42
fe9c
0063
fea8
0055
004a
ff88
0016
0050
0168
ff47
00b9
002e
ff30
006b
ff87
ff4d
fd16
fe9b
000f
0057
0019
0166
0111
00d2
fee0
ffb9
0020
0066
fefa
00c0
ff2f
0106
ff2a
ffbb
00e4
fe9b
fedc
ff21
fffc
ff10
025c
01d2
ff96
feb9
0043
fdc3
0012
fd80
fdad
fef6
ffd4
0011
0056
0079
ff12
ff80
0127
ff62
0048
009e
003b
ffd8
fe81
000a
feb9
ffee
ff54
0159
001a
0045
0129
003c
005e
fe34
0160
fd27
0113
00e7
0092
0049
fefb
008d
ff93
0010
fed0
fed2
00c5
ffe6
0177
ff74
ffd4
ff7d
ff8b
ff93
fe93
001d
fe89
fe7e
0009
feb5
0101
ffd9
ffae
0000
ff09
0124
0153
0152
fee8
ff64
ff90
016c
0042
003b
01a0
0088
ff21
fff2
ffe0
0033
0132
003a
01ba
00f3
0088
fea6
ffef
ff61
ff9a
0177
00e0
0105
ffd7
fee0
0079
006c
013b
00ce
009a
fea8
02f7
ffe2
feb3
ff37
0274
ffd2
0076
0055
ff83
fec7
001c
ffef
00ce
00ad
0045
0083
fedb
01de
0122
ffca
ff7e
00d2
0080
0000
fe69
fe18
0121
0015
ffc3
00cc
003d
ffbc
ff14
ff80
ff16
00ad
ffae
ff09
ffb4
01b4
ff57
ff95
00ac
001b
0105
ff79
00e4
ff51
fe69
fecc
00cb
0014
00d0
feb8
00b6
003a
00f0
0095
00c6
fe35
0102
ff89
fe25
ffa0
0053
ff1c
ff89
0092
01ab
0091
0082
ff93
fdf1
fdda
ffb6
0010
003e
fff2
ffd1
ffdc
009a
0135
0019
0030
ffda
0079
01b1
0060
00f1
00aa
006b
0218
018f
003f
002e
ff51
01ad
00ae
ffc2
ffa2
016a
015b
0180
0029
fee9
0088
fec8
fe75
fec6
017b
0160
0031
003a
0181
ffc2
00b3
01a9
0108
ffbd
ff31
0043
00a6
00d3
feed
ffd1
ff29
fec7
00fb
fe82
00c8
ff38
ff9a
0113
ff8a
0077
00cd
fe36
fe66
0151
00af
ff03
ffbd
ff19
fe92
014d
fed8
010e
003f
0143
ffd8
ff22
0006
0112
0031
fff6
0082
0053
0089
00cc
0051
000c
0142
01ba
fe2c
fed5
004b
0033
002d
0006
009a
0012
005d
feda
0066
0070
015f
feed
fe88
007f
0231
0170
01b5
0028
0173
ff18
ff10
00f5
01d7
ffc9
fe79
fd73
0065
ff4a
ffd4
0146
0147
0043
ff69
fdbe
ffcd
00b4
0009
fd15
fea1
ff60
ff78
ff17
fe51
0058
fdc5
0115
ff1e
00a1
ff2d
0158
ffc8
fed9
008e
0006
0188
ffa9
00a7
0036
009a
ff4c
ff68
ff7b
0107
ffbf
ffce
0082
0029
ff1d
004c
fe6f
0107
0115
ff0b
fffa
0098
ff37
ffe9
00f5
fed1
fec9
ffb8
011d
ff4a
007d
0065
ff58
fe5e
ff20
ffa6
0003
015d
ffa5
0030
0102
fee2
ffae
ff04
0050
007b
012b
fe5f
fffd
fee3
ff2e
ffff
ffe1
fef3
ff82
ffce
fff9
ff54
ffa6
fec5
ff18
ff43
ff80
ff90
0083
006c
019c
0015
0030
fef0
003a
008e
0073
ffc1
ffec
ff32
fe58
00f5
ffcc
fcf8
001e
fec7
ffb3
0026
014f
fe9e
00ee
ff6c
0033
015e
fe2f
017e
ff46
008a
0122
fece
0183
ffff
ff6f
001f
ffef
0030
00ab
ff92
ff41
ff5d
ffc8
feee
0086
00fd
ffb4
0090
0073
feb5
ffab
ffb6
fe5e
0085
ff29
ff01
ff72
0047
00bb
ff35
fec5
006b
ffee
ff56
ff67
0033
00d9
01c2
febd
fe9f
0014
003f
ff71
ff11
fef1
00a9
fe9a
fec5
00dd
fe2f
ffee
0018
0127
fffc
001e
ff9a
fe7f
00a6
0050
00e5
ff61
00d5
01c2
012c
011e
0119
00ee
00e4
ff10
0002
0111
0090
013b
0139
0059
fe87
00fa
009d
0103
010c
fe5b
0015
ff85
ff45
ff08
001d
004e
0116
ff9d
ff67
ffff
0170
fef0
feee
ff96
ffe6
0021
001a
01cc
00c3
ff0b
0106
004c
ff52
006b
ffd4
0034
fe85
ffac
015f
ff94
0178
0110
0036
00c5
00aa
01d8
00af
002d
0108
feca
002b
ffb7
ff07
fecf
0161
fec3
ff35
0040
ffd3
fffb
001f
000a
015d
ffed
0096
0095
0046
fe67
fe56
008e
0056
005c
ff87
ffab
ff0e
0001
ffa5
0075
0108
001a
fefe
fe8a
0066
0094
0043
001b
004b
ff97
ff08
ffd9
00f7
ff41
0111
ffaf
0176
ffb0
ff9b
00bd
ffcb
00fb
00f8
01bf
feab
012e
00af
fe88
ffed
00ee
ff8c
0137
ffa2
ff46
015d
ff1c
fe25
ff00
fff9
ff5a
ffb4
ff30
0162
00db
001b
00fc
fe90
ffde
fe47
0157
012b
ff4f
013e
fecf
0191
01a9
00f4
00f9
fece
00a9
00f3
ffbb
fec5
0243
ff31
0112
01da
002b
ffb3
ffd6
ff18
ff3a
00f6
ff82
ff3e
00c0
ff77
010b
00a3
ff77
0043
ff98
0001
ffc1
019f
ffc9
0035
00ef
009f
fe61
ff43
0181
0026
004e
ff3f
0081
ff22
ffe1
fe44
fefc
003b
0001
0182
01e7
0025
fe62
ff9a
0072
ffa1
ff08
002d
001d
015b
0063
ff4c
008c
ffd3
fefd
00d4
010e
017f
ff84
ff2c
fe25
0038
ff05
007e
00a2
fe85
ff8e
0004
ff5c
fe6e
0097
ffc5
ff9a
ff76
ff7a
018c
00a9
00c3
0116
ff8a
fe8a
0070
fed9
0037
022d
0081
0046
00c8
0115
ff7e
007c
fe80
fe59
ff20
0164
0106
004f
00e6
006b
00d9
015d
ff22
0091
ff34
ffe2
000b
01e7
00f5
fe45
012b
00af
ffba
fefa
0122
0235
0023
ff9b
ffa9
00d1
0128
ff99
00c7
ffa7
fe8c
ffea
00e4
fed9
020d
0063
fe89
ffc4
0115
006b
ff47
005f
fe4c
ffc7
ff91
0086
feff
0144
00c3
ffb6
fe1c
008d
00bb
0047
feb1
ffe3
ff3f
00bb
0075
00e0
0098
fe9f
00b7
0096
00ef
ff35
fe3d
ff64
ffe4
ff56
00a9
fe47
0015
fe72
0044
ff96
010a
fe8c
0135
0109
008f
ff8d
ff4e
ff20
001a
00d0
ff5a
000a
00c9
ff6c
00a5
fe65
009c
fe8e
00dd
017c
fe99
00be
00cd
ffdf
00c1
0142
fe4d
ffee
fd30
fdad
00bd
006d
0118
fe9b
00d5
fe4a
ff1e
0064
0082
ff84
0088
fdf0
fe92
003c
fe74
0069
0095
ff0a
00e2
01ef
0008
0193
014f
ffc1
00e2
ff7e
ff2d
ff12
0069
ff9f
0087
ffb3
002f
fff8
fe10
ff17
011b
0057
008f
0011
0147
0091
0060
0116
0120
fefe
003d
00c1
0124
ffc7
ff06
0039
fe2f
015f
0241
ff0f
ff97
ffcb
ff46
feca
00be
007e
ff90
00f0
feca
ff47
0130
006f
ffa6
0115
020d
fe6d
ffbc
ffeb
fffa
0005
002b
010b
fe60
00fc
ffb6
0098
0002
feb5
ffc0
fe85
0062
ffaa
feb9
00c4
0077
ffb7
0028
005f
00e6
fe6b
009c
ff6b
0086
0110
ff40
ffef
000e
0155
ff72
0040
007c
01c6
0041
fe35
00fd
00cb
ff4c
005e
ffd8
ffce
005c
00d2
ffee
009d
005e
0027
fe6a
0032
010a
00a0
0071
0180
0061
0001
00a9
ff41
fee0
0219
ff7e
ffdf
021b
00ce
019d
013f
fe5d
00b2
ffd0
005f
ffa6
00c9
fe0f
ff6d
ff68
001d
ffd3
fee0
0170
00ec
00f4
fee8
ff4c
ff98
ffb6
00c1
0137
0176
00c5
fe03
003f
fefe
fe39
0155
01bb
0068
ff88
febb
ff93
ff35
ff2a
00fe
016f
ff66
007b
0037
ff18
01ca
00c9
ff6c
fff6
fe5d
ff55
002c
fe6e
fe8e
000a
0097
fec8
ffa1
002c
014b
015d
0252
ff4c
ffd6
ffa4
fee7
00fc
0046
00b8
001b
0117
00ac
0092
fea3
0097
fdc5
00a0
ffe3
012c
00a1
00e5
0043
0044
ff96
010e
0189
004d
ff9f
0079
ffea
0124
0178
ffc5
ff2d
fe4d
fe85
ffde
00da
007b
ff56
01cc
005b
fec8
ff86
ff19
025a
ff02
ffb2
0053
00ad
ffa9
ff19
ff8f
0080
ffd5
fef0
00f1
001c
fe69
013b
fecf
ff5e
fea3
00ae
ffea
0148
002a
ff72
fe87
00dd
fe42
014c
0102
00e2
ff03
ffcd
006c
fe54
ffb4
0132
ff97
001e
016e
ffbf
00be
00f4
0108
ff04
0163
0143
0100
017f
ff2a
0057
01ab
ff29
ff75
010a
ffef
feef
ff7b
022e
00fd
0015
0033
0128
0134
00f3
fec3
ff8a
ff91
ffbb
ffbf
0131
febb
ffcc
ff55
fe73
00f2
ff65
00ea
ff55
fda3
0047
ffea
00b9
00b2
fe25
0020
feb4
0009
00d1
ff96
ff3f
fede
00f7
ff44
ff4d
0197
009a
ff24
017a
0057
ffed
ffdb
ff96
016c
ff34
01ab
ff53
0126
ff70
fe9d
ff52
ff93
ff19
0111
ff65
0027
0112
fed2
fef5
007c
ff0b
0081
0086
0017
fe14
ff73
ff92
006e
015a
0006
ffd2
000a
0164
00f8
fed0
0049
ff20
fe90
0106
fe68
00f0
00ea
0023
fe90
007f
ff5c
0017
004a
00b5
00ec
0161
ffba
00d1
ffbc
ff46
feb6
fed4
feaa
0225
0094
0112
fecc
00c0
019c
ff54
fd48
007d
ff98
ffe5
ffc1
ffa2
ff8e
0030
01b4
ffad
0208
0001
003d
0097
fe61
003f
fe9a
01dc
fed8
ff69
0037
0013
0268
fffc
fe64
ff94
ff04
ff48
ff14
01d0
0089
fed1
ff3d
00cb
ff3d
0122
0045
ff01
0027
008e
fe76
0031
ffa2
ff6e
