0a63
0bc3
fd32
f3ad
f6d8
0f10
0dad
f5a8
f950
07f7
0d1a
faa2
06c1
f991
1147
fffe
0494
f614
fc07
1342
0b70
fa41
f3f3
086f
fafc
f1cf
fed4
0dd4
d8c2
fd5b
0947
ef9b
f42c
1be8
f1f1
2803
164a
e0d7
141f
253d
ea96
2f2d
b78e
2e92
d974
11a6
025e
f0b2
f17b
fa35
f135
f8c7
0aab
f4ce
f566
edee
0acd
0c9c
10c5
f5c8
083f
f88b
0875
035a
f409
f840
01d3
0b60
0965
045e
07a7
0bac
3873
0f02
34e1
ea55
2bb7
d397
39e8
e9c6
14e1
fa5b
cd10
191f
05eb
ffb9
0764
fb04
f676
2e07
ea24
1c3f
fb53
db2c
1f5b
fee7
1019
e69d
015e
feef
0ae4
ecfb
0627
fe89
f16c
0bbb
ee5f
0537
030f
04e5
0829
f3d6
fce2
05ad
f38d
f64a
03a1
ff13
0e72
f88e
0e23
043e
f350
f737
0d1d
ecb9
ef9b
fe75
11e9
0063
f975
e6fb
f350
f2d2
f7b1
0bcb
f6a5
03c7
fde9
08c6
fef1
0c11
f4b9
f6ea
fd52
fccd
f5b6
0596
0518
0f57
0ccc
fb8c
097c
0079
f239
ee26
e609
eef9
df52
0b26
eb24
f4c8
1a10
e6fc
074d
1139
14f0
ee5b
f61d
fba7
ff08
f430
f964
058a
0027
f7fb
f77f
01cf
f15f
f491
f3f8
f491
fe9c
1279
1561
0c20
d3dc
0694
0826
f036
fd89
eb87
0b8c
fefe
06cd
f289
0632
038d
fb22
f85f
ff58
f695
fe99
10b0
f662
1078
00e0
f7c5
fa4d
0f44
ff80
f44b
01cf
0399
0085
0ae1
ff75
f759
f5c6
0c4f
06e3
ea56
1057
0d33
013a
fdf6
036e
0dd7
0ff1
17d3
f359
fc0b
10c9
fc95
0a9c
f8e5
f63e
f66a
f2e2
f003
09ab
fae6
0e66
10a1
05ea
0073
2e34
f793
f087
1e0d
0f1e
e57d
03f0
feab
ff19
fc97
f6c9
f921
08bd
0aa1
0882
f7dd
05d6
f5c9
f7ab
f038
f561
05ff
f102
f036
0966
f941
f8e3
fff4
094f
f699
fda6
ff89
1048
078e
f26c
0c7d
f167
06b3
fc52
f660
f185
facf
09b9
17df
0525
0d74
e5a7
0146
0a87
ec79
196a
fa24
1000
f8f8
0f33
13c7
fc74
0843
ecc5
13b9
fa95
1102
044c
f974
feb6
11d1
fb89
f749
0453
07bf
0837
088b
0443
08dc
fba2
f93f
f737
f81e
10d1
e884
12fd
df3a
160a
16ba
f38a
1716
e73b
120b
e8bc
1753
18c7
1ab1
ed2b
1424
0d90
030b
16fb
f06c
fccc
0918
f9e0
1434
0991
fe30
f9b1
0ffe
0716
f4b0
f0c3
fd5e
fcba
f5a2
fa84
0a2c
ecc9
f571
0be1
f511
f98f
1496
03ee
0c3f
eda1
f10e
057a
0637
f64c
ed2d
0541
03c4
1225
f803
ecc5
0318
0f53
fc60
f8e0
e9ec
0e0c
0034
fefc
f84a
f8fb
fe00
ee77
fc4a
05d9
fb4f
0bb2
0322
08c7
15ed
2a29
fbf8
05a6
f9c5
064c
0e71
fcf4
0bd9
d0d7
29a5
edda
ed5d
0f79
0007
f099
0d62
1403
0319
f4b9
0587
00fc
1550
0641
f9dd
033e
069f
f78d
fcf5
0fa9
08cc
026d
f7fa
01d2
fc4c
e16f
f6d3
fcea
1646
019c
f214
ef64
1b4c
0a28
f188
098f
1f76
06cf
ede1
09ee
068c
06f2
f1ae
0f4a
060b
f507
0605
f461
0182
fe44
0824
f1bf
ec45
0814
000f
ed0f
0be7
ee83
0d56
f278
1038
f9da
0f8d
fdf6
efb2
0c56
f4d4
f805
0625
079b
f561
0df3
074e
fb06
11b9
079b
fb2e
04c6
1023
024f
fc2b
f745
febf
0824
0873
f95a
14af
f047
0cc6
0398
f2b3
1324
ef4a
0569
1340
ef14
e2d7
1847
2cc4
044c
131b
1465
22d4
1908
f5da
f87b
f7a3
0839
f867
0fe3
0e54
1aac
116c
1c1d
0b22
fd8c
fbcd
07bf
f692
eff1
dbd5
f964
fbb1
0239
07ec
0102
0b66
f3e8
ff37
fdcd
ecc0
fa0e
fedd
f1ec
f939
fcc0
f69b
f9b2
fb89
0f50
05c1
f3c7
f8bd
0e92
ec72
0c52
ee53
e9a8
0fa4
f74a
e8ea
fe64
047e
05a5
e9f7
0bcf
0ee3
0dd0
0e5a
f350
062e
08d6
fceb
ecb1
11d7
06b8
fccc
16e2
debc
f563
06a5
0e1e
0385
03b4
10bc
ff16
0b6c
e9f8
0add
129b
055e
1c0e
fe10
0af8
e74f
df4d
0851
db56
0e13
1678
f70e
f238
f2a4
e885
061c
f29f
eb80
fff2
0b67
17b5
f172
02a8
0551
0fdb
1236
fbe8
0f3e
0622
fcad
0f6e
0f9b
f839
03b5
0107
f606
0aaf
0e8f
f72e
0a2f
0d76
fd94
0ca3
02d0
0911
ff03
0af0
0b26
02c9
fb62
07fc
087a
0a43
19cf
f000
e93d
d3f4
e295
221e
0044
f903
eca0
f3f1
0be6
f0ff
059d
ef48
0583
0427
0665
075d
114d
f61e
01c2
031f
08e6
f4b2
06e8
fa71
f744
0486
0e11
0794
f731
01a7
f4a6
0fd4
10db
ebd7
f1b1
fd56
f785
1654
074a
0d60
ec72
0a4f
0aef
f012
01eb
0669
0453
f1f1
f729
0802
fa7e
ff51
fc45
f1e1
07a9
e806
f1fd
e4e8
d57c
07fd
0196
f95c
de62
2380
e78b
fb88
001a
0293
0bae
0ce5
fb42
05cc
0a7c
fea8
0bc9
0cda
032c
f35a
0052
31a9
d810
1581
be7e
d332
bf66
19fd
f868
f57d
1943
d267
03ff
f504
fded
f933
fb3a
0820
fa5b
004a
0000
f7dd
f2ed
f87e
043f
e788
0f98
0a18
0144
0c51
237e
0b5a
eecd
ff93
0ea7
e753
109e
1972
18eb
ffc4
038d
f0c5
096f
11b6
f685
ee72
00c3
e8ff
0e70
