0197
fd57
0077
00a8
0183
0079
fd7d
fea1
0112
fe9a
fd2f
fe86
ff3f
0132
ff50
ffb3
00b8
fe53
0044
ff1b
ff96
01a5
fe13
017d
fe3b
fed6
ff17
ffec
0266
fefb
0238
fd87
00c4
00c1
0143
fe7f
004a
0039
fed7
007b
00d3
ff39
008d
ff6a
fee8
00d8
fe65
001d
ff34
014b
00dd
fea5
ff2e
01a1
01a6
013d
0051
0029
0215
fff7
0111
0111
ff09
feef
0176
feb4
009a
0141
0046
ff39
fe29
006a
ff7e
fdf0
ff96
0274
0170
fecc
ffae
019d
fdaa
ffd4
ff59
01e3
fee2
0012
fe92
01d3
ff44
ff65
017e
0198
fea7
ffd7
ffe1
003a
ffd8
0045
0255
ff6d
ff7b
0112
0158
febc
febe
00a1
0161
0027
fdd8
01ab
013c
ffc8
01d2
fedc
0023
01f9
0039
fe41
0171
019d
fee7
0169
ffdb
fdbb
0061
010a
fd95
0032
0132
fd48
001d
ff63
ff79
fe50
00ed
01c7
01c5
0201
ffbb
fe68
fea8
0066
0087
0143
fe97
fef9
01c9
ffa0
0029
fe75
fdce
fdf3
ff0c
020e
ff19
ff13
013e
feb0
0011
fe15
fe8f
019c
ff17
0147
0031
00dd
ff38
0143
ff32
fdbf
0053
0091
fe7a
00b7
01b6
010f
ff5a
00a5
fe18
fec1
ff67
0136
ffe6
0094
02ce
0195
00a1
feaa
fff7
ff50
00f6
00d5
fddb
ff80
fe0c
ff0d
0233
ffa9
fdc9
fee1
fedf
ff52
ffb0
01a5
00ba
ff38
021c
0272
fff2
ff1d
fe37
00eb
01c9
fef0
fedd
01fb
fec5
fffc
012a
fe5c
00bf
ff55
008c
ffd0
00af
ffe8
feba
0003
01c0
001c
0038
fe25
002e
0146
0184
ff5c
ffb7
00e6
ff87
fedd
fd51
fdc7
fe7d
fde0
0142
007e
01a5
fdc6
0184
fe00
01f8
fe5a
ffe7
0130
ff64
ff74
ffb8
feff
ff0e
ff94
fe3f
ff1b
01cb
0070
fec1
fdec
ff71
fe42
01e5
ff5e
fe3c
fe49
fe2f
0109
0012
ff67
fe1f
010f
ff95
018f
fed1
007b
010e
ff2b
ff60
fe02
fec8
0244
00c9
ffd2
feac
0004
01fc
fee3
fde3
0244
01bf
0016
01a2
00b2
00ce
0165
fe5f
01f8
006f
fe22
00b4
feec
fd8c
020e
feb2
00ea
fffe
0132
014d
008b
ff33
00de
00d3
ff88
feb0
01f3
fe7e
0010
fee7
ff21
ff11
ff59
ffed
ff2f
fe22
ff4a
0208
ff63
0186
005f
01fc
ff56
0008
00f6
fe95
00fb
ff4c
feca
008a
ffcc
013d
0077
fe80
01bb
fe92
00e5
0063
ff7c
00e3
0032
01be
ff0f
ff7d
00fb
01a5
ff04
ffac
ff90
fe58
ffa2
0054
ffc3
0117
0152
fed4
ff77
ffb5
fe71
0006
ffc6
ffd7
ff9b
0129
01d3
013e
0101
0115
010e
fe65
01cf
00a5
0028
01c2
01ca
ffc2
023a
00b7
010a
00de
0018
fef6
ffad
0035
ff6a
fe30
01e9
fed5
0154
ff03
fe0f
ff7f
013b
ff28
0005
005b
ff14
0163
fef3
fe5f
fff6
fecb
fee1
0104
0070
0079
00b2
fe9b
ff0f
00d9
0169
feee
010d
001e
ff5d
fe69
0090
ff40
fede
00b6
01a7
ff13
fed8
0026
fe50
ffa0
ff4b
004b
ff88
007f
fedf
ff1a
ff90
0293
0013
01ad
fe70
0141
fe42
0112
01bc
023e
01ad
01b3
0161
ff48
fef0
01dc
013f
fdc5
fe75
ff8d
0200
fe0c
fda2
ff7f
018e
008e
ff01
ffa2
0128
ffbd
01f2
ff00
fea8
ffc2
0112
019e
ff31
ffbb
0018
0192
0154
ff3d
fdcb
018c
fff4
ff03
fe8f
fdc6
ff74
00a8
001a
00cf
fe8f
ff34
ff1a
fec3
0226
012c
ffd5
fdea
ff75
01b2
00a7
003d
01b6
002e
fe9f
ff2b
0042
fe9b
fed3
0016
fe03
ff2c
0089
ff37
0231
00a0
ff09
ff67
01c2
fe06
fea7
ffe8
0115
ffe3
01fa
01d2
01ef
fe7f
00f9
ff7c
ff79
004b
ffb1
01ab
001d
feee
0106
ffe0
0123
fee0
ffc8
ffb2
01fe
0067
0127
0098
0193
feff
00aa
01fe
fe3e
ff8a
fead
fe33
00b5
fe4d
ff05
011e
fec6
fe8e
ffe9
003e
0100
01ac
009a
feaf
00e6
fee7
fe17
ff80
feb8
028f
00ee
ff22
024d
fff2
02fc
fd88
011d
0187
0297
fe3d
ff87
01e0
008f
ff7d
01b5
ff6d
00b7
fe20
01f9
ff33
ff3d
01af
ff68
000b
ff9f
ff7c
0001
0167
0142
ff9f
ff18
ffd5
fe25
ffab
0085
fe64
024b
00b1
0097
fd6a
0084
ff24
0180
00b8
fd86
fdbb
fe34
0115
ff8d
014b
feb4
01cd
0280
028e
00fd
feb7
ffb0
0000
ff31
ffd4
013e
00ad
ff17
0216
0164
ffe3
ff89
01b5
feb0
009c
0166
01c1
ff8c
01eb
fe3f
018d
0003
ff2c
00a7
022a
ff6b
012b
0068
0130
feea
fda7
013c
ff82
0164
0127
0247
ff6d
0068
00a1
016b
015b
013e
fdec
fe17
fed6
00eb
0263
0014
01a1
0152
00ca
00d1
ffa7
ffd9
fff5
ff6d
fcf6
fe47
fef2
fe7d
018f
fdff
fe97
ff4d
fdf0
fe15
023f
ffdc
fe6a
ff05
ff56
ffd6
ffd7
ffff
0096
ff4d
ffdc
0049
0018
ff03
00e2
004a
0060
fd9c
fe6b
022d
ff17
fe62
fdfd
ff3d
0064
005b
fe7d
016d
ff82
018f
fe5a
ff9f
fead
000d
ff24
fe91
ff84
01d4
0105
fe22
fe71
0056
fd52
00ea
fe52
0069
00b0
012c
ff90
004c
ffa7
fe73
00f3
01e0
ffd4
0175
00c6
00bd
fe21
003a
0154
01f2
0079
01b6
fe45
0036
ff70
0193
ff83
024e
fcfa
feda
fdab
fecc
02f4
01c2
0051
feb1
0079
fd8a
0153
0093
feba
ffa9
fe1a
fd96
ff3d
fdeb
ff8c
ff19
0196
020d
0089
003f
ffa6
ff76
ff24
0162
0074
ffcd
ffca
ff6c
ffe8
fec8
015e
016f
fed3
014f
006c
0046
ff98
ff68
fee2
fdeb
ff60
ff83
018d
0203
ffee
ff2a
ff84
fe1b
0142
0140
ffd6
fe06
0093
00c7
fdf9
fe48
0086
024e
ff20
fe39
fe04
fe6e
ff9b
0070
feb7
fea9
fe73
00e3
0099
fdf2
ff63
0242
0079
00ad
ffdb
ff5a
ff78
fe9f
fe59
012f
fefe
01c7
ffc4
ffb3
00b4
fea3
fe3f
0100
0125
0151
001f
0147
00cd
fecc
feda
fdfb
fe0d
fe3a
feca
0089
0198
0073
0005
01a5
0171
fec2
0194
002b
fef7
fec4
0088
0104
fe43
0098
00d4
0142
ffef
00fb
ff2e
0138
00c7
00e8
00c2
0080
fef8
fe4f
fde4
020a
00f6
0044
ffce
00e6
01a7
021e
ffbb
ffbd
fd7d
0019
00ce
028a
fefb
02b8
011a
007e
ff85
fecd
00ce
fe80
febc
ff70
020f
003b
00b5
fe7e
0057
fe33
ffde
fe91
ff13
fefb
fef7
0141
01a1
0003
015f
0002
0188
ff10
0148
020b
fe20
fe52
fe9b
014d
023d
fee6
0176
016e
0156
feff
ffb5
fe46
fdf8
ff8d
ffa4
fd5f
ff0c
0054
ff4a
fdb1
fe50
0088
ff0a
fe43
0038
005a
feb3
00d2
ff0b
0045
ff7d
fee4
0095
fe82
ffcb
0110
fff9
ff0a
ff31
fe9f
ffc8
ffc4
024b
00b9
00cc
fe76
01f3
fde4
ff9c
00cb
fe87
01c6
fe1b
003a
00a3
fe7a
00aa
0203
ff7a
fea0
feaa
ff54
ff3f
003c
0217
00d6
0086
009b
fe16
ffef
0216
fe15
0093
ff0b
018c
ff13
0291
01ee
ffe8
fe20
fe8a
01ee
007e
fdbb
fdff
fe33
ff47
fefa
feaf
fe5c
ff1e
fdf7
025a
ff14
ff83
ffbe
fef3
0197
ffe3
0016
fffe
ff5d
01c5
026a
ff3e
0172
ffb3
ffb0
0038
ff82
ff08
01a9
fe0d
fe68
0041
0125
005a
fed2
ffff
fff1
018f
ff22
ffb1
01d0
01d8
fdc9
ff11
fefd
000f
fe0b
0231
fef3
ff6f
fef5
00b4
01d1
006b
01a6
01a0
fe45
0014
fdd4
fde4
fe6c
ff71
0167
fe4f
007c
0169
fea6
ff04
0144
00bb
01a6
fdf3
0044
ff56
00a9
ffe5
fecf
0272
ffa0
fe75
fde9
008b
fef3
014d
010f
fc30
00fb
ff8d
00c4
ff24
013b
0107
00a0
fefc
fef7
0021
005b
fe87
fedc
feeb
008f
ff42
ff4f
fdc1
00d5
ff77
0093
0074
fe9c
0148
0186
fecb
feec
01a0
0115
0239
015f
ff3b
fec4
00d1
0117
fee3
0105
ff66
001d
012e
ffc7
01d2
fecf
0030
ff5e
fdec
0010
ff2f
ffa5
00c2
fe93
ff5a
fe56
006b
ff5f
ff72
0166
ff18
fe60
fd68
fff8
febf
0104
ff14
ffb2
fefe
fef1
025b
0047
0034
0171
fecf
004e
fd78
ff37
001f
fe1d
ffa2
fe3c
ff34
ff00
fedf
0078
ff5d
ffd9
ff42
018f
00bd
ff33
ff5c
01a9
fe35
fedd
ffc3
ffb3
0177
fee2
005f
0090
ff9a
01cd
00eb
ff70
fe6b
0054
01a5
007f
010f
fe39
ffdc
008c
0161
ffc1
ff1f
ffff
ffa9
00a4
fe70
010c
fe47
fee5
0109
fedc
00b3
017d
005f
ffd7
ff1b
0138
00f3
00a0
00de
0187
0149
00d4
00d8
006a
016e
fede
01da
ffcf
fe6d
fff0
0094
ff38
0015
00f1
fedb
00aa
00de
0199
010b
017b
ffa5
0043
0158
00df
003d
0014
fe8c
0073
ff5a
ffb9
feda
ff82
009d
01cd
fe2c
fdd4
0210
ff95
01b1
0014
fef0
ff69
fec3
00ce
ff18
ffde
fe4b
0128
fed8
0076
01d7
0063
010c
fdde
0198
00c0
0121
ff8e
ff7b
fed1
ff79
0077
01ff
006f
fd6d
fe7d
ff76
ff36
fe18
fee6
014b
026e
fddf
0057
01e7
ff43
0134
0261
020e
019b
ffa5
0262
007a
fe09
0307
00f8
0069
fda6
ffbb
019c
fffd
feb8
fff2
01fa
fe04
ff91
01e7
0253
fd8c
00d6
ffa3
ff54
ffee
0212
0086
ffa4
00c9
ff9a
ff14
0122
021b
0108
01a7
0003
0109
0218
ff0a
fe8e
018e
015b
ff51
01de
0103
00ef
fe7c
fea8
ff05
010e
fe46
ff67
fef9
0168
ff33
0153
01d8
ffa9
ffd3
feaf
001c
fe5b
fd6d
01ca
ff40
000d
ff78
ff74
00be
0073
000b
ffcf
fefb
010e
0098
0197
00e6
ffe5
01ca
015d
ffad
009e
0104
febc
fdd0
fe54
fefa
0106
007d
fe6c
00ea
fd82
fe0c
ff61
0283
012d
01a0
ff19
ffb0
0050
0000
fe97
00fb
ff96
fe88
0086
0084
ffe1
00cf
febf
00d1
00bd
ff34
ff17
0058
0001
fe29
000e
00c2
fdf7
00e3
0114
0199
fe9d
fee5
fe5e
0159
fec1
0081
0199
fe87
fe6f
fe9f
ff47
ffa7
00ac
ff8e
00fa
00b9
0106
ff7c
ff26
00dd
fe6f
ffb9
ff5e
0202
00bb
01ef
fec9
0116
ffba
fff5
0015
005d
fe97
fe49
00ad
007a
010c
00d8
0058
00f9
ff9d
ffe4
0080
015a
feeb
010c
ffa8
0191
00c9
0148
0022
01bd
0065
0148
ff9a
ffe0
00f4
0050
fea2
01e7
0108
ffef
0055
007a
fe94
011c
ff8c
008f
00ec
0150
0066
ffb2
00ab
0124
fe90
0082
00d0
fec4
00e7
00c8
00e0
007b
0112
ff26
00ac
01cc
fecf
fff5
0149
fe81
006d
0019
ffe7
0072
fda1
ffa6
fe8c
ff03
00cc
fd68
0233
fe10
fe5c
fd7c
00d2
ff90
ff34
0106
fe3e
fecd
00b8
fef4
fec3
0097
003e
fe83
029c
0017
fd84
00d9
01cc
0108
0056
fe6e
fdda
ff42
fe20
010d
fe0a
004f
ffc1
ff0a
01dc
010a
ff8d
00b1
ffdd
024f
003d
ffa4
00dc
ff29
0038
00f9
ffe0
0196
0084
016e
012c
fec0
fd19
006e
fed8
ff98
0293
fe13
ff73
0092
0167
0124
00df
ffb7
013c
fdd9
fea4
fe80
fe6f
0185
014c
fe48
ffe2
fee8
fe85
00cf
ff23
003c
0063
fde4
fee5
ff9d
fe97
0087
0160
fe3c
fe26
0195
ff0a
fec9
feca
002b
00a9
00d0
0026
ff7c
006a
0020
0030
007d
ff29
001c
ffa0
0076
ffa8
fe7f
fe3b
fde8
ff1c
0147
0177
ff78
0200
007d
fe29
fe3d
0093
fd72
01ad
0002
fd34
fe9e
01b4
0227
013a
00a7
fe90
0060
01ac
ff10
012c
ff8c
fe8a
013f
fee6
ff68
fe18
ff5a
fe88
ffb2
fdc5
fe53
01dc
012a
fe79
0105
028f
ff74
ff61
fe64
0297
016f
00a4
0178
fd34
fe8c
018d
fffa
02a5
0195
fd5a
01a5
ff2c
ffc0
00dc
fe2e
0260
fd96
fdf3
ff55
01da
012f
0089
fedf
0060
fc52
fee4
fdfc
fffb
ffbd
feda
ff35
00b5
fde6
000c
016f
fee0
023a
ff51
01a9
fe99
fdf0
0065
00a0
0158
0232
0299
ff90
0025
ffdb
fe76
ff6c
018f
0121
ff77
ff6b
feda
ff8c
001a
ff00
005e
febd
0125
fea7
fd65
ffc5
0167
ffd6
ff2a
024f
0145
00c8
0062
0124
013f
fdde
004d
011b
0234
fead
008e
feab
ff91
0072
01bc
00c1
fe01
00fd
ffba
0148
fdfd
0149
ff5b
ff60
ffdb
0040
002f
0094
01c6
0087
fff8
ffbb
fe44
ff4c
009e
01cd
01c9
017d
ff3e
fea8
0078
fe47
fffe
017d
fea2
0097
fe1a
0045
00a9
ff23
0189
ff2d
0012
ff80
004f
ffba
019b
fede
01a8
0010
fe7c
fe8d
00a1
ffe7
ff5b
fe9d
fe2c
ffae
012c
00bc
fe7f
fe81
015d
0166
fe34
ff1a
0224
023d
00e9
ffc7
021b
010f
0051
ff5a
006d
fedd
ff97
fea3
ff68
02d1
0252
ff19
011b
00c6
00a9
00d0
ffdf
fe73
fe6e
ffd6
0038
0107
01ef
fdf3
fd56
fee6
fe4d
feea
00da
0202
008f
ffb3
0056
ff48
fd0c
0276
fe90
fef4
ffb7
01c7
00af
ff08
fce0
029c
01c8
01a3
ffdc
01d7
012d
01f0
fe31
00e2
0217
0080
feb3
009d
000d
023e
ff9e
ff9e
ff84
00e4
016c
ff2d
fe94
fefb
0225
01a7
fe1a
fdd7
fea7
0141
fee8
00bb
0172
fecc
0206
fe3f
004d
ffb6
fe5b
006b
0115
019c
fef6
ff3c
fdd5
0225
ffb3
00d2
0092
0089
fe0e
00e9
fe14
0120
0171
ff93
ff3d
fdbb
006d
ff37
0144
0092
fe06
01f8
00b8
ffa4
fdac
0047
015e
018c
026f
ffd8
ff60
0157
0056
fddc
016d
010f
ff75
009a
fdfa
0053
fe08
ff5c
0115
fe2d
0068
fea2
fe46
020d
fe89
fe93
0011
fe70
ff75
fefa
00bd
fe42
00c3
024c
0192
fefe
ffe0
ff02
02cc
0063
00ce
fe1d
0163
fe41
fff6
fffb
0095
0106
00f2
00c1
fe43
003d
002b
fdfa
fe64
00be
ff68
0103
ff71
00fe
ffd5
0059
0157
00ec
00ec
fed7
0126
00a5
ff88
fe99
ffe3
fed5
0009
0151
0108
ff79
fe31
01d0
0087
fe25
01b4
01c4
fdb1
ffeb
fed4
ff99
ff7d
fff2
ff9d
009f
ff06
ff82
fef0
fea5
fd09
fff6
00f1
fe21
0044
ffa5
ff93
fead
00bd
fed7
fec7
ff9f
02b4
0104
0034
0078
fdce
00d9
fe3e
00d5
fdc4
fe70
0067
0039
fe9f
017a
00a2
0184
0064
01d8
fdc2
ff74
0038
fe1c
0043
0022
0022
fe1c
005a
0001
0192
0012
fe2e
ff90
00b7
fd9e
ffb6
0137
0111
fda5
ff7c
01c5
fd7c
01b4
fe91
ffb3
fff3
014b
fd1f
01ec
feed
006b
00a6
fec7
ff0d
0311
fd4a
0180
ffb6
0068
ff8d
fe23
ff4c
004b
ff07
ff41
00d6
fddb
0190
fe34
008e
fe8e
fee8
0030
ffc0
0074
0047
fea6
fef7
fff8
fffe
0237
ff4c
ff6d
02a2
01af
ff7c
fdf3
018a
0091
ff33
0193
0249
ff5d
007c
feda
fe9e
00d8
ff21
01ea
ffff
fe2b
feef
fe1b
ff83
0218
fed0
01c2
fe29
fea9
ff81
ff15
0165
01fb
0189
01c5
feb9
fd85
ffa2
021e
fef7
ff9f
002c
fe9b
00f4
fec5
0285
0122
0238
01b2
01ce
0007
fdff
fec5
ff2c
fed7
0007
0067
ff5e
00a7
01cd
fd3c
fdfb
004c
0064
ff2d
0217
ffca
fef0
00e8
fde8
010e
0242
0183
feb3
fea3
011a
fe9e
fe7f
0123
006b
0166
ff6e
ff3e
02b1
fe9c
0173
fd74
ffb5
ff70
0073
fff1
0198
010b
ffd5
01c0
01cc
fe42
ffdf
fe3f
01df
00be
00b4
ff1b
fe6b
feae
fec4
00f6
005e
fffc
00e2
ff90
fe77
ff18
fe27
ff29
00a3
0160
fdaf
fe0e
011e
0051
010d
ff1c
0114
ffcd
01a7
0227
003d
fd3d
0239
0109
fd5c
0142
fd76
00e0
fdc1
01f5
0224
005d
ffa4
01a9
00ec
01b1
ff55
ffa4
fda7
fe92
00f0
fe21
ff89
feba
0007
0010
0123
018f
ff5a
0034
ffee
fe93
0159
fd9f
0135
fe74
fe8e
ff34
fe75
ff1b
ff3f
ff27
fe2c
fe73
fe57
ffce
fe41
ff17
ffe6
ff8d
ff1e
0072
0143
009b
00e6
0185
ff5b
0036
ff24
ff72
0163
feaf
feaf
ff4b
ff16
ffa5
ffa0
fe63
fe8f
fef1
ffb1
0150
011b
00e9
017a
007a
0160
ff3f
000a
ff39
0024
00ed
ff31
fe09
ff5a
ffb2
ffd8
0140
006b
0005
ff49
002a
0198
fe79
01b1
fe67
fffb
fed1
ff33
ff57
010b
ffab
00a2
fda5
ffb2
0164
ff94
ff68
004b
00dd
fd6b
fe15
013b
fe64
fe98
0140
0063
ffbb
0028
0076
ff42
ffd0
0153
001b
00c9
ffb6
0052
007d
feec
ff40
0075
00d0
001e
fea4
feb0
ff12
ffb2
0169
fe87
ffc2
017f
ff66
fd75
ffc8
014f
0015
fff2
ff4e
ffb4
018b
ff58
00ed
fefa
ffaa
003d
007e
ff9d
ff6c
ff0d
ffc6
0051
fe96
ff72
01d0
01c2
febb
fe4f
009a
02a2
0056
ff4a
0116
02b4
02b8
ff47
007a
ff31
fcf4
0113
00de
ffd6
ff50
fed4
ffe0
ffd7
fea7
002a
ff75
feec
ff5b
018b
00c0
016b
ff76
fe2c
0050
ff4b
00b4
0074
0083
fef2
fdf1
0087
ff14
0130
0254
0117
01a5
01d1
0118
00e4
ff0b
0180
fdc8
fe6c
005a
0281
006f
01f0
fec2
ffa2
fed4
ffdc
0075
ff84
ffec
ff96
fef1
ff26
fdd2
ff8e
ff66
ffaf
00e1
fdfd
fdf2
0160
fef3
fee2
fe0b
0153
ff89
ff6f
003a
ff7f
0003
0029
fe88
00c2
010b
fe60
0049
ff8b
feeb
003a
ffa4
ffed
fea9
00b7
0064
0196
fecb
fff6
00de
ff2e
00de
fea9
015f
024b
ff1b
fe02
ffbd
fe93
001c
fea5
0171
fe2e
0114
fee7
ff94
00fd
fe7b
007a
013c
ff64
febf
fe3b
fd32
00b3
0091
01a0
0108
fdbc
ff2c
ffcb
fe90
0172
fe6a
fed9
004d
fea8
0003
fecc
0039
0052
fecc
ff11
fe58
ffd7
feb2
0009
fe83
ffeb
ffa9
0057
011c
fe74
fef5
01bc
ff29
01de
008c
ff03
ff68
006c
ff68
0098
0130
ff9a
0142
0123
0176
fff2
fe6a
0023
0118
0141
fe56
005f
0133
0126
00f0
ff58
ffb2
0073
0026
ff6d
ff43
ffaf
fef2
ffca
0028
009f
fffc
ffe0
0194
0161
002c
ffd3
0068
0013
00f7
fe7a
0053
016a
fe14
fe6e
ffe4
0168
ff8b
00e2
005f
00a6
0099
005d
fee6
0057
fe07
012d
fee0
0084
0088
0058
0177
fe97
ff30
ff55
0173
0205
003f
00f5
fea8
0033
ff68
ff36
ff03
ff3e
0018
fdd8
013c
fee3
0146
0137
009c
00c2
fff7
ffa8
fe3e
ff46
0031
ffa0
012f
fdfc
0102
0126
fe39
ff01
ff8f
014e
00b2
01c4
fe72
0051
0175
fffe
ff95
0127
fdc9
ff46
ff16
fef0
fdee
01ab
02c8
ffc5
0048
00bb
0170
fed1
ff0b
0078
0179
01f6
ff5a
fec0
00e1
fee3
ff2e
0223
000a
ff7a
ffaf
00a7
0233
ff44
ffe7
ff92
ff1b
ffc2
ff71
00fc
00bb
01a3
fe10
0072
0206
ff04
011b
010b
fd69
fde8
0048
0189
fd62
ffc6
00a3
fde0
ff41
ff10
01ba
0116
ffb9
fe58
0165
0005
0046
fe19
018b
0002
fe8f
003f
ff67
feb7
ffe5
01a0
ff48
0129
0175
ffe9
fee2
0134
0132
00e3
009f
012e
fece
00cd
fe5a
ff12
0153
fddb
ff9e
ff33
005a
fe8c
018f
fe31
fe56
fe60
013a
fe88
fdfb
fe93
ff85
0227
ffa1
009a
0197
ff0b
ff2c
ff07
ffd2
010d
fef1
ff5f
0079
fe61
fddb
006d
021d
0137
fd7d
ff39
ffcf
febb
00df
0172
001c
0189
001b
ff27
fe74
019b
01fb
0029
ffe5
fda0
ffcc
0173
fe5d
0175
0087
01fc
fe86
fd41
00ca
0033
ffa5
fed4
0064
0088
fd65
019d
011b
fef5
fdfb
014c
ff58
feff
01a7
fff1
ff44
fee7
fd67
0047
feaa
ffd8
ff26
0166
fdbc
0195
ff98
00b7
fee1
00bb
ff6d
ff04
0253
00a5
0209
0220
010c
0101
feb9
0154
fe83
0029
00b0
012a
0029
ffc5
0150
ff30
fe2d
fe8a
009a
0058
0246
00b2
fee7
01b0
ff6d
ff06
feb8
0116
00cf
00ad
ff28
fed6
00aa
0013
00df
fe7a
ff31
ff51
fe7d
ff85
ff32
ff8e
fdc5
023f
004f
ff66
023a
ff22
ffa8
0131
0037
0087
fee3
0216
02d9
0148
feb0
feb3
ffa6
0298
0090
0215
0233
01ae
0197
0127
0182
0296
ff20
017a
fff7
0069
feaf
ff6a
003b
000c
005e
0188
fe20
ff57
00e9
fe5a
ff23
0264
fe37
ffff
ff66
00aa
01a8
ffff
0021
00e6
fdad
02df
0215
01bf
0061
feda
ff3e
008d
ff77
ffc4
00b0
feed
0117
020c
fd55
fdba
0197
fedb
01fe
0236
fe11
ffaa
01a0
fdfb
fea9
0253
fdd8
fd25
fee4
fe3e
018c
0280
0285
ff31
0088
02b8
ff80
015a
fe3a
fe6d
fe8c
fe01
0025
fe42
ff24
fe8d
0251
feb1
018d
0069
00a5
fddb
fd3f
0082
0002
fe2a
011c
ff82
fde0
ff7f
025e
fe41
00e3
016a
ff70
fea8
0044
fd29
011e
ff1d
012e
ff66
0180
ff8b
feb8
00ff
012c
0191
fe80
01b5
0198
00e2
023f
0242
01df
ff6f
0032
fd42
ff8c
ffce
fefd
0171
fee5
01b0
fe49
0190
010d
ffbb
fe7d
01e0
014b
00f1
ffd3
00bc
fe28
003d
0194
fdfa
018d
ff1f
fe04
012f
fdeb
0025
014b
0151
0154
fef1
fe9f
0250
0009
fed7
0020
00da
0050
ff95
001c
fe91
feeb
ff5c
012b
0226
ff92
fd78
ff33
fe9f
ff94
0144
fe94
fe9e
00d6
0069
fe3e
ffa2
ff80
00a2
0065
000d
fe62
00b8
0120
ffff
00e2
ff16
004b
015a
ffeb
ff2a
fe95
0135
ff16
fff9
fdc5
0110
fe42
fe64
0090
ffaa
00a0
017b
0016
0111
ff32
fe1e
00a9
fe68
ff9f
00ce
ffa1
011a
00cf
fe6f
0096
014b
01c6
01db
ff5c
fef7
0130
00d3
ff77
00bf
fe3d
0096
0155
fdec
00aa
0130
00d1
01e6
00a7
fd11
fef6
fdeb
ff2c
feb4
fff4
fff3
ff27
fdbd
ffaf
00e2
feb4
0211
0033
00aa
fe4c
fe99
00e3
ff4f
0014
00a1
0111
ff05
00b0
ffef
006c
fe91
ffaa
00ff
ff96
0259
ffdf
fec0
fd71
025e
fe9f
001b
016f
0016
01b3
ff52
fdec
01a8
01f4
feb1
011a
feba
019c
00d7
fff8
ffb3
0106
0160
fd93
fed4
fdf1
ff26
fdba
0100
0073
ff4b
0184
006c
fd83
0189
0147
01d7
0154
fefb
fea0
00da
ffd9
fef3
0049
02ed
007b
ff48
0030
ff3f
01f9
010a
ffb3
fff1
fff1
fdfe
0032
016e
0079
fe3c
fe7f
0143
00be
fda9
0013
ff38
00a7
0183
00a4
00db
fd15
ff1c
fe65
00cd
0152
01b6
01df
fe8a
ffb3
0081
00d3
0127
0084
fe6e
fe0f
0083
015f
fe35
ff37
007b
01ef
fe4f
ffd5
01f1
fe19
01ad
01a1
fe05
0199
fe4a
015c
fe64
ff4b
ff0b
fe96
ff09
ffc3
fd8e
0034
ff9f
01f2
ff45
02c1
0202
ffc1
fd99
0089
012c
ff98
ff45
ffd5
021a
feb2
fe6f
febb
ff23
ff11
0219
ffe6
fef4
fe74
007b
01a6
0080
fef1
00fd
fdd9
fd7d
00be
026d
ffec
ffcc
ffec
ff59
00c4
fff9
00aa
00aa
00f6
fe89
fd45
fe7d
01ac
01d0
fe5f
0200
fffc
ff97
fe64
ffd5
fea5
fec1
0191
0015
ff2d
0185
fe89
01c4
fe8e
feea
0000
0002
0063
00ae
013c
020f
016b
ff63
0227
fd98
fdef
0152
009e
fde6
01b5
feb4
fdb9
ff81
0078
fe1e
013a
ff97
01b8
0159
ff21
ff46
fecf
0151
feff
0102
fe97
00ec
0022
feae
005f
ffae
ff50
fe4c
00ba
015a
fe7d
fe41
ff92
fe2d
fe27
0055
fd61
fe88
fd6e
02f5
01a4
ff0c
01a1
fff5
0002
fdad
fec6
ffe7
fe01
ff6f
fe24
feb5
0111
ff43
016a
fe84
00d7
fdbe
0118
fe55
feda
008d
ffd7
0059
ff34
0039
fef5
0082
0149
fea3
ff08
01ce
01e0
00ad
ff89
ffb4
ff6a
0076
008f
ff99
00d5
ff39
fe07
01d0
fe6b
ff9e
002a
fec4
0242
00b7
ffe6
fe6d
023a
00d7
ffa4
ff82
ff56
0129
fe44
0100
017a
002c
fcc0
01bf
fdb5
fed1
009a
fe1b
009b
010b
0119
00c9
fe49
fea7
01fe
00fb
ffb0
fe07
ffb3
0128
fe84
0051
0104
fdc3
ffcf
0101
fefd
013a
0048
0113
ff0d
fde6
fe9f
0001
fe26
fed9
000d
01f5
015c
016b
01d4
0096
00df
fdc2
fe26
00c9
fe24
fdfa
ff84
0152
ffb2
01a0
0118
ff09
0114
ff7a
fe54
fff7
0106
ff7c
feae
fed1
00e1
ff67
ff0c
fe2c
0138
00ea
00d0
fede
002d
00e0
01d8
0141
febc
fe53
002a
00a7
022c
ff18
00b9
fe2e
02aa
009c
fff1
fe5c
00df
fff1
ffcc
ff86
fdd0
fe72
0261
0105
015c
009b
fe9b
ffe6
007a
fe7d
ff2c
01d3
0126
ff7e
026d
fde8
0155
ff89
ff9b
00d7
fe97
fee6
0023
0192
ff49
ff84
0031
fee0
fe56
ffac
00a8
fe82
fffe
005e
0186
005f
ffc2
0134
ff5b
ffb2
00c4
fdf7
00b0
00c0
00a8
ff8b
00e8
fdbc
001f
01e6
0136
015a
ffc0
fe33
fe65
fe8a
fe67
fe18
fed3
fdf7
0041
0096
01f2
017c
0129
fe80
0118
015c
ff52
fea0
0100
01b3
00c3
0050
fee3
0214
ff1b
01ed
01e0
fe26
028a
fe15
ffc2
0191
0250
0196
fe91
fefa
ffc7
0133
fdce
016b
ffe1
00a5
fd73
0265
00ac
0086
fe2a
fe23
fff1
003a
fe94
02d9
0032
004d
00fb
ff9c
01f7
ffe1
fe3f
0118
01ef
febf
00f6
0134
01a7
01e6
fcfd
ff5d
0290
fed2
006a
0256
fe94
0162
00fb
fe30
0233
ff46
ff78
008e
fe86
fdfe
ffba
ff90
ffcb
00c0
01b7
01b9
004a
012a
feb2
0087
0072
ffbf
fe87
ffd3
ffab
ff31
fec9
fddd
0241
fe50
0021
ff4f
0189
0175
ff9a
013b
fe8f
ff33
ffa9
0238
0238
018a
0165
fe5c
ffe2
fe5c
0220
005a
006a
0041
0040
feae
ff28
fef8
024b
ff38
fdc5
01b3
fdb5
009f
ffa5
0103
008c
fff1
ff7a
00e6
017c
0138
007d
01d0
0121
014b
00c1
fdc0
ff6b
0175
0097
0173
00a5
ffe8
01ad
00b2
fe47
ffab
fe5f
00c4
fecf
019a
fec2
0110
00ca
0167
0121
004a
fd35
fdc1
01d0
0022
0169
0124
026b
ff7d
0205
fdae
00e1
015d
026c
fe3c
0320
ff6d
feb2
012b
00e7
ff96
0050
ff70
016a
ffe1
feda
fff8
fee2
fec7
0070
ff4e
feca
ff2b
0172
ff51
015e
00f3
ff66
01be
ff12
0194
febf
fe49
017a
002e
febb
0153
0140
01f4
fe0a
00a0
019a
ff9b
01f4
ff96
fe0b
ffe9
fe79
0065
fe59
fee4
fe48
feb3
018b
ff25
fee6
fdca
00d1
00f3
00ad
011c
ff6b
fdf3
0064
01a6
0218
00d8
fef4
0166
fee7
fe47
ff99
ff35
ffc1
ff13
0180
01b0
ffae
fe45
012f
0180
01cb
00ab
0174
ff42
fed1
ff5f
020a
fe5a
0082
0126
00b0
fe5f
0021
010f
ff21
0106
fe9e
fdd6
00f6
011c
00d9
ffdb
017b
00a5
0064
0069
0104
fed1
002d
0001
01a8
feea
ff06
ffc4
0050
004e
01c7
fe91
ff9f
0139
01e8
fe65
feb4
ffe0
010b
002d
fe81
01b8
fe9e
fe6b
0044
0225
ffe0
fd8d
013f
fdd4
fd0a
008c
ffd5
0199
021e
01dd
ffdb
0162
0026
febe
003d
ff89
fdd3
01da
fea7
ffc3
004a
ff9c
0068
0076
00d7
fe9f
000e
fe7f
00b8
fff9
0112
00b9
ffe7
00c7
0065
023b
fef9
0036
005b
ff05
fe35
0019
ff45
0254
0176
fff3
ff22
fdc5
fefe
01bc
fdeb
013e
fe54
ff0f
ff04
fe6a
febc
fef9
00ff
ff7f
0099
019d
ff18
fec3
01bc
fed3
00ee
fe3e
fe70
01bc
00c8
0080
00a2
fec5
fe8e
fec6
0191
015f
0036
fff3
ff50
00ad
008a
00f8
feb6
ff53
0036
0030
017f
01f8
012c
feb7
01ab
015c
fe02
fe28
fef9
fef8
0063
ffc1
001e
00ba
015b
0065
01a5
fe27
00e9
0143
ffc6
0128
ffc7
032d
006c
0042
0134
01ee
ffe1
0124
ffa8
fe4e
feeb
fe1e
0163
fdd2
fdef
015b
0059
ffef
0183
fe9c
0024
fe4d
fefa
ff82
ff08
ff66
ff7a
0019
0215
01fe
010a
fea5
004b
00ec
0177
0104
ff24
023d
017f
fdee
fea4
ffa1
ff45
fecb
0156
fea4
fff5
00f6
ff8f
0005
0273
0149
ff7e
ffd7
00be
0145
fefb
fffd
00a4
ff74
0175
01b9
006d
0119
fe00
002a
fe64
00db
fdba
019a
010e
00c7
009d
0168
001b
0114
0063
01a0
0270
0009
fed9
fee3
ffb4
01f1
ff91
febd
ff6e
0156
ff93
ffca
fef8
0206
ff05
fdee
01a5
feb4
ffbe
ffad
ffd6
0263
002a
fffa
fd91
00cb
008a
0036
003f
fddb
0033
ffbc
0010
003f
ff2b
ff2c
fcd9
fef0
fdd3
00f4
fec6
ff29
0218
00d5
0253
fe7c
fe4f
0224
ff7c
ff0b
fda8
0059
0005
fe79
ffc8
ffe0
0181
0026
00cc
0161
009b
fe71
fea5
015d
ffcf
0117
fe30
ff8f
00c5
002c
00b0
fee2
fe1a
ff24
0038
006e
0091
ff9a
feea
ff3b
fe9d
0071
0003
fe33
ffa5
01a1
fff3
fe26
0168
ffd8
01c1
fe2d
ff3e
fe20
ffdd
00bb
fe83
012f
fe82
0187
026b
ff77
fec1
002d
0148
0023
ffca
00ea
00f7
012b
ff34
ff45
ff1a
fe0a
0203
0247
013a
ff53
ff7f
ff27
01f8
ff03
feac
ffba
0228
ff2b
fdd4
01b9
00e4
00b4
006f
fee4
015c
0146
fe29
01d4
ff28
ff63
0258
ffe9
fff5
02c0
fea9
fe67
00b0
ff43
fea3
0210
01d0
ff25
0082
0177
ff1c
ff1e
0057
019e
02db
025d
ffec
001c
02bf
fd1b
fe65
00b1
fdfd
0287
0031
017d
00b7
fd5e
00f4
fe33
fda7
feec
fdf7
01fe
ffa4
0123
fe4a
ff8c
feb2
ff4e
0029
0172
ff60
0147
ffee
00f9
004d
00d0
fff2
ffaa
fd8d
fdc4
fe3b
0054
ffd8
ff4e
ff27
0203
00f0
008f
0187
fef2
013d
00b5
00e9
0156
ff00
01df
fe54
fdeb
0183
fddf
0165
ff16
011d
005a
fe4a
fe87
ff7f
feb3
fdb7
0223
0010
0010
ffe2
0185
fe64
0163
00e0
0150
00b6
012a
fff0
fd47
fd0e
fe8e
ff48
ff65
002a
003d
021a
024f
fffb
ff20
004c
ffed
fd6f
fdcd
0149
00f9
ff29
0107
fdc7
000d
ff43
fedc
fe30
00bb
0115
fef5
006c
ff79
fe1f
fe2e
027b
00fb
fddc
015d
0043
0007
fe4c
0054
00d6
ff1e
fee5
012c
fed5
00e7
fe39
fe72
fe5f
ff72
fedf
fec8
ff84
ff3a
00cf
00e8
ffc4
ff05
010d
fdfc
fef9
00d6
fd86
00e6
00af
00e3
fef0
017b
fe74
00ab
010f
00d3
00c8
fe6b
ff3b
019d
01f5
0189
fff0
fd55
0037
008d
ff96
01ff
ffa2
01d0
00e9
fe69
0122
0127
fd87
02b0
fdfc
ffb0
0153
0078
fef7
ff7f
000e
023a
fe9e
0229
fdc9
0117
026c
0198
027b
0245
feb1
00f7
0282
fef0
fe75
ff15
ff86
01b7
feaf
023d
fdd0
0054
012c
0116
fe76
0016
fdcb
0062
0131
ffb2
fed9
0048
ff09
fdef
02e2
02bd
ff03
0017
febb
feac
0227
ff7f
fe6e
0160
0261
012c
fe9e
fe5e
00d8
0083
010a
fe53
feb1
ffe1
fec9
ff25
0057
ff5a
002f
ff6f
0058
00e2
fe5a
01d2
0108
0227
fef8
fe98
0113
fec0
0144
fdfd
feb2
ff7d
0102
fee5
00f5
fec6
fea1
fdd0
fdf9
ff3e
00de
005f
01a7
00e6
0123
0047
01e9
008b
01ca
ff28
0176
01ac
019d
0038
0018
0028
feda
ff8e
004c
ff67
00a2
fe6d
fef7
0180
0098
00f7
01e9
ff26
fe81
fdff
019b
0094
01c3
0149
01e0
011d
ffe2
0131
0296
0023
ff92
0068
007f
0000
fe4c
ff90
fed5
ff35
ffde
ff6b
0115
0182
017b
fe62
fda1
ff53
ff77
fff4
fe0e
fe41
0163
0122
fed5
0163
fde6
0191
fd90
0105
0138
fe10
febe
fecd
fec9
fffc
00dd
0105
0175
fed8
01d2
fe50
00d9
0026
0072
ffa6
fdf6
004e
00a7
0205
fef1
0128
00a6
fe3f
ff9a
0015
0305
005f
0128
0195
0074
ffa3
ff61
fff5
0172
ff5e
ffe6
01b8
fddc
ffdb
ff2a
ff4a
ff61
0027
000a
005f
ffae
0053
0250
ffc6
01b1
fdc1
fd44
01fd
fdf7
fe63
017f
016b
fe26
00d7
014e
005a
016d
00b7
01c3
01c5
fedb
fe47
ff69
ff2f
01ca
fea7
02a0
010f
0270
01f9
fff6
ff99
fefd
fe2f
fefd
01b7
fe90
fe03
024b
008d
fd4b
fe5f
fe8e
feef
ffa1
ff4a
012d
ffb6
0176
020c
029a
0088
fd97
0167
0066
ff19
fe68
ff60
ff93
0038
fe8b
fe96
ffe5
fe8f
fddb
fe6d
feb1
fef1
0134
ff95
007e
ffbd
ff77
0234
001d
fef8
0119
ff1d
fe4f
fea7
010b
00ac
0193
ff9a
0012
01e9
fe0d
00a4
ffa3
00b9
0223
0254
ffa6
feee
0144
ff82
fff5
fe9d
004a
0004
ff16
0142
ff7b
fee9
0137
0162
fecf
00bd
fde9
0133
feff
019e
000d
ffea
0132
0117
004c
012a
011c
009b
00b2
fefa
ff95
ffff
ffd1
00f1
0056
003c
0370
fe5c
fee8
0010
ff25
ff3b
00ab
0017
01c5
001e
ffc6
01d9
fef2
00c4
00a9
fdcc
ffd3
00b8
ff5a
fe48
ff32
ff94
01a4
ff9c
0155
ffd7
fee0
00cb
01ae
ffed
ffe7
fe70
fe73
fe67
ffb1
0084
0240
025c
ffa3
0216
fe7c
ffbf
01bf
0067
ff39
01ea
feff
ff02
0179
006f
0009
ff39
ff64
fed9
fece
ffe6
fe31
fe0f
ff75
0049
fee2
0071
010c
feaf
ffb7
00f2
ff88
ff3b
006d
ffa8
00e3
ff58
0052
ff7e
01a2
00b2
ffa7
01d1
0130
0051
fd6c
0034
ff59
ff4c
fd96
0027
fed7
00c8
017b
ff0b
01b3
01cb
ff55
002e
0102
ff31
00f6
fee2
010d
015d
fec3
fe18
0073
fe76
0034
fe2b
00d3
00ba
0116
0153
0123
00e0
01fe
fec0
005b
fde4
fe1a
ff41
fe26
01d7
feb2
01cb
0067
fe0e
feb0
ff68
0153
018a
0088
ffe7
00ee
0138
feb8
005f
ffe6
fe01
ff77
ffc5
006b
ff83
0092
00c9
0149
006a
fe93
fdec
00f4
00cc
0201
00d3
ffe1
ffc1
0020
0002
0129
0105
014d
fe9d
004c
ff97
ff25
febe
fe0a
fe41
fee8
002f
01df
ff12
fef8
ff0f
fea7
fe9e
ff9b
0192
ff57
fedb
ff36
fe5d
0200
fff1
ff06
01d7
0177
0191
fea0
019e
00ee
00fb
ff31
026b
0083
01e8
010d
015f
00ce
ff05
fff6
fe2a
fdfd
016c
005b
00f2
0097
fe36
ffab
0039
fd52
029d
013f
fee1
ff25
ff6a
0164
0149
0017
ffab
ffa4
ffce
027c
feb2
ffb9
0124
01a4
0215
fd37
002e
ff67
003b
ff01
01ce
fef1
fe99
0023
ffc1
fd65
0020
ff92
fe5d
fed9
01a9
01b5
0216
02b6
0035
0160
022d
01ca
fe96
013d
021b
fe20
fcd2
fe14
ff2c
004c
fec6
fec7
ff67
ff2d
fe79
fff0
00d9
ffa7
fe4d
022d
ffa7
fe52
fe4f
0075
002d
fd70
00ad
ff95
0074
ff5a
0023
003e
ffd9
022f
0175
0136
0215
015a
0059
fe71
fcfb
0075
014e
ffe5
fd95
01c9
0130
fd08
0203
004f
00af
0113
ffa9
fd51
006e
0043
fd6e
fffc
0164
00d5
fedd
00a9
fe8a
0007
ff12
004f
015d
0208
ff61
febc
002f
011a
012c
0073
ff15
00d1
00ba
ffbf
feef
fe2c
fec8
fea3
00be
0063
ffc0
fec5
0073
00f6
fed2
ffb0
ffa3
0129
00ae
004b
0089
feea
ffb4
012a
0021
ff2d
00fc
ff4f
0122
0167
ffcb
007e
fe49
ff94
009d
010f
0114
ff45
fe87
00ef
ffba
0112
ff5b
0049
fe40
01f1
024d
ff1a
00d1
fff2
0187
01ab
0029
0226
0046
fd46
fe98
ff53
012a
ff6e
fd82
0040
0108
0113
fe80
01c8
0067
0037
0000
014b
ffbc
ff0b
fe90
01ae
fffe
ff43
fec8
00b3
01aa
ff5b
fede
00fb
0032
fee2
ffc1
fe0a
0150
001d
ff4a
ff5d
014a
fdef
008f
0235
00d7
0152
fee2
012e
00cd
00c8
fdf9
fec8
00e1
ff5f
ff36
0007
0078
fea4
000f
fe8c
0156
0086
00cc
ffe6
0133
fe46
ff0c
006e
0024
fdb3
018c
fe15
01b9
00ee
0183
0283
012a
fec4
fde1
0199
002b
000b
0138
fee5
feec
fe77
00a0
0034
feda
01e5
ff3b
ff09
0028
0120
0266
0010
0098
0020
014d
01ce
0030
fee8
0003
000e
0173
ff16
001d
fdce
00e6
feb1
fe8a
0170
008e
fdf9
fe54
fdca
ff55
0265
01ae
005f
fec2
ff63
fe25
0303
029b
0019
01f6
fe3f
02e0
0126
ff8c
fee1
02fe
ffc7
fe18
fffb
028f
0274
fed9
0230
fe61
01e6
ff66
00a4
fee1
fe4b
00e1
feba
ff5c
0013
01ba
ff0f
ff57
fec5
00da
00fc
fff2
00a9
ffba
01c6
fd9b
ffd3
fee9
008a
fda1
00a0
fe67
fe8e
fd2a
01a1
ffd3
ff1c
010a
ffd0
0190
ffe2
00dd
fe50
00d3
ffe6
ff1d
0017
0117
fee8
0113
ff73
ffbb
016f
fdda
0218
fe73
fe0e
ffb5
01c9
01c1
01bd
ffc4
008f
026c
00fe
fec5
ff70
0201
016d
016f
ffe9
0031
ff91
01d3
023e
fff5
feca
002f
fde7
fdf7
fe81
ffb9
ff14
fe32
fe9e
00af
019b
007d
016c
ff26
fe32
fdef
008d
fe22
ffff
ff37
ff56
00fd
ff02
feb0
003c
fe3c
005d
0028
ff6b
0282
0055
01c0
fea7
fd91
fe98
008e
0185
ffbd
00b7
0066
0083
01b5
ff5b
01a9
01ab
ffd8
00c4
ff9a
0019
01b3
0054
0004
016a
01be
ff73
015d
ffac
00d7
0140
feae
ff1e
fddc
002d
ff6e
00be
fe68
ff0a
fe6e
fef8
fea9
01b1
01c5
0141
0066
0168
010e
ff70
0062
ffa7
010e
000c
001a
fe6b
ffcd
fef1
0120
0181
0125
fd6c
00d8
00cd
ffec
fef5
01a3
fe66
fe20
0182
feed
ff53
005f
00fc
ff7a
fe31
0069
ffea
0106
fe85
febe
0103
ff3f
feca
ffe4
01c4
fe36
fed4
0095
ffe9
fe9d
008a
ff5e
ff29
0183
0051
018a
0048
ff71
0126
ff7d
0040
0076
fe9b
fe72
01ad
ff0f
ffff
011d
0152
fff6
00e9
fec4
004c
006e
010a
0163
008b
00de
ff86
001c
ffc8
ff44
ff69
fe6a
00a8
fe92
0139
ffe5
ffdf
00bf
ff88
014e
01b5
0127
0089
fffc
ff87
ffce
ffc5
01a3
0150
00b6
01a5
000e
feec
fecb
ff42
fedb
fd7a
ff06
01d3
feaa
ff5b
fede
0122
fe5a
ffa1
0122
fdfa
ffc5
ff2d
0160
007e
ff82
fdee
fe73
fef9
fecc
fdde
ff48
ff7a
00ff
ff64
0161
0110
00d8
fe79
fdc8
ffb6
ff95
ff75
fe50
00ae
006f
fef3
ff87
ff8b
003d
ff51
00de
0155
fd80
ff99
007e
ffbc
fe08
fead
01e2
fee6
0065
00d5
018a
ff4a
0061
00ba
0057
01b3
01e3
002e
ff2e
01dc
00a6
fe59
027b
fdcf
ff4f
fe1c
ffb8
febb
010a
0037
0018
fe8a
0002
fe58
ffff
fe61
fe72
014d
fe34
01f6
0022
fed2
fe2f
00f3
00aa
0123
00fc
ff4a
fe8d
fecd
0058
00af
015d
ff33
ff3d
ffad
014d
fe1c
00a2
0082
0119
fec3
0145
01d9
008e
01f8
ff6f
fff0
01c9
006d
ffb5
ffff
ff59
fe5d
00c0
ff56
00fb
fee3
fe5f
ff27
013b
feb9
fec0
fcfe
0027
feab
ff4b
0216
01bf
ff77
ffa0
ff22
ff11
fff9
ffb4
fe1e
ff0c
ffdf
ff17
0002
ff84
fe67
002a
feab
0004
fe2f
0082
0199
01a9
ffc1
00ca
ff2a
ff33
01fb
00ab
fef6
0137
00f3
0138
0144
ffbc
00e2
ff09
ff2d
ff88
00f5
0059
00bf
fe3b
ffed
0049
ff77
0083
00db
fe49
0002
fe6b
fffa
ff97
009e
fe9f
0029
008a
00d2
01b9
0187
ff74
001e
0031
fe40
00cc
ffc4
011b
fe50
fffb
0091
0265
00dc
0058
fefa
016c
0012
00e9
00d4
0028
fe72
00ed
010e
0002
0233
010d
0059
00ab
ffd1
0223
015d
fda6
00f8
ff11
fe32
ffb4
ff3c
ff59
ff82
0129
fec7
fef9
ff5b
feb8
01c9
fdd7
0105
001e
01a8
ff4f
ff61
00cd
01c0
00e4
fdd1
fff8
0243
01c0
00d7
fef9
0010
0061
01c8
fe08
fdd9
00a6
01c8
ff47
fed3
fffe
0105
0186
00b4
01b5
fedf
01dc
ffa0
febf
0092
002f
01a4
fe84
00a7
01e5
0024
0140
014d
fe91
0027
fed5
fef7
fe87
ff71
fdbe
0132
00e8
0130
012b
fdf7
0129
00bb
fe9a
fe56
011e
fff4
fea2
feb5
ff26
011b
fe49
ff58
fe34
012c
fe0a
fe73
ffaa
fdec
0073
fea9
ff2c
024a
fe62
0094
feae
0250
0137
0074
001c
013b
ff3b
0204
001b
024e
fe6d
fec4
fd6c
0063
fff6
ffe1
0062
0018
01e7
00d6
0060
0164
0085
feef
ff7a
0093
0086
ffb5
ffa5
fe24
0120
fe98
ffda
014f
ff28
019d
ff8c
fec8
001b
00e8
013a
00bc
ff8d
fe19
ffc6
0116
0130
01ca
019b
fd91
00d0
00c1
ffeb
01ab
01ab
004f
0070
fdb9
ff2c
fe9d
0121
004d
ff05
fed7
fe0a
ff4d
012f
0009
0196
ff33
fe91
01a1
008e
0160
0129
ff89
004b
0054
0036
fdf0
fe23
ff1f
fe6c
0192
007e
fdfc
ff02
fe64
0134
019f
fe30
fedd
0052
fe79
ff7c
ffdf
fe8c
fed8
00fc
fe70
00e0
00b5
00f0
01bb
0010
008c
00df
00de
0177
0198
ff49
ffab
022d
0166
0056
0026
01d8
ff91
fe53
fea0
003e
ff41
fe0b
0069
ffec
0155
fff1
fec9
0108
01ab
ff3c
fee9
015b
0113
fda9
0186
00c7
fffa
fe7e
fe42
0064
ff05
fdb9
ff57
fea3
fe79
007c
0092
00a8
fe44
ff7f
fe65
ff28
0104
0254
01ea
01cc
0056
012d
fef8
00af
0035
ff5c
00ec
0090
ffc8
fed6
ff6b
01aa
0069
fe94
ff96
fe85
ff23
00bc
ffb5
016e
ffd2
0159
004e
0023
0231
ffd5
0018
01b3
fe86
017e
0005
ff4d
0139
0206
0165
00c5
fe4b
ff61
ff0d
00f7
013f
ff3b
fea2
ffda
fde5
ffdf
ff9b
027f
012b
ff99
01b9
0193
0098
00be
014d
0184
ffbe
0202
fd4e
ff1b
fef7
020d
0118
fe52
0117
fec7
ff27
01a5
ff5c
001d
febe
002a
ff9a
0011
016f
ff06
fe45
00f3
00f0
ff0b
fe57
fe9f
fefa
00e0
00bd
ffc8
ff40
fefc
ff95
0001
fe7f
0098
fe6c
0008
febd
01d1
fe07
ff10
01ea
fe27
007d
01ae
fe0f
fe56
0010
0249
fe1e
ff53
fd1b
02ef
ffd4
ff8f
018b
fef1
0168
fe29
fe63
0095
fe6a
ff13
0025
fea7
fef7
00da
006d
01f4
00fa
fec2
00cc
fe65
0083
008f
016b
ffed
010f
0039
00ac
feb5
01b6
ff5d
fffc
ff54
ffe5
ff98
fefd
00df
008c
02a6
fea8
016e
feeb
ff82
00a5
0084
fe74
00b3
ff37
fffb
02c2
0047
ff64
fe3a
fed2
fe23
00cf
01e0
ff4c
fdff
ff70
015a
fe98
fe18
01c4
0070
016f
0083
02bb
fff2
ff94
0136
ff40
0032
ff0e
01e4
ff28
fe75
ff9c
00d7
ff4f
0015
ffec
0083
01fa
fe99
fdb2
ff98
014d
ff98
00c4
ff1c
011b
0101
fe76
002f
ff72
fe27
0033
017f
ff61
fee3
0065
fe60
0145
ffab
01ec
fe50
0091
0019
ffed
0105
fe7d
ff42
0132
fe0c
015d
0157
ffd5
fde1
0244
0148
0069
fede
fede
fe62
ffd5
0086
0185
00b7
feea
0111
fde0
fe0b
ff64
0022
0125
0085
0121
00b7
0031
012e
fe7d
ffd2
019e
0031
020a
0002
011b
00a1
ff11
0202
0009
0069
ff17
ff1a
fdb2
0190
01f4
fd94
ff4d
ff8a
ffe6
ff78
01a5
ff9f
00ee
fec0
00b1
012e
01c2
0175
ffaa
012a
feb5
0003
00c8
0020
fde5
013b
ff4c
fdf0
ff59
fcfe
00c5
fe09
00e8
0053
0117
fdce
ff05
0214
00c7
022a
fe0d
015e
fe2c
01d5
0117
0111
fd73
ff54
fde4
0247
0088
007b
0142
fecc
021a
0019
fe54
02f7
fcfb
fd40
028a
0260
022c
01fa
0048
ffe9
ff28
fe30
fd6e
ffa1
ffde
ff00
0004
ff66
0182
01c1
fe38
002f
025d
0180
fd95
015a
028a
ff15
fed0
fd9c
010e
01d8
01c3
fdfc
00c7
02c7
fdc6
fe40
fec6
fea6
ffa7
fdf4
ffc3
0098
0127
0212
018c
fedd
fd9d
0035
ff0b
0086
fec8
012c
fec8
fe06
0191
0197
0034
016a
feba
ffa0
01a0
00c5
fe56
ffcc
0115
004c
006c
ff0d
0175
00f0
feaa
02a8
fd53
0062
00bd
ffbc
00d6
ff6a
fecd
fe48
ff79
0145
ff36
0150
fff7
fec1
0115
01a2
ff3b
019b
ff48
0213
fecf
ff9c
01e5
ffe2
fffc
0058
0111
fe16
0086
fe93
009e
ff77
0175
00e0
00e5
0044
00f0
fe72
012a
fce4
fdf5
fe3b
ffd3
ff88
fe36
fe07
01c7
003c
008d
00e8
01d4
014d
0034
01db
01cb
ffe4
004a
02ad
0193
ffb5
ff57
ff57
feaf
01b4
ffac
0000
006c
fe3a
fd6f
0256
ff5f
fe92
013f
ff45
015d
ff7c
ff2b
fe36
00ed
fe72
022b
0043
ff39
fdd2
0111
fe0f
fdc6
0018
fe63
0166
0145
0045
ff30
01e5
01df
fef7
0161
0095
0249
ff49
01ca
020e
fea6
0173
007e
fef5
000f
fed6
0155
fef4
01c0
ff0d
fe25
010e
ff08
fe92
fe41
0065
fe7d
017e
000f
0109
015d
ffe4
00d3
fe3b
0014
007a
fe68
fe52
0173
ff69
008f
ff99
ff9a
ff23
011f
fede
0170
012d
fd6e
00e1
fee1
00a5
fdd0
0103
00d5
fe9b
0187
00f7
ffe2
fede
012e
00fb
feae
00c6
0102
0022
ff3e
fdcf
ffcd
002b
0174
ff83
01be
013d
fd8d
0056
00f5
009e
fe6f
fdc0
ff29
016d
fed9
007d
028b
0118
00fc
005a
fe72
ff26
fedc
01d5
fe83
008f
fec7
008c
0028
00d6
fef0
feb2
ff39
00da
fee0
ffb1
fe76
0100
ff56
ff53
0093
00d8
00f0
019e
0015
00e2
0184
ffbc
fecb
fe7e
fed9
009b
00ef
ffa8
fefa
ff68
021a
0080
ff58
ff25
ffea
ffb0
fe91
ffa5
ffe6
006c
fdfd
fe2e
ffec
ff65
0120
0192
00d0
0107
ff03
fff1
007d
ffe7
008f
ff2e
01e9
ff8f
00e0
fe2e
00f1
0144
feb1
fffa
ffb2
0112
ff3b
0112
ff78
ff42
016b
ff31
0137
ffb3
000d
feb7
fe1d
ff03
ffb9
013f
ffc6
fea5
ff81
ff46
ff62
fe76
fe43
00d0
0282
febf
fdf5
fe79
ff22
01d6
01f8
01ab
019e
0062
fe2d
0177
fed1
fdf3
0161
ff09
0191
fe87
fe5b
ff5f
0036
fefb
0266
ffdb
019d
ff59
ff71
ffa1
ff13
fef7
018f
fe6e
ff42
00fa
fdf2
fe5f
fe40
003c
011d
0134
ff64
fe7b
0103
0042
fdcd
0068
0028
0121
00e2
ff9f
ff12
fecf
ffeb
0033
0197
ffa7
fef7
003a
ff34
0152
0042
0077
00f3
00c4
fe6c
0102
007d
003a
00ee
fec8
fdd7
ff22
0066
01bf
0098
fdb1
00a6
fff7
01e5
0181
ff7e
ffb9
00e9
fe76
fe8f
ff05
feb6
019f
0023
01d0
009b
005d
fee1
ffcd
fdca
01e3
001c
020b
007d
ffea
feb8
feab
0067
ff3c
00cf
feee
00f5
ffe6
00f8
ff37
ffcb
01ca
fff3
fed1
0028
ffd2
ffb0
fe37
0225
fea8
00a0
fe86
fdde
0072
fdb1
011c
ff60
01e8
017c
00e4
01af
fd60
ff01
fefd
0236
004b
0031
ff8a
0132
ff44
0112
ffff
ff42
fda6
fdc1
0155
feff
fe17
0086
feed
ff9e
0170
ff6b
fe79
feec
fefe
feb5
00b8
ff5d
0076
ff4d
005f
0050
ff4a
005f
fdc7
ffce
0209
00cf
00be
ff8a
feab
fe95
fedf
ff4f
ff7f
01a6
fe7d
0015
febf
ff60
fe19
0210
fffa
fefa
0108
fe2e
fee9
01f7
01b7
ff35
0207
0040
01ea
01c5
02a7
0132
0054
ff4a
fed1
fc3d
fe77
fe02
ffbc
013e
01e5
fef9
fe9c
fea2
fd29
025d
00eb
fff9
fdae
fe1d
fd7c
01d8
008b
017d
fecf
001f
0108
008a
01de
0230
00f8
0192
ff6e
ff8d
fe5a
00df
02f8
ffd0
fe99
028e
ff54
ff1c
fd57
fe86
fef3
fe10
023e
fe23
007f
010d
fe64
00e6
ff13
fee7
00ee
0016
00cf
013a
fe4c
fef8
fd3c
fccf
ffb3
018e
ff40
ff7e
fe26
018c
014c
fe21
fd8f
007f
00ad
ff96
ff1a
000b
fe63
feb7
fe30
ff6f
0123
fe24
fe40
00dc
0093
00ba
ff04
ffd3
ff3a
014f
01a9
feff
0199
fe48
0084
0135
fe1b
ff5a
00ea
007b
ff8c
01b8
feb7
011f
01b5
0025
0059
fecd
007b
00de
fee8
00a0
0168
008e
fe64
ffc4
feca
0238
ffef
008f
0185
001d
ff12
ffe1
ff7d
02a0
ffc4
009e
fe4b
0199
0045
fead
00dd
fe53
fdb1
00a6
ff76
00cf
003b
fe39
fe56
fecf
fdc7
ff97
fef4
ff84
fe93
01e3
ffa1
ff70
fef9
018e
fef6
019e
0023
fefb
006b
ff92
fe3d
fecb
017a
ff82
ff6d
fe39
ffd5
005e
002f
ff4c
fefe
0111
ff96
fe12
fde5
fff0
fe8f
01ab
00cb
fe6b
01a2
ff47
ff14
00a7
ff6c
fecb
0086
020b
fff6
ff50
ff9c
0079
00f2
01d3
ffa4
0047
0036
009b
fe71
fdbb
01de
ff95
009b
fe9b
fde9
fe5a
fffa
fe40
0052
ff21
ff89
fffe
0191
0250
fd9b
01da
012a
0150
003c
00a9
ff8b
0298
fe6a
0216
ffb3
ff0c
ff85
0132
fe09
0097
ffdc
fea7
fe56
ff0a
fd63
0197
0083
00d2
000a
024a
01b0
ffe1
0012
01ed
ff23
fe7c
ffea
ff60
014b
fedb
fee2
fd24
0108
002b
0088
fd54
fe2d
024d
001a
fee8
ff6c
ffb9
00a9
ffc0
01f4
0042
fde9
0070
fecb
ff36
01b0
00a8
fe7e
ffa3
0173
0192
fffd
ff7e
0003
fe4e
ff3b
0136
fea4
01ce
febe
0009
ff74
ff3e
ff4d
fedd
012a
0018
ff73
ffe9
ff54
00de
0180
003f
0156
015f
00dc
fee4
00f7
ff0c
fe98
fde7
fe72
01b2
012a
fe00
00ec
fee6
0239
0014
ff94
ff5e
fed1
0098
008b
0069
005c
fe3d
fee5
0048
003c
ff5b
ffba
ff3d
0025
fdf2
00fd
0070
ffd7
008b
fecf
ff39
ff8b
01ba
0087
0017
00a2
ff2e
fd3d
ffaf
fefb
fef5
00e9
ff7b
fe85
ffb9
0023
004a
ff77
fefe
0239
ff9f
ffb8
0110
002f
ff60
00e2
fe6b
014e
ff53
00e2
ffd1
011e
fe9f
fe5b
ffd2
fef0
fe2f
0055
0033
01ba
0208
ff6f
fea4
0247
01e5
fe7a
0110
ff24
0081
00da
ffaf
01d6
0185
fe99
fe89
ff34
00bb
ff2a
0074
ffa7
ff50
fe41
010e
ffc1
fed6
00d0
00c8
ff83
003e
ff1f
fefb
0332
0127
0166
ff7e
02da
012f
fd90
fe91
fe3f
fdd7
00e6
fe7e
020e
0042
0191
ff00
023e
fe77
fd9c
020d
ff73
fe4a
ff03
024e
feb5
0199
016f
ffb9
fd89
fe72
fdcf
ff23
00ea
009c
00ed
ff17
0079
0298
feae
fd9f
0057
fd09
0275
0109
0040
ff3c
ff78
00f8
fea5
0252
fe31
ffd3
011e
fe13
ff47
fe15
fe97
fe6e
fea9
ff13
0023
fee8
fe6c
fdf6
0055
ff49
0066
0075
002f
01b5
012e
018d
023b
fe34
fd6c
01cd
ff4b
0066
0081
012b
013a
002d
fed2
ff3f
fec4
00d3
0009
0039
fdcb
008c
0038
0146
ff0f
00b6
ff25
020b
fedf
fdec
011d
0041
0162
ff21
ffd3
fea5
016b
feca
ffe2
0107
ff76
0231
fef5
023f
fd9d
0155
fd26
00ab
001f
ffe5
029b
fe43
01fb
fff7
fe4d
ff40
fe9d
fee9
0188
fe92
027e
00c2
0218
ff7a
ff59
0174
ffce
001c
0050
0021
fda5
ff8b
ff2b
feae
fd93
fe0e
fe38
ff69
0252
02d3
00f4
ff4e
fdef
fe35
0163
ff1f
ff81
fdaa
fdcc
018a
0179
021c
feb1
0256
00a4
006c
ffd2
02a7
02d4
fd8a
fed8
013e
01e6
0105
01be
ffb8
fd0d
019b
01b6
0089
0194
ff45
ffeb
00c4
ff9f
00f4
0225
00a1
00aa
febd
002f
0036
006b
0083
ff30
fe9a
ffd5
004f
0151
015b
fe63
ffc8
fe84
00a7
0126
feea
0223
0044
ff0d
015f
fec6
0165
00e8
00c7
fe47
ff10
fe48
00b8
014d
fefe
fec3
fe5b
010a
ff4d
006c
00b0
fe26
feb6
ff6c
ff9b
00ae
fff1
0109
009e
fe9f
fe24
01d2
fe01
fec8
0185
0079
0125
013c
01d8
01b1
00f1
feba
00b5
010c
003e
018a
ff87
fec6
fda4
0012
fe83
ffb9
00b0
00e7
ffe2
002a
017f
00da
ff1b
00c9
0034
0090
0133
0072
0142
0208
fe3f
0035
fe52
0153
fe78
fe86
0134
00af
fe6f
008a
ff87
002a
011d
0082
ff4b
fff3
0061
01bb
fed8
ffd6
fec2
0170
023c
fd90
002c
fe31
019a
ff7e
ffb0
fed1
ff6d
0124
0110
fe84
01c1
00b4
ff53
fdce
ffa9
fe89
fec0
fedf
fdfe
0152
feb5
ff7c
0094
00b3
001f
ff1a
001e
fdda
fe8d
fe66
00fd
0194
ffeb
0081
fded
fe78
0015
006e
0065
0121
fe87
0258
0035
fd88
ff24
fe8b
fe5b
00c5
fe47
01ac
fdd7
ff24
0128
01bf
0115
00a1
ffee
ffb0
fe2a
fdfa
ffa2
01da
fe47
ffc7
fdc9
ff91
fec3
0057
ffe4
012a
ffa0
ff7c
0030
ff6e
0230
01d5
0018
fd6b
fdf5
ff20
ff71
02a5
001e
fd9b
008f
ff3f
0180
fddf
0274
fcc6
0085
0113
fecd
ff03
01a4
0253
fcd3
ff4b
ffac
0000
fd7a
0141
018e
fe15
fdfc
fe65
ffaf
fdf3
010d
ff94
02af
0007
ff1b
fecf
fec2
000c
ffba
fe15
0088
ff16
019f
013a
ff92
0165
0191
feed
0274
028f
0120
fff2
ffe2
fd46
fd1d
0100
005e
fec9
fd7f
0140
00de
018e
00ae
fe92
ff6d
0019
0118
fead
00fb
01ae
fd82
ffbb
0049
0135
fd5d
fee0
ffa6
ffcc
fe27
fdce
fe6d
007b
ffb3
00e7
020c
fe20
0250
fed0
0186
fe6b
01e8
fee3
fef3
ffc8
ff22
013f
fe40
02dd
00e6
ff38
0008
007d
0206
fecc
00c5
ffb9
fde8
0063
017c
0091
01eb
0179
0001
0058
fddc
fd08
fe17
00e1
00f3
fe87
feb8
fe69
ff85
02b9
feb6
00e7
0138
ffe5
00d2
006c
ff0d
febc
0149
fea1
fe05
010f
ffcd
0193
ff0e
0126
ff1b
009a
fe5d
ff10
0083
ff79
fecd
ff87
fed0
fe38
fddd
ffa5
00c5
0013
fe95
00b0
00ec
fe46
00fd
0087
00e8
004b
ff7a
00eb
fe85
0148
fdc5
017b
fe1f
0102
00c5
fdeb
014c
0147
015e
009d
fdf6
00e8
0159
fddf
ff2a
012b
00e7
018f
0121
fff2
009f
00ef
ff37
0170
00e8
01f6
0028
fdb0
0256
ff70
02aa
000d
01b1
0122
ff19
ff77
0311
00f2
019e
feec
014d
ff31
004f
01bd
ff38
0094
011f
ff96
00b5
fd33
014a
ff8b
016f
017c
ff1b
ffe6
ff25
fff6
fe77
fef5
0218
fe69
ff89
016d
fd38
02ea
ff49
feed
fe83
001e
fe79
01b4
01cf
00fc
00cf
fe32
fd83
fdf1
fe34
ff38
ffa1
0125
fdae
007c
fda9
001f
ff50
fda2
fdcd
ff21
ffc9
fede
0238
fff9
fd63
015a
fdab
00bd
fe58
fd5b
fffc
0162
0018
ff94
0004
00bc
ff15
fddd
018a
ff8a
0052
ffaa
00cf
0214
0100
ff1e
01ff
fe15
0058
ff06
0130
002f
0067
fff2
fd1b
00e8
015c
0070
ffe3
ffe6
0110
fed8
fe56
007e
01bc
00e2
010c
fd26
00b4
02e8
fedd
01ff
0045
0203
00cd
fd9a
01ff
fe02
fdae
ffc8
fe99
ffde
0307
fe63
ff6f
fd40
fe44
01a8
ff33
0210
fe1d
fd6d
0134
ffcd
00c2
00dd
fef3
00dc
ffd5
00a7
fe3c
0024
ffcb
0047
fd9a
00ec
ffe9
0221
feab
fe42
fe29
013d
020f
026c
ffa3
0084
01bf
ff86
0117
ff2e
ff56
fe8f
01e8
ff7c
0209
0040
0023
ff8e
fd9e
feb3
000c
ffd3
ffd8
ff87
fef8
0105
fead
ff92
00a8
fe19
02f4
fd90
fe85
0049
fe1a
fdd7
017a
fd27
018b
ff80
0142
0086
ff66
feec
fde9
ff1d
0076
0150
000b
01fa
fe3c
0196
fff3
ff12
fec1
00fe
ff77
fe4a
fe18
ff55
00b7
0120
01ee
fff2
016d
fe5d
00ea
0104
0149
fed8
feb4
0010
ff8f
ffba
febb
fe10
010b
ff7b
ff90
014c
ffd1
0203
01a4
00e8
fea1
00e4
ffe7
00b9
0190
fe43
ff82
01ad
007a
02cc
fe3a
ff30
fec6
fe8b
fd97
ff96
00ff
fef4
0180
fdba
fe47
fee1
00bb
0031
012c
ffec
fdf4
ff62
0076
011e
00b4
00d1
0052
feb4
00c9
013b
019e
0216
fef8
fd9a
fea1
ffa4
0151
009f
fe67
0118
ff4a
fe39
ff02
021f
0150
00c3
fee4
ffaa
feec
0041
fef7
0208
ff40
ff78
fe7c
fdd7
008b
014a
ff92
006b
ff33
018b
01e0
fe4f
fe54
fff4
fd9a
fe79
0029
fffb
fdbc
ffae
000e
020d
fda9
ff7d
0044
fe28
fffb
017f
fea6
fe96
ffdc
01e1
fe63
fe14
00ff
01be
0076
0099
0062
ff69
0033
0022
fead
ff00
018e
ff95
00d2
fdb0
fe5d
fffb
ffdd
fe95
0066
01a9
01cd
023a
0202
ff85
ff3e
fde0
0117
fe43
015f
018f
00f9
00a1
ffa9
021e
0168
ff10
014e
0167
018f
fffa
0125
0152
01c7
fe46
fe42
ffdb
0040
028f
ffe6
fe28
ffde
016f
