0139
ff48
ff6d
fe87
0093
ff0a
fdc1
0305
02aa
026a
054f
0279
fed2
02f2
00e4
0061
01d3
fcf6
fc9e
0304
0066
018e
0219
017f
0159
00cf
fef5
fe85
0287
0259
ff0c
ff63
ff39
034d
ff85
0234
ff10
ffce
00fb
fd82
015f
fc9b
0359
ff17
0103
fed5
ff13
ff7a
fe02
ffda
030f
0258
005b
fc4f
00ff
00a5
0030
fe3c
fec1
01d7
fe67
fffc
ffdf
fd0b
ffea
fd2a
fde7
0053
012d
03c0
ff76
fe3a
ff01
ff88
ff85
fe4b
0167
01e1
fbb8
fda3
012b
fe28
0075
037e
ffbf
ff0e
0218
012f
0133
0164
ff74
0180
0035
0201
ff64
fc1a
019c
fe2e
fda7
ff4d
ff40
fde1
01ff
fde5
0199
fe9c
005d
001b
0217
ff59
fd12
fe21
fd08
013a
02ee
fdf8
0006
ffa6
0084
fdfc
0015
ff11
00ba
0028
ff9e
000f
017a
015d
0479
fe27
00fe
fe2d
016e
fdfd
0309
00d0
0177
0060
fe93
ff8d
ff35
fea0
01eb
fce8
fd62
0285
0450
0199
01b7
fe41
05d8
028a
01f8
0112
ffc6
ff73
fcb1
0250
01a8
ffc7
000d
0351
02d2
ff62
fda0
ffc9
020c
02bb
ffb1
0132
021a
00a6
ff8d
001e
fed6
014d
fe20
01cb
0140
ff79
04e8
ff98
fcee
0211
015a
ff4d
007b
0034
0222
ffc5
0261
fee6
fdf5
fe90
ff60
0278
02ed
0214
fe1a
fc55
00aa
0025
012b
0202
fefd
0037
ffe3
02db
ffb8
ffe5
ff2d
fe43
ff26
0010
fe9a
0130
fcd5
0035
0062
fd8a
01c4
ff43
015b
fe73
fdcb
ff79
fe52
0086
fe9a
fe9d
fe62
fba9
ff53
014b
011e
018b
0047
02ee
ff28
fe7e
ff7a
03e4
fe11
023f
000f
0369
01d2
0302
ff0e
fea9
ff87
ffae
fe45
01d3
ffb2
0038
014c
014b
029f
ff98
0003
00e6
021a
fe8c
ff6c
0093
01cc
023d
fc22
0173
0001
0014
00c8
fdd2
ff00
fec3
0052
fd6b
0001
03f9
0050
ff9b
ff94
0114
fff1
ff27
fea0
ff9c
feae
ff6a
0466
0182
0134
fc8a
fdd3
fe72
00a7
01e2
ffc2
01fa
010c
0359
ffa1
fee8
fc0d
ff66
02c4
01ca
fcc4
ff5d
fdaa
0157
ff3c
0125
001a
03a8
ff14
002d
0010
fabf
ff86
007d
fd58
fd13
fe6c
0078
0109
feb6
fed0
fd57
ff99
0157
00d6
fe6f
fc56
00b2
020a
fe7f
0378
ffc6
0187
010a
fd24
0073
fe4d
ff43
fedd
012b
01cf
0327
004b
fddf
fe4c
fed8
0246
fdba
01d0
ff1f
0187
fd99
0282
fe56
0395
ffaf
ffe5
001c
fe40
0322
ffe1
000f
00ea
0256
fd9b
0380
fcdf
f9c9
fba0
fdcb
fb6f
0276
00e6
fe5a
ff82
ffbd
00e1
01cd
ffd6
01b1
0369
033a
00cc
044e
fde7
ff66
fddf
007e
fed8
0228
01e8
038e
009d
feb2
fffc
fe01
01ea
ffc4
00e3
00eb
ff03
02e6
ff6b
0164
00cc
02e0
fd28
02c4
ffb3
fff2
01b7
fe6c
febc
fd10
fddc
fe53
0255
00a1
ff5b
fdf1
0159
0121
0164
fd3d
fe50
feec
fcdb
01ef
ffa6
02b0
feef
02d5
0046
00d4
002b
ff7f
012d
ff0d
fdac
0265
fe85
fd2f
ffcb
0176
009c
0091
fd67
ff24
ff4f
0083
fd7b
0079
0188
fd53
0117
fe62
fdb8
01c8
fc8e
ff61
00d4
0113
ff79
0115
00b8
ff6e
0186
ff76
006d
ff15
fda0
fede
00e2
fca2
fe1b
fd79
ff63
0212
01d7
00cf
fecf
fedd
02e8
fd92
02d4
fdfc
ffba
fded
0174
fcfc
0207
ff6e
ffc0
fe0f
fdee
01f8
ffeb
0150
0175
fc95
0436
ff8a
015c
0027
fe22
fc6c
02ef
02a0
fd2c
007c
00a2
0240
0065
ff3d
ff54
fcc1
01e0
ff9c
00a2
ff39
fd0d
0117
0267
0228
fea4
fe93
fe5d
fc33
030e
003c
ffc4
0635
015f
03ca
fc37
029c
0424
fed7
0027
fe64
04f2
fed3
01c5
010b
0000
024d
fc2c
ff5d
fcd6
ff7f
fd1f
032f
0089
fdac
021d
ff3c
02f9
039e
fd87
febf
01e8
0226
0342
ff80
0124
0279
00b5
02fc
fa0d
ffc2
febe
014a
fba2
fb8a
001b
fd0e
ffd2
ffb3
f9e1
fd78
02da
ffe4
fed4
fd7c
fe5a
01f0
00cc
fdd5
0278
ff5e
021b
fece
0403
01dc
01dd
feae
ff72
0010
0194
ff0e
0121
0166
0296
026c
fe3a
0151
03c5
fe82
01f3
fcff
021b
01b6
ff3e
fc44
ff11
01ac
fdb7
ff12
0011
02ac
fe2d
ffa1
008d
0021
00ae
fdcc
fecb
00bf
00fc
008e
0192
02a1
fdb5
010d
00b0
fe16
0388
fe86
fd45
fd96
ff4f
ff23
fe21
ff70
0114
fefd
0065
ff0d
ffac
fe17
028c
0158
ffd1
ff56
fec6
fcb2
01cf
ff16
01d1
008c
ff9f
00dd
0036
fe08
ff6d
fced
feea
ffdb
00f4
fea1
ff51
01c7
0025
fed4
0095
0068
ffd2
0028
fb6f
01d5
ff8b
ff42
0260
00a2
ff36
fe8c
ff95
ff46
00db
0112
01d8
0303
01d0
fe4f
001d
0091
0348
fd83
0093
fd73
009c
02b3
fd65
0123
fe25
fe78
029b
ff4a
fff8
0235
0253
0296
fd5f
fff8
007e
fe9f
ffaa
0204
012e
ff93
fdb0
fe40
fe79
01a4
fefa
02fa
0076
fdf8
00f8
0119
0114
00d9
01ab
ffed
0154
fff4
ffa7
fcbf
0012
fdfb
fda0
0023
fe87
0327
fe4f
ff52
fe82
0099
0106
ff18
03b4
01ca
ffe9
003e
01cc
fd81
fd66
0095
0062
01bb
027c
009d
ffef
015c
01d6
fcf3
ffdb
fdf5
015a
0082
03d8
0024
fed0
037f
0235
fe5e
022a
0122
003a
ff00
0172
01c7
0187
0093
02cf
0132
01a0
fd27
fcbe
fc3c
0195
ff87
008b
fc8c
ffc1
fbb0
01b7
ffdc
fefa
fdfc
023b
fcc7
0042
0183
ff5a
fed8
fd0d
fdf8
0235
fda9
0017
00d9
0224
fe22
fc5b
fd75
fec0
fdf1
017c
0278
fd71
01d6
01e3
00a7
ffcd
029a
fe84
031b
0401
002c
fdfd
0226
fe5f
ffd1
fda2
ffa1
fd21
fcc1
ff25
fe67
feba
fe63
0021
0258
0309
01ee
0149
0054
fdd2
01d8
ffad
0142
03ca
fecf
000a
01b9
ff48
0207
fedd
003c
ffcf
024e
0208
fe37
05ac
ffdf
02bd
0153
fde3
0152
028d
fd41
0218
0042
01b9
fdbc
ff5f
fd59
fd40
003c
04b4
007e
00ea
0012
00ac
fdfe
fe74
fe87
fdca
fe30
fd9a
00a4
fce4
fee8
0093
0100
015a
00bf
00c2
ffb0
fcf5
0252
017c
fee5
ffcb
000c
0085
fd2d
fff6
018d
fe02
fd02
0100
009a
02b9
01b3
00fa
0230
fe2f
ffd2
fcea
002b
fe34
0007
0068
024c
ff47
04e9
fd8b
fd05
fe2e
ff56
00ec
022c
02eb
fe42
ff63
fcfc
0206
00dc
021b
0034
fc99
ff5a
fd5b
ffe0
00d3
fefe
0029
01f8
fd68
fe1a
0354
fd13
00f0
0019
0133
0172
ff4c
0155
ff7e
0036
feae
fd9e
0086
ff18
02c4
0090
015c
013d
034e
0155
011c
ff7d
0165
febb
00d3
015c
02c7
fcf1
fe42
029e
fe65
02f3
0093
fe54
00e4
000c
0060
0356
00f7
0151
0147
0045
0323
ff83
0041
fe01
fd86
019f
fd97
0100
02ca
ff83
fb8a
feed
ff87
0003
017d
0064
fd8c
ffdc
022e
fde3
fe4c
fed2
03a3
0249
fed0
025a
0180
0035
0240
02d0
fdda
0121
fdc5
0130
003e
fe83
fdbd
00d9
0153
01d1
ffae
0135
ff03
fe5b
002f
03ca
fee3
01a7
fc5f
0068
fecc
fe43
007a
fbfb
0004
feb6
fe83
0191
fd69
0071
019d
00f4
fe1b
00b7
0444
0213
fd5d
fe4a
0158
fe60
fea5
ffa2
fe88
014b
fecc
ff5d
0236
00de
0132
ff6c
ff5d
01cf
fd0d
0192
042d
ffe0
fdc0
005a
0018
fde0
ff67
fdaf
02a0
fe3b
014d
ffe5
015a
0253
00b3
0037
fc05
ff5a
fe9e
0027
fef6
ff68
00a3
038c
fcd3
ff2f
0294
fee3
0243
ffa9
0160
02d0
00e5
0276
ff38
ff96
fec4
02b4
fe07
fcfa
feec
feaf
01cb
01e5
ff59
0262
0250
fe80
01bf
fcfc
fd45
fef6
fcab
0417
0008
02d7
fd4a
00f2
ffe0
02d2
fe45
ff41
fd0d
0190
ffce
006c
01d0
fcd2
fda0
fac1
02f8
0001
00f0
0469
0032
fe1b
03b5
011c
fd8b
fff9
0010
023e
fd57
ffcd
fde3
01fd
fffc
feee
002a
02ac
fed1
00de
feb2
ff07
030e
0063
00a8
fd97
021a
0249
00f8
ff56
fdda
03f5
030d
007e
00cf
0152
fe8d
00ff
0009
0290
036e
fe12
fc32
01c3
fd60
020c
0065
fce4
033d
fd65
01a4
01b6
fd03
fd4b
0269
feb7
ffd2
fd3b
01e8
00ad
0162
01b2
fc7f
035e
013f
0024
fcdf
0087
ff0a
fdf3
006f
fe97
02d5
fbe7
0084
0041
fdac
ff42
fc1e
000f
013b
0168
01b3
ff0b
018b
febe
ff21
fdb8
0299
faa7
ff8d
ff93
0235
ffb0
ffa8
02a1
0072
fe01
fe3a
fd84
014f
01ee
004e
012b
fed7
0122
02ca
ff2c
00ce
00d5
0024
0318
00b0
0237
0094
fed3
00e1
0041
feed
0182
0069
00ab
fc40
ff36
00f5
02e5
fb81
fdf4
fdec
fffe
0120
00e5
febc
ffe5
fdf3
fdf5
fe03
fdd3
0312
ff2a
004e
fe9c
0268
00ae
014e
0277
00dc
01ea
00c8
01d4
0137
0016
026d
ff86
fe26
ffb7
fe8f
fe22
fed5
0050
fe29
021a
022e
0122
01f0
00b8
ff79
012e
0018
00e4
fc97
fdda
0273
003b
fcfb
ff65
ff0e
ff53
01e7
01aa
fef0
ff65
ff69
0149
0017
fd3f
00ed
000d
00ef
0191
02f8
010d
016a
0108
03ab
01c6
01a2
fee5
03b6
040a
01e7
012e
ff29
0390
fce4
fef0
015e
0156
024a
ff50
031b
fdc2
ff0c
fcbe
fd47
ff5f
fe7e
018f
0318
fe85
fd0c
00fc
fecb
0080
fd24
027f
ff61
fcfa
fc2f
ff91
ffc0
00c8
0012
0236
0160
febd
fd8c
0085
ff38
ffde
0206
02aa
0113
fdf1
fd43
fde9
fd99
ff6e
0048
005d
027a
0114
fec6
01ea
fe7c
fd57
ff0b
0294
ff25
004f
00d8
feec
0281
ffa7
feaf
0065
fee9
0077
0251
0079
ff4b
fd3b
0196
0096
ffd1
007f
02aa
fe17
ff80
fd71
fd45
fd3e
00f7
0215
fdbd
0194
011e
0114
fd66
0036
fdf5
fca1
01f5
fd81
fe0f
fc27
fc1c
023a
ff07
011a
02f4
00a9
fef4
fccf
02f5
fee5
00ce
01aa
01f8
fe16
00bd
ff99
fff9
fdd5
00eb
ffc3
0136
002e
fd6f
fe9c
ff34
fd3e
0065
0085
fd49
fe1b
0049
00fb
fe0d
0087
0235
0209
0544
fffa
ffbd
fd5a
ff08
fd70
0031
008f
ff48
fe38
ff15
0182
ffb3
0299
fe14
0042
0227
00a6
0366
fc9d
007d
009b
0189
02fa
007e
00c0
fe06
0398
00b7
008a
01c4
fe51
03bf
ff82
0091
fd86
fefd
fff0
fda2
fff7
0083
fca5
ff57
ff0a
fda5
0046
fd39
0282
fbf7
feb6
fc54
00d0
fd82
f8d5
001c
0001
fb9b
005f
fe2f
ffb4
ffe2
ff20
ff66
01ee
ff5c
fe42
001c
fdb1
0041
fe8d
ff4f
fee2
fea0
00ba
ff70
02c5
ff32
faba
0105
fd3a
0205
ff1d
fcc6
fb7f
01eb
012d
0176
0118
fe8f
0322
0090
fd04
0036
01ed
fd47
fcb5
014f
fffc
fcb0
fd62
0264
010e
01b5
ff1d
0240
fee2
0169
000c
016f
fe48
fe41
ff33
01e4
011b
ff31
0034
02f4
ff01
ff44
ff8e
ff9f
fd1d
febb
ff0f
0372
000e
0041
0005
008c
0027
ff4b
03c1
fe56
ff00
ff04
ff12
fd9b
ff4f
0202
029f
01d8
fff7
fd3b
feae
fd48
fe53
031f
fea1
fff8
fd3b
fe47
0077
feb6
ffa5
ffaa
ff45
fecc
ff0c
ffaf
fde3
01a4
ff00
fefa
00f1
0082
ff82
fecc
fd88
00e2
ff7b
00fa
025d
fe8b
051a
02b8
fff4
ff6c
0118
01b1
ff92
030b
fcf4
fdf9
ff1d
fae6
0269
0357
ff7c
ff0c
0236
fe96
ff36
ff49
ff27
0115
ff47
fec6
011b
0142
02be
ffc5
01e4
ff39
fe74
fe69
fda8
fc8a
ffb6
fe69
0069
0114
0174
faf8
00fc
ff40
fdc0
fe75
feb1
fa6f
ff60
fdfc
fe5a
0267
fd72
020e
0390
034f
018c
fefd
01ef
02fb
fde4
01bd
ffb8
02e6
023e
fef5
0199
0323
009c
00f4
fea0
005b
fdba
fcfe
fd34
fdff
fee5
0381
0039
033c
01c3
0267
012f
ffd8
0060
00ee
0298
039c
024c
014c
fe65
ff9a
ff0d
0181
02b6
00e2
0380
ff5f
0057
025c
fca6
fda3
fd60
01cd
ff35
fe46
ff55
00bb
028d
fd74
fecb
fd31
fe1b
fdf6
0185
ffdc
01e0
0120
fe0e
00f2
fd23
ff9e
ff07
ff48
015d
fd7a
fd70
fe62
fdaa
015d
fe44
0265
feb3
0098
0122
0214
fbfd
0200
00b9
fff9
0009
fea2
feaf
039a
00cd
044c
fee5
fe64
ff5f
022b
fed2
fc6a
ffd2
0187
ff4b
0055
00d3
0416
001e
0019
0081
00c8
0183
034d
fbd6
fef0
0305
0084
01e5
02ce
02fa
ff53
0150
fe73
00b4
ff6f
ffac
0064
003e
0103
fd27
0034
fe95
01b8
00b4
ff94
fe5b
023b
fb89
0118
fcfd
fd7e
02d3
05d8
0236
ffea
ffda
fe6f
0269
0057
fe5a
feb8
0207
01f9
ff97
fc4f
fe28
00e1
feba
fe8c
0048
ff25
ff83
00ec
fc91
024f
ffa7
fd04
0352
fd54
fd84
013c
0134
0238
01d4
fecc
00d4
013d
fe8c
00de
017d
0138
febe
ffe9
ffa5
0047
0380
fdd5
ff46
ff38
0352
0400
fd45
fe8a
00e5
0161
ff40
0086
fef0
023a
018e
022e
00e3
013a
01d2
021e
fdae
02c9
fd67
0087
01e1
004e
feda
01a2
01a6
ff91
fe48
0115
022a
0017
ff03
0094
fc7e
fbde
fd5b
ff46
0210
00d0
ff3d
ffc3
fdca
fdbf
00d5
0139
01fb
ff43
fd43
025a
ff95
0043
fd67
fdc3
0198
02e8
ffeb
fcd3
0092
00ac
fe03
ffcd
fdd7
ffe3
fcf4
01c7
fe9b
ffda
0047
0044
006e
0138
02e6
ffeb
ff45
01b6
00b9
ff09
0090
fd47
fe09
0137
029e
ffc6
ff8c
fccd
017f
00ec
000b
0118
00fd
030b
0275
0146
02d8
fbf4
0271
0380
0152
02c9
01fd
03ca
fe17
00df
feb6
fe31
ff81
fe67
00f0
feb3
0289
00ac
02a1
fd48
ff35
0292
0224
ff98
fe91
017a
04ce
01ce
043b
000f
feee
002e
01ed
015d
fdb4
ffdb
019e
ff34
fd8c
fdf5
013c
ff59
fe08
0179
0181
fdbf
0014
fcae
0051
fe9b
fec0
00d1
007d
ffb6
fc7c
ffff
fdb0
fdcd
fe3d
fedf
fd4e
ff77
0116
00ad
fd00
0097
0074
fe49
fd47
01b4
015e
fd9a
fec9
009e
ffad
02b7
fb79
fcd8
ff29
009c
035e
00e2
ffc9
011b
02e0
003d
016e
011e
ff78
00eb
ffae
ff8b
fe00
000c
005e
00ed
fef0
01f0
fffd
feb7
025c
019a
fe0a
02c4
015e
01c2
fe3f
0175
fc37
015c
02f8
ff58
02d0
0280
0067
02f0
ff14
ffc5
fd25
fd44
fc58
0144
0070
fe92
fff1
fe7e
019a
fd5d
fdad
fe61
ff2b
021b
ff96
fae7
037c
0111
025e
fe2c
0060
fecf
0070
fdc1
01ef
031b
fd5a
fe3c
000d
01c4
ff20
001d
fe0c
025d
febd
fe1a
ff2d
ff3e
03a3
019b
0188
01cd
ff12
fe44
fcde
0290
034a
0080
0075
00a1
fecd
fe8c
0161
fe77
01ad
017b
00f2
ffab
011c
01ad
019d
ff33
0405
00f1
011d
fe87
ffe1
ff66
fdbc
fe79
044a
fdce
01e2
ff78
0299
fdf6
0047
005b
fff4
00e8
ff26
fe8e
02e8
fcd3
012a
ff6b
0208
fee5
0297
0429
0020
ff3e
02e0
fe72
026c
fde8
fddf
0118
019e
002c
017b
001f
0135
ff1a
fe33
0240
030e
0178
0081
01d3
0230
ff75
03de
01fc
0230
fd7c
fe55
ffac
025e
0052
fdac
fd1e
ff46
043e
fe54
fedc
fd78
02c6
005b
fcc9
ffe7
01c4
fd89
0003
ffd5
ffbe
0133
fdab
fe87
ffd5
fe95
035e
01a5
ff69
fe6c
024e
feb1
015d
00fc
0276
ffba
00db
fe04
fde8
00a7
ff5b
0076
fd88
004d
fe70
fde8
04df
fc0d
ffc1
fea9
01d1
fe1e
ff54
00fe
ffa5
ff64
ffa5
fe1c
026a
0241
ff6f
0199
0135
027b
fd99
0406
fe22
00b3
fd8e
fd06
019e
ff42
fb3d
029a
01a0
020a
01f7
fda6
fed2
0139
fec7
ffd7
fcf1
0132
026b
015b
03b5
0004
ff29
0489
0107
fd51
0181
ff20
ffbd
0093
fe44
ff3f
fde9
0100
00a0
fd90
0098
fd02
00ba
fe3c
ff85
0199
ff11
0231
fe15
fedf
ff79
02c3
fe2b
ffb3
0104
00f1
fe5f
02a5
012b
fe92
fd1d
00d0
0033
02d0
fde4
ff67
fed1
fee3
fc84
00ff
0224
ff04
fd37
fdf0
015e
0135
fe84
fcb1
fe6d
ffb6
fcff
feda
026f
ff71
0008
fc97
0049
ff3d
0111
fe12
fe24
fd3c
fccb
ffc7
00b4
01d0
0356
02c2
0253
fda2
0093
feee
fd65
0218
fe1e
ff37
ff37
01fe
ff02
014b
fe08
ff15
0318
0189
00f8
021c
fe29
fd90
ff7b
005e
0199
0174
00d4
fea4
fdf6
ffdf
fe59
fd11
019a
0028
fdd9
ff68
02bc
fba3
fcc3
0102
0045
ffff
0279
ff54
0216
ff10
fc8d
0150
fe69
0003
fe4c
fc44
ff00
fe43
036c
fd59
014a
0296
01ae
fe59
fec6
fd82
03f9
0260
fe90
0398
ff4c
046a
fe9c
ffe0
01c9
fd7a
012d
fe81
0057
0185
fca9
fe9c
009c
03c4
01b2
fd3a
0049
ff47
01dc
fefa
01de
00d6
0052
00c4
fde2
01e1
fe8b
00e6
fd6d
fcfe
006c
00eb
031e
ff9c
fbc7
00ad
0151
0129
00b6
007e
016a
00bc
fecc
fdca
fc95
fc1b
02c7
0047
00ab
02ea
0197
015e
0296
023f
ff5f
fef5
ffca
fc12
fee9
fd21
fd46
fd0b
002b
0087
fdca
0056
febe
fe92
fe56
ff87
fef9
fda1
017a
ff69
ff3d
02d2
020b
0139
0063
0030
fe09
ff26
feb6
0032
01e7
fdcd
016d
0275
ff09
ffa0
fc94
fe64
01f4
01cc
fc0d
ff72
0174
ffb7
fdcb
fb98
0267
0331
ff71
0225
fe28
0175
01a0
ff91
fd6e
fe2a
ffdd
fdd2
fcdc
ffd6
0018
0160
fe4f
ff48
fd56
003b
0324
fd21
01c4
0064
ff57
fbdd
00d8
05fa
0332
00d5
006a
fd25
0228
fcab
ff90
fd7c
fec3
025e
ff0c
fdd4
ff1b
fd3c
00e6
011c
0388
0085
fec6
fd9c
fdfe
01fe
00e6
04b2
fcc4
fe80
ffb8
fe93
fdd1
012f
feb0
034b
0090
014d
004c
ff64
020e
015d
febc
023a
fef9
0134
009c
0108
0151
0092
fdd4
fe0a
02d6
0018
00d0
fd2a
ff6e
008c
fe1f
009f
fb7c
0330
f99b
01e9
01ed
ffae
fc7e
01b4
faf8
ffe2
fa33
017f
02d0
024b
fced
ff87
fdd6
ff5c
fdfd
0026
017c
0061
fbc2
0269
fcd5
0244
fde3
fcdb
00c9
fd1c
ff56
0254
fd10
0052
03ed
05b6
0049
ffb6
fd80
02bb
fb2e
0297
fc98
fec1
0006
0114
02bf
00cf
00f3
fe1e
fe8d
0256
01ef
ff2b
fd9b
010c
fd2f
0196
0061
0111
fef5
fe3a
015e
002b
00ee
ff1a
0274
ff7b
031e
0042
ff5e
fec9
ff2a
fdf4
fdd1
0063
0159
ff85
fd02
02aa
014b
01e9
0198
fef8
fdb8
fdaa
005b
fe41
ffb3
fc1e
00f5
01f2
fce1
fe90
0153
0138
ffcf
0079
01fc
fd14
01bd
02d4
fca9
ff8e
0009
fd16
01b4
fe8c
0372
ff6d
ff94
026b
fffd
01ae
fc5a
014c
02f4
fec5
fdcd
ffda
ffa4
fdcf
fef3
0420
feaa
fe1f
02b0
021b
0505
00d7
ffaf
ff11
ffc7
ffde
ff2f
fce8
fff7
03a3
ff1e
fd22
fe2f
fd6e
00e4
fe13
0076
fe94
031a
fd74
fd48
0138
ff24
0175
ff33
0107
fc96
0087
fd4f
00e5
fd91
0025
0010
fd1a
fbaa
004b
04d5
fcde
0034
00e6
0137
034d
fe58
01eb
fd60
ff59
0273
fc86
fea9
fe2f
fc5d
fce7
030f
fef1
ffe1
ff99
ff5f
0134
0313
fff1
0289
ff21
007e
00fe
01b5
fd4f
0294
00f2
0132
0241
fd72
01d1
fdae
fd18
fe43
01d1
fce3
fd1d
ff97
fb2f
fe25
fb37
ff1d
ff82
fde0
02c6
034c
0351
01ec
fe9d
0127
029e
ff42
000a
00c0
ff59
fd82
fcf8
fba0
fda0
fc6a
fd10
011b
fe17
ff79
01bf
02dd
fc69
018a
ffb6
fe7a
018b
0102
0184
ff18
0034
0004
fe7b
fe0b
fc83
005d
0085
fdba
00d8
01c2
feee
fdce
fd7a
000f
012f
fef6
024f
fec8
00bc
013a
0000
0051
fdb4
ff3a
ff1e
018c
00db
fff6
019d
002c
00ee
01e3
0053
ffab
fe27
fd75
fd2b
fd67
039c
fe71
0216
00cf
ff0b
ffc6
0070
ff7d
00e7
ff86
01eb
013d
fc85
fe1d
ffb0
0367
017c
ffc8
fb9e
02cc
011c
0220
ffdf
ff26
febf
007b
fe1e
fed7
00ed
02cc
fff6
fe09
0179
0090
0245
00a5
ffb4
010f
00b5
010c
ffb8
0132
fe5a
ff78
00d8
ff32
fd67
0384
ffb8
0024
fcd6
fe86
ff2a
01fe
0153
feda
0159
00ba
fe2a
fe5d
017a
fd83
fbcd
ffd6
fefd
0062
0369
fd7e
00c0
ff25
febb
fc8c
fe83
ff36
0078
0142
ffbe
000a
fffd
0279
01e3
037f
003a
020a
fe09
00ec
0240
fcbe
feb3
03cd
00c7
faa1
019b
ff8a
01f6
fe90
01f7
fed2
01c6
00dc
fdfd
fe04
ff4a
fef5
ff4f
ffd9
fed6
0489
029d
ff00
0361
0212
00dc
fe5e
0174
ff57
fe31
025b
02a4
0300
fdbd
fcfa
00a3
fcdf
02d7
fd19
01f5
0125
0070
fe7f
fe3a
fe21
0231
fdcc
fdd3
febb
ff47
02f2
006e
fcad
02d4
0584
0156
012f
ff84
fe9f
ff31
0257
0008
01ad
0155
0214
ff7e
fee1
0692
fe37
fd6b
fab7
024a
01d0
0041
ffbe
0044
00fe
fe23
0183
0398
fd33
ff54
fe5f
0084
fea1
029a
0343
fef1
0226
fe00
fe14
0128
ff00
023d
fd91
fcdc
fd8c
0214
fc7b
015c
feb3
ff75
ff55
00a5
003f
ffb3
ff85
fe43
02d3
03ec
00cf
00d0
ff41
ff30
0206
ff26
0208
ff9c
fef5
febf
ffb3
fe0d
044d
fe25
02a1
ff6f
fe23
fd2c
022d
fb92
0373
0230
02b7
02a7
0226
ff74
00e7
fe66
ff68
fea0
fdeb
feea
01aa
ff3b
ffd0
0054
01c8
00c6
fda2
0319
0249
0103
0263
ff6c
febd
043d
0319
01f7
fc03
019c
0212
fe6a
ffe7
0109
fe91
001a
fcda
fdcb
fe5d
01fd
00c6
0052
01e2
00e9
014b
00fd
0059
ff6e
01dd
ff02
fedb
0293
0119
005e
0346
ffbc
007f
00aa
ffd6
fe8e
ffd1
00d8
fc2d
fff4
001e
0063
fcb3
014c
fe50
013f
ff13
fe39
0008
031a
0228
fd1e
fd04
fddd
fffa
01ad
0013
fcfe
0020
ff77
fe34
0020
ffab
fd57
ff73
00a9
019a
001a
fd42
0134
febe
012e
ffd0
0353
fd5f
fed7
fee6
01f9
0200
0340
fc5c
006b
fece
fe87
0151
fe85
fdf0
0152
0207
01fb
ff0e
0322
0005
ff94
ff9d
01a3
0159
fedf
0080
ff06
01f9
00dd
016d
02c7
fd25
023a
fec2
fff1
0270
01eb
fd5b
0133
02cf
fda8
fef2
ff9a
041e
fe0b
fe7f
032f
0442
0125
fbe1
ff81
02e8
ffe5
fefc
005c
005e
0288
fe7a
0312
fd32
fd8b
ffcd
0078
ffb2
0111
ff02
ff1e
ff28
ff63
fe2e
ff06
00a1
fe1b
fe96
fe21
ff8a
feb0
0147
0043
ffc0
fe34
ff1f
fe4a
00d4
fdbc
0079
fe02
ff12
006e
0146
00a0
fe59
0222
0363
02eb
000a
025b
0322
ffb7
ff2a
006b
02b2
fe51
00e4
ff10
ff42
0098
fe37
023c
ff73
01c1
fe1f
01e5
fe1d
0025
014b
0045
ff97
ff0d
ff38
00b7
fe98
01aa
00fd
017e
0338
01ff
0035
0177
014e
0046
00b7
02cf
fe42
033f
02bf
fffc
0520
fda5
fe49
0458
ffe4
0202
00e9
0123
fcb2
0147
0224
00ac
029b
00e1
fea9
fe8f
00fd
0201
ff9e
fe4e
fb70
0223
00f3
0200
fd27
000a
fe26
fc53
0180
ff0f
0127
0078
0303
ff4f
0251
fe9b
ffc7
ff53
feaf
fdf0
011b
fe51
fda8
0136
fdce
029c
fe9a
016a
ffc2
ffe6
016a
012e
02d8
ffaa
ff80
0202
0006
fe11
ffd6
fd67
fea8
fd4e
0041
014e
00d9
0022
0062
fea7
fcce
0197
fe82
025e
fe3e
0023
ff67
0003
026f
ff00
ff72
00e2
ff8a
0125
0204
00ff
fcce
00a5
ff3d
01a4
016f
00ce
ff85
feef
0228
fea0
011e
fde0
ff22
0164
01be
0337
ff3d
02d6
ffda
00f9
fef4
0152
00b8
019b
0174
0148
0155
007f
00af
fe53
fe40
ff40
ff99
fdb4
0243
fbc4
fd31
0088
03a6
ffbe
fdde
01ab
fecc
0109
fd76
004c
fc13
fce5
007c
018d
fcf6
01ae
011e
fde1
fcc0
0281
00ab
fd12
ff7c
fe8e
0129
015d
ff31
fe2c
fe92
fd39
0120
00fc
0096
01da
0122
fcf4
0132
0360
0465
0011
0259
ff63
01ef
0321
0232
0162
ff4f
000a
ff02
00bf
025d
ffb3
ff29
0023
02d6
fda7
0008
ffa2
039a
022e
0213
fc70
0113
0427
00c1
feb9
fdf5
fd16
fe53
00a6
ff1a
0293
017f
fe60
ff5a
fe2e
fe0a
007f
feca
0209
fce0
ffcf
024f
0310
fe6b
fc44
0095
fee4
fdd4
0322
00b1
fd10
ffcb
fe7e
0165
0030
03f3
ffb6
fd42
ff56
fec4
0157
0202
00b9
00af
fee3
0020
fca1
ff56
028a
fdde
fa90
0085
01ea
000c
0117
0294
fe14
01a1
fce8
fff5
fe52
0048
02f6
fd81
fe66
fe8e
01e6
fd2e
fefe
fdb7
01f3
feb0
01c3
ff57
ffde
fce3
0250
00ce
fcf3
0255
fe35
fbee
015b
04cd
0069
0076
ff2e
fd26
0063
fe66
ffa7
fdf8
0095
ff34
ffc2
ff5c
019e
ff6f
021d
001d
014e
00b9
fff4
028b
0025
026e
0105
01f7
02c3
ffc1
030e
fd87
01c0
fd0c
014b
fec6
01e1
fce0
0097
ff33
00eb
0099
01aa
0052
ff63
015f
0004
01ff
0155
fde4
fd69
ffa8
ff56
fc49
fdf4
fde8
ffb2
013d
ff8f
01e9
001c
ff7e
ff67
fdf8
00cd
0269
fbe7
fff1
ff22
0118
fe50
01bf
ff87
01b3
fe19
0372
fef6
feb4
04ed
ff43
ff4f
fef0
0218
03a8
fea5
0068
fef8
00d2
fec1
fea2
0124
fdc4
0372
fd20
fe9f
00a2
01ee
00e5
0183
012c
fd8d
fd87
ffdd
0179
fbf7
fd5a
fda7
fca9
02be
023c
fc69
fff1
0320
00ba
fe6e
0084
feb8
0254
ff07
0003
feed
0138
03df
fecc
fee9
fd2f
feab
028f
ffd6
0291
fc55
ffa3
ff10
ff81
007a
fffd
02bb
fceb
00ba
fe15
ff68
feed
0139
004f
feba
02de
01d0
feed
ff4b
fc4c
013f
fdd7
ffca
0319
fc8c
feca
fde8
0123
00b5
0335
fec0
031e
fe12
017a
0149
fb28
fdb9
ffd0
006a
ff4c
0142
01ca
fd80
0209
01b6
01a2
fd18
045d
fd12
fbcd
ff65
001b
fffe
0010
0222
0133
016e
0233
002b
febf
0333
00c3
fde0
035c
0288
fd83
0062
01b8
fc60
ff39
019d
ff0c
010e
03f7
00f3
fe26
000f
004e
fe56
01df
0188
00bb
fe66
ff6a
fe55
ff0a
fcba
ff23
0315
ff21
0193
ff57
ff72
ff05
01a8
0205
00e8
00c4
ff90
03bd
fe95
027a
00ad
0281
0075
0296
0182
0282
0209
0027
00a3
fdf0
0143
06d1
0179
fdef
fdab
003d
ff90
0123
fe4f
fc7a
00d1
0299
fd85
0010
ff15
0262
0322
009a
0010
ff7a
fe5c
0347
02a6
00c1
0110
fee9
feb1
ffed
01cc
00b6
0043
fe94
030a
01a3
fc30
fe8c
fdcb
fbea
ff44
027b
01b3
0136
04a1
005e
fe63
febe
fcfe
feaa
021b
ff05
0185
01da
feba
ff45
fdc5
ffa1
012c
ff67
fe7e
00ef
0094
00b6
001a
007f
fede
0282
fe61
fe91
009f
014e
00d7
00fb
faee
0092
01bf
ff10
0312
fd6d
febb
fed5
01ab
027e
03bd
0188
ff6a
011f
fd88
0271
006e
ff3c
0272
0082
fe0b
0085
fdd9
00ab
ff51
014c
01a1
005c
fe1e
ff8a
ffd4
016d
0201
01c7
fea5
01eb
03d2
fe5c
fe55
fccf
fcab
fe50
01f3
fdef
0079
03e4
fe6c
fee0
ff38
0359
ffda
fde8
fe79
fd21
040f
0005
ff80
fe11
01c3
fe41
fcba
026b
00bf
fed7
00c3
fc9a
ff82
0049
0350
02b6
fd45
fe6f
026e
0364
007b
008b
fef0
ff2a
00d2
00ca
fd81
00d3
fedc
feeb
fe79
01de
018d
fe7e
00e5
ff42
0147
0156
012c
019c
0301
ff71
00d7
ff35
0497
0055
0116
ff6a
0221
ff96
00eb
fdb1
0185
0163
008c
02b0
00ef
025f
01cd
fe4a
fd03
fee7
01eb
fc32
ff0a
0124
011b
fd75
fd94
0190
fee8
0006
02b5
fcfd
01d0
fe82
00e3
ffe5
0074
fe98
0296
02e6
0266
fecf
0053
042a
fdd9
017b
fdac
02c1
fd8f
fe2c
0491
ffb3
fe42
023d
01ca
fe0e
0077
0079
02c7
00a4
00a7
ffa8
fe7b
018b
01da
02c0
fd65
0201
fef3
fff9
00a0
fe51
0090
027d
0167
00c3
fea7
fefc
ffd9
ff1c
03dd
0042
037f
0174
0368
0094
0028
fa59
fd5f
0036
015f
0038
ff99
fe8d
00b1
0103
0017
00f9
ffd2
fe5f
fe23
fea9
ff37
ff52
fbcb
fc50
fff2
009e
fe19
ff2c
015e
010c
01e2
fe3f
fd9d
0325
022d
fe4a
feba
0271
fd7f
01e8
fe63
ffc6
0183
fd70
faaf
fc86
000c
fd4f
fd6f
021c
fe04
02c3
0208
fca9
ff77
fce9
0095
ff69
0290
00ef
fed2
02a1
fce4
008a
001a
fe57
00a8
fbc3
fff8
02ab
0113
fff7
0261
0265
028f
02fc
00f4
ffbe
fdf4
01f4
003a
ff7c
0297
020c
0355
0078
00d0
fed6
02ee
0224
fd3b
ffc4
fd85
0083
0028
ff14
ffbf
ff91
0081
ff42
00c5
0160
005f
024f
0068
0174
0220
ff80
0124
0109
0056
ff58
ffe2
fdc3
034e
fdb8
010c
031c
042c
fd5d
03b4
03c6
0331
0358
0080
ffae
fc98
00a5
fcb0
fdad
fca8
024d
0434
ffc3
fe54
012b
fe6e
016f
01fe
02a1
026f
03a5
fd1e
01e9
fe43
fd0a
fe8e
021b
fd44
fdb6
0067
fd0f
01d2
00a6
ffc4
fef1
fe94
010a
fffc
0251
fe82
fd42
021b
fff5
fe7f
01f6
02bb
01f1
fffb
01b0
fd2a
fc7a
fe46
ffda
01d6
030d
01e3
0239
03b3
0420
ff70
fe2d
ff49
037b
0216
ff39
fce6
ffb8
012c
fcd4
018d
fcf2
ff53
01b2
fdc6
fd62
fe91
0353
0263
fd17
00b5
fdac
febc
fbb1
ff21
fd41
04d6
fd88
ff1b
03b2
fac9
ff06
035d
0290
0132
fff3
fd28
ffb2
00d6
024d
fedf
ff2d
fd94
01d0
fd10
01bc
fe6e
0038
029b
0337
fc3a
fe27
0046
ffa7
0253
0260
015a
fde7
01da
0280
fe9b
ffe1
020d
0117
0192
feb9
ff26
ff4f
0287
fc10
00cf
0298
fea3
fdca
0075
fc1d
02d8
ffb2
00d2
fedc
fd14
01ec
0418
017e
fd96
feae
0025
006e
fec3
0271
ffcf
0110
fe96
fec7
016e
fe9c
fe7f
0304
ff23
fedd
fea6
0187
00bf
fce8
004d
03f6
00b6
fe53
001c
012b
fdf4
ff72
ffd3
003d
ffcb
ff60
fb7e
0048
fccb
028a
fefd
00c2
ff28
fe73
015f
fd3a
fe68
fd64
fd13
0151
fe85
feaf
0230
fe4f
fe1a
fce5
fccf
ff72
00ce
fe50
fec1
032c
00ac
fd96
fd88
025d
fe05
00b3
019c
01f9
feaf
0097
00f8
ff40
03c7
ff5a
0224
01ac
026b
00de
feba
03ca
03d7
ff1a
0144
02be
fde3
00be
fcaf
fef9
ff7f
0272
0111
ff98
fbc5
0044
012b
01b8
0191
fd2c
0109
0274
ff91
00b7
ffe3
00d1
fdba
fced
0262
01ed
02e4
0128
ff4f
0209
030d
001a
ff55
fdb6
0010
fed5
0375
fdc0
fffd
fcf8
02d8
012c
ff37
fe6b
016f
fc4e
011d
01c0
ff35
0174
ff45
ffb2
fdc6
fd9a
ff5e
ffd9
fe99
ffc1
fef5
fd53
0039
0140
0175
006a
0204
fe7a
003c
fdb2
fe22
00bb
023b
01cd
01e6
016a
fd10
00f1
febe
0042
0024
0188
00c8
fd9d
fb96
fd8e
0134
0002
02bc
02c6
00e2
0052
0074
0124
fea4
00dd
0341
fdfb
01c0
00b3
ffde
00fd
ffa9
022c
ff74
0053
0271
00a7
0396
016b
fff6
ffb1
ffa5
0292
fead
feac
0109
019f
0314
fdb8
0367
fc93
037d
fd0a
ff54
0257
fdde
0276
0180
fde6
ff5b
fe9d
fdb8
00a6
0088
0328
ff90
048e
0209
ff5b
fdda
014c
ff09
000e
038d
fff7
fe97
fe92
0382
fddb
fe01
ff86
0197
fed0
fe7d
01ba
fdc6
02e8
fd5b
ff2b
fda4
fdb3
fece
0140
fe72
01b8
fd9d
009d
03af
03ac
fd98
fe9f
03c8
ff8b
0020
029b
0203
02c1
0084
fe99
fe12
ffcd
0155
faf3
ffb1
ffb0
fbfb
ff6e
0201
fe4e
fdcb
0057
fc2a
0136
00d4
fe3f
014c
02f1
0050
fe45
031c
03b2
010f
fbe3
0009
0184
fdcf
04ec
019f
01aa
00e1
ff5b
0246
ff91
fdfc
0168
fc54
00cd
fc50
fe9a
ff87
024e
ff75
0100
fc55
015b
fbc2
fe80
f922
00ad
034a
ffde
00b0
030e
009d
0136
fec8
03ca
02f0
010b
fcb2
024b
031d
fe10
01dc
0194
ffcb
fb53
017e
024c
ffdb
02d3
ffd7
fe0b
fdb4
0165
00c9
fff6
fe62
fd8b
fe86
0466
ff00
febf
0008
ff33
0128
0340
00b6
0303
fb2c
01d5
fd43
fdb0
026d
00a2
fde8
00b9
fec7
01d1
003b
fe5f
fe25
004e
ff80
0049
ff83
00b7
fdf2
ff7e
02ab
0259
fe5e
ffad
fed3
01e5
ff25
01cf
fd47
014c
007f
0066
02a1
0030
00f6
fed1
fe57
02ce
ff85
01a9
01a8
042a
fbe1
fe77
fdca
ffaa
ff58
ffad
fd39
fe9d
ffa1
02e0
fedc
005a
022e
fe92
02b5
fee8
00bb
ff3d
0010
0260
03e3
fffe
01c5
0099
0287
006e
fd74
02ac
02ac
0004
ff35
0105
0174
0376
00f3
ff2d
0232
fe5c
fd9d
0371
016c
fc6e
ff5e
fd91
0102
00ce
00e5
fd24
0044
003c
032f
0062
0230
fdbf
00d9
fd71
fd01
ffa8
007d
ff08
fd44
01db
007f
ff51
0092
fee8
feb3
ffe3
0053
01af
fcd2
fca1
fede
0022
035f
ffb2
011b
ffb0
00e5
fe76
ff77
00bd
fca6
01b8
0426
01fa
ff23
0260
fc20
fdba
0382
fd17
fdfb
fd75
fd2e
01cc
02e4
ff7a
00b4
0203
013e
ffe6
fe11
fffa
024d
013c
0333
fcef
017b
feef
03a8
fe6e
ffcf
ff69
fe8c
fed7
00ee
fe71
004e
fe1b
f9ed
ffff
01fe
fe83
fe0e
fe20
ff72
ffb6
fdb3
00b1
01f9
fb25
fefe
002d
0299
0206
ffcc
fe6a
ffff
0274
fe61
fcea
fde3
00e1
0244
fe8f
fe49
00a8
0018
ffd3
fe79
0158
00ec
ff8d
0261
ff95
ff9c
007e
fdc2
ffb9
0110
018c
01bd
ff44
ffa6
fe17
015d
fc8a
fde1
0412
fc85
ff7c
00c3
0298
fcb5
fc67
fe63
01db
0258
02ee
fe5f
fef1
0065
ff8c
0188
0123
fe21
ffd3
01a6
fea5
011b
fd9e
016f
ff9e
fe40
ffe4
009b
fe10
0086
fdbd
fbc0
028d
0365
0151
03c3
0250
019c
fea5
fe80
fe2d
024f
000e
fce3
03ea
ffaf
fbe7
0084
017b
fe13
0214
feaa
fe84
fd9e
fc1f
fdf4
0256
0263
014c
008c
00d0
0195
03c0
01fb
013c
fe30
026d
fd1d
fbcb
0014
01cc
fc53
0042
00a6
fdd4
ffec
002f
ffbe
ff37
0056
fdcc
005b
013e
01b7
fda1
03a3
ffed
fd36
014a
fe05
fda6
febf
004d
fc95
029d
fff8
faf6
0169
00b2
02cb
0128
fe5a
ff87
0164
0098
00b5
fd9c
ffe7
fef1
ff59
012e
fd51
ff1b
01bd
032a
027d
ffcd
0048
010c
0095
0140
0145
fd56
fe04
00dc
ff41
0031
fef9
009c
0233
005b
0136
038e
fdab
01ab
fd54
01f0
fdc4
fe13
fc9b
fc5d
0318
0325
02ba
01c6
fff3
04cc
02c5
fe71
ff43
0078
fd50
fecf
fde4
00a2
008a
0090
029c
01b0
018a
00a7
febc
fe69
0101
ffc8
0255
0079
016e
00f0
fe80
ff6a
0176
ff33
02ce
fca0
025d
fdd7
fe37
ff49
0142
00e2
05e5
fde0
0189
0001
0387
fea6
fe6c
0288
0397
036c
fd9d
fef7
008c
ff20
fe13
fe24
00ca
ffd6
0131
00b5
024f
fff0
ff9e
fcc2
fffc
febb
0120
fec4
fc34
0302
ff48
fe91
fe45
01bf
ffe7
0193
ff0a
038e
00ef
fe91
fc43
fe70
0135
ff09
fe8c
01dd
01f8
0157
fe9f
fe4d
0295
fcca
fc00
0275
0316
fd1b
0371
ff15
fd10
00e8
01f6
01fb
feb7
025a
fd3c
ffe8
00f8
00cf
00da
009b
00d9
fff8
0194
ff4a
00e4
ffa4
0180
0191
fe6c
ff66
fe98
fef8
0296
fc33
0196
ffe1
0378
0212
0257
fcc9
ff51
fe6d
01f9
0042
0001
ff74
fd97
fdb1
00ea
fecd
ffc3
fe65
fee8
026c
fe5b
fc7f
fd9c
fdf1
02ae
fe59
00da
0083
fd6c
0225
ffb5
02a0
002b
0133
fdae
02eb
fe7a
fe19
feb0
00f4
022f
01f2
fe49
01d2
012e
ffe8
ff4e
fec8
008f
ffe3
005a
0101
ff7a
015c
011e
fd58
01b1
013d
035b
fb67
fdbf
fe19
fff6
fecd
0097
011f
ffce
fd6a
ffc8
04f3
ff13
fcc0
fe75
00eb
fe35
01e7
feb2
024a
0080
0013
01cf
04af
fed3
007d
0437
0103
febb
03a8
0189
014c
0289
ff17
0050
0295
fd35
ff32
fdca
0221
01b8
ffef
008a
01f8
fb99
ffec
fe8b
037f
fe3e
ff09
fd09
00e4
fe06
014a
fee9
02ef
fde8
fe90
02b0
0427
0198
fe97
01a6
00ba
01d0
0074
ff8d
fdee
febe
fe3c
00ed
019c
fd4c
fd8c
014f
ff3b
fbcc
02fe
fd36
0038
0248
00ee
fe89
fec1
018b
032e
fe04
ffb0
00c5
00fc
fe3d
ff2d
008c
fe50
0061
feda
026c
0250
000e
01ea
fe13
0186
0195
0067
014e
017e
fe83
02b8
038b
fdbf
feaa
fd5d
fd8b
02d7
fe2f
03a7
0120
032d
ffb1
ffe1
fce5
fcfe
0132
0000
fd86
ff49
00ce
0325
020d
fff6
fed3
ffdb
fe12
fd90
ffb6
fdff
fd7f
019b
fe5b
fe12
fe6f
fff5
ff9c
fdcc
fd74
ff98
01ef
001f
ffc7
fce8
fcf5
fefd
fc81
fc1b
0290
02dc
027b
02f9
013e
0493
00ec
fe8c
fee4
fee4
000e
fe8c
00dd
0316
fdc5
0062
fff2
0020
0271
019a
00c9
fef2
0120
fde7
009e
ff6c
0040
003a
fffd
feb7
ff12
0192
fda5
0059
009f
fca3
01df
0134
fd6d
01a9
0291
fc9b
fee2
00f0
ff3d
0018
0031
ffcd
fd41
fbde
fe07
fcce
00d1
fdb4
0202
fdc1
0319
fde0
ff02
feb0
02d7
fdc0
ff69
007c
fca4
fe21
026a
fc4f
00a2
fd25
00b9
feaf
fc8f
024a
003b
fdcc
0169
ffe0
fe20
ff22
fee1
fd7c
fe51
00d7
0186
013d
0170
fe63
fedf
0250
fb89
00cd
fdcb
00c6
0153
fe24
010c
0049
0090
00ce
00be
ff25
0116
0095
fe22
0225
fef9
0029
01f6
fead
047f
fe17
fe83
fb22
fcd8
00fc
0214
0253
fdee
00ec
fbc9
014a
ffb6
02c5
fe94
ff0f
02b6
0242
012e
fef9
fd68
ffa0
020d
013e
007a
0173
018e
fe49
fcb7
fd3d
01f1
026d
00fa
0104
00b9
0241
ff54
fe80
ff92
00f5
fda0
fd45
ff02
0286
fdf0
03d0
0249
fcd3
fe38
013c
0197
fe47
fbb6
03ab
014c
0012
ff0e
017c
fd73
fd96
ff83
fdde
ff1c
013e
feae
ffab
ff3c
02ae
fe82
02eb
0217
fd14
ff64
fd87
0349
026a
ff85
016d
01a8
ff8d
fe1d
fcd8
fe52
ffce
ffeb
fddb
0192
0310
ffa2
04ee
ffc8
ff88
0103
03ac
feee
fd51
fd32
0209
0119
038d
ff56
feb9
fd56
022b
015d
fe38
fbb4
0066
fead
ff2a
ff70
ff8d
fcbc
fe34
ff6d
004d
0062
0093
01e7
ffb5
00dd
029a
ffed
02e6
fccd
003a
fdde
ff4f
feb0
02ea
01f2
ff0b
fea4
00d9
0270
0016
fe8c
fe6c
fed8
fe88
fe16
fff1
0199
0132
fe18
0001
fce8
0132
fe72
ff2f
032e
fee8
0571
0335
fea3
ffc9
00db
001e
fc6e
0041
008c
ff65
007e
ffa9
ff8d
fe6d
fffd
ff04
00c4
ff63
fe6e
fc3b
fe71
fca0
0032
fec4
fd8a
fd82
0137
01d4
000f
011c
00e8
fddc
024f
fe89
0128
01ea
0143
00eb
fdc4
fdca
014f
02be
0001
0279
00d7
fd1c
009d
feb2
fd36
fea0
fe81
0290
ff8a
fe85
005b
fddf
0238
fff0
0146
0084
01e1
ff79
0068
fe2a
0075
0231
0181
005f
0340
03e8
fcd7
fcbd
035d
fd82
feac
fee5
0199
01fd
0523
0037
fffe
fcd0
fe31
ff4e
0109
020c
02f4
000a
ff53
0299
0174
fcdf
0216
fe02
ff83
041a
fd8c
ff3d
003c
ff5d
0296
fe70
fd91
0071
fda6
0216
015a
fd63
ff79
ffde
012e
01db
004f
fefc
fd30
ff57
ffa7
ff79
fcd5
021b
02a5
000c
0040
ff8f
ff2a
ffdf
0094
fef4
ff85
ff07
035f
ff63
fa69
006b
0030
0406
fe17
0164
005b
01ab
fd3b
03d4
0179
0311
fdb5
0000
0090
0098
00dd
feb7
00ad
ff8c
00fd
fe00
fe69
ff07
fe03
0256
fe39
02ea
fef5
00bb
01aa
fe6c
02dd
fee0
fe9e
fe17
ffe2
0227
ff33
ff54
fd9c
00d5
00e4
0235
fd50
024a
fb7b
fd49
0057
0123
0237
ff79
003f
02d1
02f8
fbfa
ff82
03ca
026f
fdc0
fff4
02f3
fe5e
ff32
003a
ff08
00fd
ff10
ff99
006b
0221
fe6c
fe57
0368
0182
ff05
01ed
fe2c
0244
023f
fd1c
000f
0192
fd33
fe0b
03a1
ff3f
02b1
039b
fdca
02cd
ff6f
013a
0120
04ea
00ac
02b0
0265
fe43
fe67
fe64
ff86
fd12
ff6a
fefb
02d0
fb85
00eb
01ed
ff12
ffc8
043b
fef2
02b0
fe93
ffc9
fc44
0151
01a6
fc30
fc75
fef4
fe8f
fc84
fd9a
fe6f
027a
032c
026e
01e8
0201
fcaa
fef2
ff01
ffb7
ffc1
031f
feae
fc6f
fab9
fc1e
fe7e
0179
fc1f
0154
ff38
00d7
ff07
fd03
fd58
fd00
0114
0056
00c9
fcab
fdb8
fef7
fe9c
02b8
006a
034a
fff3
fff1
fe20
02bd
0014
00c3
0080
028e
0230
ff88
fd7d
fff9
ff97
feee
fc23
0192
fc4a
ffd1
ff8f
00e0
feff
0181
ff60
fc73
027f
02e5
00b4
fcc5
fd2e
0011
01bb
ffa9
fe87
fed4
ff71
ff06
0125
0098
fe44
fece
fddb
fed1
0055
0111
ff20
fee7
00db
fd3e
0101
ff59
ffc9
01c7
01b3
fe76
032f
ff2d
0105
fed3
02e5
005d
0237
01a9
fec4
ffd0
fc75
fd91
02f7
fe86
02ff
01f4
ff7a
fdc6
fea9
fe51
0051
007d
0068
ff60
ff40
fedb
0056
fe1b
fff6
0157
0005
0291
ffb9
fd1b
fdd8
0259
ff78
ffc8
fcf7
ffb9
ffb4
fcaa
feb7
fdf5
001a
fdc7
ffd0
00b1
fd33
ff9b
fda9
ffce
ffd5
0053
023d
fef5
ff5a
fe86
02d2
fe51
008f
fee7
0165
0068
021d
0339
02c4
00be
00bd
025f
0277
ff74
fe91
ffa1
fe10
fdec
fcc9
0458
0255
0190
fd0a
00ca
0033
ffae
fef1
01d2
0174
ff01
00bb
fdbd
ffac
fe1f
026e
030c
02f3
035e
fdea
fedc
00fa
fe01
ffef
02f9
febd
fee9
ff75
0320
02a1
ff3f
0011
fd5b
ff1e
fdb6
0462
fef4
0299
fbf4
fffb
feb4
0095
fed2
01d9
0134
004c
029e
04df
02f2
fd72
0508
00f9
0460
00e6
fefd
0039
ffb8
01e4
ffcd
ff18
fcd0
fcd0
0209
ff85
01f2
032e
ff83
00f8
fed8
021c
0010
0108
ff0d
ff3c
fd34
fb25
01b9
ff15
fc92
0179
0028
012a
fdfd
00a0
00d1
0064
00cf
ffaf
004a
02f5
fdd3
fdd5
fc4b
00e7
fd58
fc7a
00d7
00b2
fd9a
fe42
ff2e
0080
fc56
fff7
ff4a
02a3
021f
fc93
ffbb
fd35
012f
fb80
ff21
fefb
00af
0223
fdee
027c
ff72
032f
027c
fda8
0037
fe92
fc9a
0079
0174
0140
0347
0037
0197
00bb
ffec
fe78
ff2d
fd8a
0045
fc99
0167
fe5d
0031
0279
ffe6
ff9f
fd32
02ec
0158
01b1
0018
0011
0246
00c4
00e4
0012
fd1b
001c
012c
ff34
00a7
fd02
fe3b
0170
fd62
fe88
fdb0
0011
ff6f
03fd
fe72
ffd7
fdbb
ff73
02c3
01d1
0084
01d5
ffdf
fc19
0199
0153
fe40
03ba
ff8f
feae
03aa
031c
007a
003b
ff36
02b7
01ba
0173
fdc5
fff7
01ab
ff02
00b3
ff3c
ff56
ff6e
0088
02ca
02ab
fd7f
fd87
0288
ff8b
0006
00cf
ffb9
006c
fe72
004c
ffe3
006a
006f
feae
0034
02d6
008a
00fd
01e3
fe28
01d6
02e4
ff5d
035d
00cc
00e6
ff11
fe87
0119
01d2
fe87
003b
fe9e
0087
ffb9
ff0b
ff85
0045
0065
00c1
0038
0144
ff0a
fec2
ffa3
00e4
00df
ff5c
01bd
0024
fcde
027c
ff19
ff2b
fe7c
fe94
fe19
ff29
0070
ffe6
03b8
fea9
fb45
fec4
02d2
01f9
024b
0090
fe8e
fe65
fe38
fedf
ff75
019e
fbb2
ff6c
ff5e
0112
fdf2
fec5
fc69
ffcb
fd42
fecb
ffbc
fed3
ff3e
045d
ffa8
fd70
feee
fcc7
0087
020a
0317
ff61
0109
ff2e
fe52
fe51
0098
0296
fca0
fc6f
ff39
ff33
fdea
fd05
fd4c
0211
029f
0152
fe17
fd76
ff49
0380
ff58
fdd2
fdce
ff59
fdc0
ffa0
02ba
fd6b
03a1
0250
ff1f
0080
ffce
fe77
013d
fe1c
fcce
fd1b
fde7
fdd8
fd95
fec4
00c5
fe40
02e3
004b
0205
fcc8
02f8
03cd
0380
0057
0029
ff57
ff0d
feab
fcd3
ffd3
02c4
0190
0076
fcfc
fda9
ff2d
fe87
fe3d
ff72
ffaa
000d
feb3
0127
0248
fed6
fe98
ff78
ff7d
fe90
015a
fce8
0094
ffc4
01b8
fc66
fffb
fba3
0300
fee2
febc
fbce
0059
fc83
012f
fe39
0167
ff61
fd9d
fe45
fec9
fd5c
021d
0009
fe60
ff4d
01a4
fe75
0246
fdbb
ff75
02c7
ffc6
000a
03cf
0163
ff27
ff74
fda3
fe65
031d
fc9e
fd8d
fc5c
fe53
fc80
000b
fe06
ffac
0153
ff00
fe6a
00b6
0123
fefe
0348
0013
fdad
0296
01f6
fff7
00d1
ffcd
fe4e
fd9a
022e
017e
0160
0052
00d0
fcee
fe7c
012d
fed9
fc14
0178
fc7d
010e
0010
01d8
ff34
0162
fd28
006b
fed3
fd8c
ffee
ffb1
fcf4
fe46
fe2b
fe89
fefd
0276
fe1c
fdd6
ff31
01c4
fec6
fe40
fc02
fe7f
fc48
fcd5
02af
fff4
ffcd
0010
019b
020c
fd8c
0056
fb81
fd79
002d
ffcd
fcb6
fcfa
01bc
fe80
ff5b
0006
ff4d
02f0
001a
fda1
02ae
0060
0157
ff90
fd5e
00d4
02f6
00da
fed3
02b4
0264
ff8e
0177
0135
000a
0014
0000
000d
fde3
0219
0236
0337
0046
fe81
02e2
04dc
fe24
fdcb
0187
fe5a
fdbb
03df
0425
ff46
01b4
ff9c
018e
033f
00d2
01ef
0051
fdac
fbaa
fdfb
0189
01ff
fe8a
fd1a
0004
0249
00c3
fcdc
00bd
0371
011d
0053
0428
003f
ff54
ff38
0205
fd97
00e6
0086
fdc5
048d
fce7
010e
ff70
002c
fcee
01f9
033b
0286
0023
0050
fcb3
fde5
ff46
fd38
fc90
005a
fd2c
fdef
fef3
fa2f
01ee
01f0
fde2
0270
fc4c
fcce
fed8
fe86
015b
fdcd
0085
0339
fe01
03ad
0182
03d9
ff41
feb9
02be
009a
004e
fd74
0095
0104
00ae
fe6f
fef9
01cc
feff
fdbe
036c
019f
ff3d
fea0
fca1
fea9
fd55
0127
ff54
0346
0052
006d
0111
00b7
fbd5
0229
fbd4
0200
0059
0308
02ac
fbc0
016a
0263
fe98
00c8
fe72
00f7
fe3f
ff5f
fdae
0344
0271
0033
fd40
fe33
ff07
ff2a
000f
024f
feff
ff9c
ff96
002d
fbc2
ffe6
fcc1
fef3
0167
00ea
037c
0343
fd5b
028e
0059
ff59
ffa0
022a
ffa9
fd4c
002c
0250
fef9
ff0e
013c
0021
0014
ff4c
ffd8
0249
fefc
001d
003f
00cd
ff51
ffa6
0107
017f
02b1
ffaa
fc6b
fd5d
01d1
fe07
ff63
fc11
0395
0179
fff5
fea0
fe9d
fe55
fc7c
015d
0170
01fc
0001
fdcb
fdc9
04b5
ffab
001a
01c0
007c
0007
0032
01aa
0342
01ca
028b
ffdc
fd39
fd80
0154
01e8
fffd
fe69
00a6
fe3e
00b0
fe9e
fe67
00cf
feff
fe2f
fe6f
fd0a
feca
0303
005e
02c4
ff05
fd35
00a7
00f1
fc8e
ffd5
01a3
fe82
02c2
fdf3
038e
0035
fdba
027d
fe08
fccc
ff97
ffab
0020
fe38
01b2
fdab
0295
ffda
fc50
0078
fe85
fd38
00c5
fd50
00aa
0094
ff10
002c
009f
02d1
fe8d
0172
005c
fe5f
00d6
ff0f
fe9a
fa2c
fd37
001e
00af
0033
02cc
0222
01a3
fdc0
ff72
0040
00cc
fdf4
0181
fe5d
020c
fe54
ff75
01c8
fd36
fdb9
fe43
fff7
fe20
04b7
03a3
ff2d
fd72
0086
fb85
0023
faff
fb5a
fdec
ffa9
0022
00ad
00f1
fe25
ff00
024d
fec4
0091
013c
0076
ffb0
fd02
0014
fd72
ffdc
fea8
02b2
0034
008a
0252
0077
00bc
fc68
02c1
fa4d
0225
01ce
0124
0092
fdf6
011a
ff26
001f
fda0
fda4
018b
ffcc
02ed
fee7
ffa7
fefa
ff15
ff25
fd25
003a
fd12
fcfc
0013
fd6a
0202
ffb2
ff5d
0001
fe12
0248
02a5
02a3
fdd0
fec8
ff1f
02d8
0084
0076
033f
0111
fe43
ffe3
ffbf
0066
0263
0074
0374
01e6
0110
fd4c
ffde
fec3
ff34
02ee
01c1
020b
ffae
fdc0
00f2
00d7
0275
019c
0134
fd50
05ee
ffc4
fd65
fe6f
04e9
ffa5
00ec
00ab
ff06
fd8d
0037
ffde
019b
015a
0089
0106
fdb5
03bb
0244
ff95
fefd
01a5
0100
0001
fcd2
fc30
0243
002a
ff85
0197
0079
ff79
fe29
feff
fe2b
015a
ff5b
fe13
ff69
0368
feae
ff2a
0158
0036
020b
fef3
01c8
fea2
fcd1
fd97
0196
0028
01a0
fd70
016c
0074
01e0
012a
018c
fc6b
0204
ff13
fc49
ff41
00a5
fe38
ff11
0124
0355
0122
0103
ff26
fbe2
fbb4
ff6c
0021
007c
ffe4
ffa3
ffb8
0135
026a
0033
0061
ffb4
00f2
0361
00c1
01e2
0153
00d6
0430
031e
007f
005c
fea2
0359
015c
ff85
ff44
02d4
02b6
0300
0052
fdd2
0110
fd91
fcea
fd8b
02f6
02c1
0061
0073
0301
ff84
0167
0352
0211
ff79
fe63
0087
014b
01a6
fdda
ffa2
fe52
fd8e
01f6
fd04
0191
fe71
ff33
0225
ff15
00ef
019a
fc6c
fccb
02a2
015e
fe06
ff79
fe32
fd24
029a
fdaf
021b
007e
0286
ffb1
fe44
000c
0224
0062
ffec
0104
00a7
0112
0197
00a3
0018
0284
0374
fc58
fda9
0096
0066
005b
000c
0135
0023
00ba
fdb3
00cd
00e0
02bf
fdda
fd10
00fe
0461
02e0
036a
004f
02e7
fe2f
fe1f
01e9
03af
ff93
fcf3
fae6
00c9
fe93
ffa9
028b
028d
0086
fed2
fb7c
ff9a
0169
0013
fa2b
fd42
fec1
fef0
fe2d
fca2
00b1
fb8a
022b
fe3c
0143
fe59
02b1
ff90
fdb2
011b
000b
030f
ff51
014f
006c
0134
fe98
fed1
fef6
020e
ff7e
ff9c
0103
0052
fe3a
0098
fcde
020e
022a
fe17
fff4
0130
fe6e
ffd3
01e9
fda2
fd92
ff6f
023a
fe95
00fb
00cb
feb0
fcbb
fe40
ff4b
0006
02b9
ff49
0061
0204
fdc4
ff5c
fe09
00a0
00f6
0256
fcbf
fff9
fdc7
fe5c
ffff
ffc1
fde7
ff05
ff9c
fff2
fea8
ff4c
fd8a
fe31
fe86
ff01
ff21
0107
00d8
0338
0029
0060
fde1
0074
011c
00e6
ff82
ffd8
fe64
fcb1
01e9
ff98
f9f0
003d
fd8e
ff67
004d
029e
fd3b
01dc
fed9
0066
02bc
fc5d
02fc
fe8c
0113
0245
fd9b
0306
fffe
fede
003e
ffdf
005f
0156
ff25
fe82
febb
ff8f
fddb
010c
01fa
ff67
011f
00e6
fd6a
ff55
ff6c
fcbc
010a
fe52
fe02
fee4
008d
0176
fe6b
fd8a
00d5
ffdc
fead
fece
0065
01b2
0384
fd7a
fd3e
0029
007e
fee2
fe21
fde2
0152
fd33
fd8a
01ba
fc5f
ffdb
0031
024d
fff8
003d
ff35
fcfe
014c
00a0
01ca
fec2
01aa
0384
0258
023b
0233
01db
01c7
fe21
0005
0222
0120
0275
0271
00b3
fd0e
01f3
013a
0206
0218
fcb5
002a
ff0b
fe8a
fe11
003a
009c
022c
ff3a
fece
fffe
02e0
fde0
fddd
ff2d
ffcb
0042
0035
0399
0186
fe15
020c
0097
fea4
00d6
ffa8
0068
fd0a
ff59
02bd
ff28
02f0
0221
006c
0189
0154
03b0
015f
005a
0211
fd95
0056
ff6e
fe0e
fd9e
02c2
fd86
fe6a
0080
ffa5
fff6
003e
0015
02bb
ffdb
012b
012b
008c
fccf
fcab
011d
00ac
00b9
ff0e
ff56
fe1d
0002
ff4a
00ea
0211
0035
fdfc
fd14
00cb
0127
0087
0035
0096
ff2f
fe0f
ffb2
01ef
fe82
0222
ff5f
02ec
ff60
ff35
017b
ff95
01f6
01f1
037e
fd56
025c
015f
fd0f
ffda
01dc
ff18
026e
ff44
fe8c
02bb
fe39
fc4a
fe00
fff2
feb4
ff68
fe60
02c3
01b6
0037
01f9
fd1f
ffbd
fc8e
02ae
0257
fe9d
027c
fd9d
0322
0352
01e7
01f1
fd9c
0152
01e5
ff76
fd89
0487
fe62
0224
03b4
0056
ff66
ffac
fe31
fe74
01ec
ff04
fe7c
0181
feee
0216
0145
feed
0086
ff31
0002
ff82
033f
ff92
006a
01de
013e
fcc3
fe87
0303
004d
009b
fe7f
0102
fe45
ffc2
fc87
fdf8
0076
0003
0304
03cf
004a
fcc4
ff35
00e3
ff42
fe10
005a
003a
02b7
00c5
fe98
0117
ffa6
fdfa
01a8
021b
02fd
ff09
fe57
fc4a
0070
fe09
00fc
0144
fd0a
ff1c
0008
feb8
fcdd
012d
ff89
ff34
feeb
fef4
0318
0151
0187
022d
ff14
fd15
00e1
fdb2
006e
0459
0101
008b
018f
022a
fefc
00f8
fd00
fcb3
fe41
02c7
020b
009f
01cc
00d7
01b2
02ba
fe44
0121
fe68
ffc4
0015
03ce
01ea
fc89
0257
015e
ff75
fdf3
0243
046a
0046
ff36
ff51
01a3
0250
ff32
018e
ff4e
fd19
ffd3
01c9
fdb1
041a
00c5
fd11
ff87
022b
00d5
fe8d
00be
fc97
ff8f
ff23
010b
fdfe
0287
0187
ff6c
fc39
011b
0176
008f
fd62
ffc6
fe7e
0176
00ea
01c0
0130
fd3d
016e
012b
01df
fe6a
fc7b
fec7
ffc8
feab
0151
fc8e
002b
fce4
0089
ff2c
0215
fd18
0269
0213
011d
ff1a
fe9d
fe41
0035
019f
feb3
0015
0193
fed7
014a
fccb
0137
fd1d
01ba
02f7
fd32
017d
0199
ffbe
0183
0284
fc9b
ffdc
fa60
fb59
017b
00db
0231
fd36
01a9
fc94
fe3b
00c8
0103
ff07
010f
fbe1
fd24
0078
fce8
00d2
012b
fe14
01c5
03de
0010
0326
029d
ff83
01c4
fefc
fe5b
fe24
00d3
ff3d
010f
ff66
005f
ffef
fc20
fe2f
0235
00ae
011f
0022
028f
0121
00c0
022c
0240
fdfd
007a
0181
0248
ff8d
fe0c
0072
fc5e
02be
0481
fe1f
ff2e
ff96
fe8d
fd94
017c
00fb
ff21
01e0
fd95
fe8e
0260
00de
ff4b
022a
041a
fcda
ff77
ffd5
fff3
000a
0055
0215
fcc1
01f7
ff6c
0130
0004
fd6b
ff80
fd0b
00c3
ff54
fd73
0187
00ee
ff6e
0051
00bd
01cb
fcd6
0137
fed6
010c
0220
fe7f
ffde
001c
02aa
fee3
0081
00f7
038b
0082
fc6a
01f9
0195
fe98
00bc
ffb0
ff9c
00b8
01a3
ffdc
013a
00bc
004e
fcd4
0065
0214
013f
00e2
0300
00c2
0003
0152
fe83
fdbf
0431
fefc
ffbd
0436
019c
033b
027e
fcba
0164
ffa0
00be
ff4c
0192
fc1e
feda
fecf
003a
ffa6
fdc0
02e0
01d8
01e7
fdcf
fe98
ff30
ff6b
0181
026e
02ec
018a
fc06
007f
fdfc
fc73
02a9
0376
00d0
ff10
fd76
ff26
fe6b
fe54
01fc
02de
fecc
00f6
006d
fe30
0394
0192
fed8
ffed
fcb9
feab
0058
fcdc
fd1b
0014
012f
fd91
ff42
0059
0296
02bb
04a3
fe98
ffad
ff49
fdce
01f7
008d
016f
0037
022d
0159
0124
fd47
012e
fb89
013f
ffc6
0258
0141
01cb
0086
0088
ff2d
021c
0312
0099
ff3e
00f1
ffd4
0247
02f0
ff89
fe5a
fc99
fd09
ffbc
01b4
00f5
fead
0397
00b7
fd90
ff0b
fe33
04b4
fe04
ff65
00a5
015a
ff52
fe32
ff1e
00ff
ffaa
fde0
01e2
0039
fcd3
0276
fd9e
febd
fd45
015c
ffd4
028f
0055
fee4
fd0f
01ba
fc84
0298
0203
01c3
fe06
ff9a
00d9
fca9
ff68
0265
ff2e
003c
02db
ff7d
017c
01e9
0211
fe09
02c7
0285
0200
02fe
fe53
00ae
0357
fe51
feeb
0215
ffdd
fddf
fef6
045c
01fa
002a
0067
0250
0269
01e6
fd86
ff13
ff23
ff75
ff7d
0261
fd76
ff98
fea9
fce5
01e5
fecb
01d4
feaa
fb45
008f
ffd5
0173
0165
fc4a
003f
fd69
0013
01a2
ff2b
fe7e
fdbc
01ef
fe88
fe9a
032e
0134
fe49
02f4
00ae
ffda
ffb7
ff2c
02d9
fe68
0355
fea7
024c
fedf
fd3b
fea3
ff26
fe32
0222
feca
004e
0224
fda4
fdeb
00f8
fe16
0103
010d
002e
fc28
fee6
ff23
00dc
02b3
000d
ffa4
0014
02c9
01ef
fda0
0093
fe40
fd20
020d
fcd0
01e0
01d5
0046
fd21
00fd
feb8
002d
0094
016b
01d8
02c1
ff75
01a2
ff79
fe8c
fd6b
fda8
fd53
044a
0128
0224
fd99
0181
0338
fea8
fa90
00fa
ff2f
ffcb
ff81
ff45
ff1b
0061
0368
ff5b
0411
0003
007b
012f
fcc1
007e
fd33
03b8
fdb0
fed2
006e
0025
04d0
fff7
fcc7
ff27
fe07
fe8f
fe28
03a0
0112
fda1
fe7a
0196
fe7a
0244
0089
fe03
004d
011d
fceb
0062
ff45
fedd