1042
0f40
1091
0f13
0fa5
0fba
0fd0
0f7b
10c5
0da8
0fe2
0f7b
0ea3
0fca
0f47
1141
0fe3
0ec8
0ee2
0f83
0eb4
0ff0
1072
0d4d
1040
111f
0d69
0e00
114a
0e72
0e3d
106d
0f3f
0e2d
0ec6
0f49
0f4a
0e46
0ff1
1099
0e70
100a
0f0d
1085
1021
0f8b
0f58
1096
0f0e
0f43
105e
109b
0fe8
0e85
0e65
113d
1189
1014
1065
0fd8
0f5d
100f
1049
107d