ff55
00e2
ffcf
001b
00ce
0051
ff64
00ef
001f
0069
003b
ff9f
ffd1
fed4
00b7
0060
00b0
ff3f
ff4c
00e3
ff33
ff5d
ffad
ffbb
feed
ff80
ffd3
0064
feea
ff8a
ff28
00e6
ff00
ff61
ffeb
00ea
00d8
0038
0077
ffc9
008c
ffbc
005d
fed4
ff5a
001b
01d6
fefc
ff34
ff6a
ffef
ff1d
ff09
ffcc
feec
009f
00b5
00ef
00cf
fe9e
feb7
ff50
ff29
000c
00c4
fff3
00ab
0012
ff7e
ff7d
00e0
ffe3
0097
ffd4
ff84
fffd
ff80
ff46
0088
ff33
00be
0023
ffee
004c
00ff
009a
ff32
0053
00c8
ffc7
ff6d
007b
0043
ffe4
002c
ffa3
ff52
00db
ffe5
0019
ff12
0055
ffc0
0002
011b
ff55
0145
ff41
ffda
00a7
ffac
0037
ffef
ff55
0047
ffce
00d0
0063
ff84
ffa4
0062
00ac
0005
0004
ff66
fffc
0033
ff81
ffe9
0004
005a
ffbe
ff7f
000b
fff4
ff94
003e
ffeb
0098
00b2
00b0
fff8
007c
0095
ff96
ff4c
ffa5
ffce
ffb0
0062
007b
0012
ffbb
0078
002f
0047
0016
fff7
ffb9
ffed
ff64
0015
0049
ffdd
001f
00cb
0091
004c
fee3
0098
ff75
00a4
007e
ffcb
ff8b
ff6f
ff92
003b
ff7a
0028
008c
0037
0073
009b
0073
ffd7
000b
ff81
00a9
ffc1
ffc8
ffec
ff3d
0082
00ca
00e1
001b
ffe1
fed5
005c
0010
0044
ff63
fff9
00d0
ff45
ffc4
ff4c
0081
006b
ff34
003d
0079
0034
0072
008c
ffa1
ffdf
00c9
009c
ff50
ff3a
0099
ffa2
ffa3
ff70
ffea
ff53
ff31
00bd
ff36
ff77
0010
00d0
ffb7
ffa8
00a6
00f0
ff61
0034
ffc9
ff99
00a4
0000
001d
0024
ffed
0078
feff
00ed
ff27
007c
ffed
0025
00a0
ff2b
fef2
feab
0014
fef9
ffa6
ffc5
ffad
00cb
fec4
0045
ff12
0094
ffa9
017f
febe
ff6a
fe97
ffbe
00d5
ff8a
00fd
0030
003c
feda
0005
ff5c
ff33
fe6e
fedf
003a
ffd5
00f4
fef0
ff35
0134
feb3
002c
004e
ffec
ffcf
fff0
ffef
fe8a
feed
fee8
0106
00ae
0012
0056
ff79
0038
ff9a
ff66
012b
ffa4
fecf
0029
ff3c
ff8f
ffe6
ff40
010b
ff7c
ff98
feee
00a4
0052
00ce
ffb0
ffb7
fed3
0076
fef8
00a7
fee1
00b1
0071
00f2
00d3
ff78
ffba
009c
ffa0
ff0f
ff1e
002e
0026
013f
003c
0048
fff3
fff9
fee1
0006
0072
ffff
0097
007a
001f
0088
ff92
ffae
00a9
ff59
00a8
00c1
ff41
ff98
ff96
008c
ff3f
ff72
ffee
ff4f
004e
ffe3
0003
0061
ffdf
ffef
ffe9
ff45
00c9
ffc6
ff9d
ffe6
0107
0084
0053
ffdb
0055
0025
0171
0066
0006
0084
ff5f
00a6
0090
ffd2
0074
008c
ffc2
ffa7
ff94
007b
009c
00bd
00b0
009b
ff8c
ff2e
0063
ffb7
ffc2
ff35
0063
0032
001e
ff75
010a
fefe
fff2
ff71
fffb
008c
0055
00d5
fff1
ffab
fffc
ff5f
003e
0095
00be
007c
003e
0085
ffdf
ff6e
ff26
0074
0032
ff1b
00ca
feef
008e
ff0a
ff8a
002d
ff84
009e
0068
fef4
0052
ff98
ff1f
ff9f
0095
0061
002f
ffd8
0013
00a5
ff56
ffa2
ff60
0012
ffb9
ffd7
ff7d
ffa9
ffb5
0014
00a9
006d
0062
ff5e
00c3
0022
008f
007c
00d7
ff37
ff4a
00c7
006c
ff8b
0045
ffb5
00a5
ff56
00a3
ff96
0093
0011
011e
0090
ff5a
ff9a
0022
ffc7
0067
0052
0017
ff64
ff57
ff3e
ffed
0070
00b5
ff74
008a
ff76
ffe2
01b5
00bb
ff3d
ff1f
ff81
00eb
ff87
0055
ff63
ffee
fffd
ffc1
ff6f
0038
ff91
ff6a
00c2
001f
00ca
ff79
00e9
ffda
ff31
ff98
ff3e
0019
fee2
ff07
ff31
0012
00b5
ff5f
ffea
ff86
ffe7
00cd
ff75
fe85
ff3e
ff1a
ff8d
002e
0092
ffc6
00b1
003f
ff95
ffbd
ff47
feeb
ff20
0036
0095
00ae
0041
ff1f
001c
009a
ffaf
00ee
ff6e
ff9d
ff2e
005f
0018
ffb8
ff6a
0007
00a6
0061
0073
0062
0018
0033
ff55
ffca
ffec
0014
ffe0
00d2
0025
fffd
ff39
ffda
006b
005c
ffa0
004d
004f
ffa5
0035
0083
ff96
ff0b
0007
002e
008e
ff39
0016
007a
ffd6
ffeb
ffd7
ff59
ffda
ff42
ff7e
ffe6
0090
006c
fffe
ffd9
0090
ff6e
00b0
ff29
ff69
003c
ff34
ffab
ffec
009a
ff55
ffcd
ffc1
0090
0034
0057
004e
0077
ffcc
fff5
0079
0031
ff5f
0037
00d3
ffbd
00a1
ff86
ffa0
ff97
ffb5
ffc4
0065
0030
00da
ff41
003b
00b6
002b
ff4a
ff9c
000e
004b
00b2
ffb4
fffb
0055
0054
0052
0078
00c5
0076
0034
0010
ff90
ffef
005e
0037
ff36
00c0
00c4
ff87
ff73
ff7d
0048
ffc9
0010
0034
0022
ffa9
006e
005d
ff60
ffd5
009d
0090
003a
0005
008c
00dc
005b
00b3
00b4
00ee
ffff
0047
ff6a
ff39
ffa8
ffb0
ffa5
00b5
ffe7
ff50
ffca
ff34
ff4b
ff86
fee6
004d
00a1
0085
ffce
0008
ff08
ff6d
ff1b
ff16
00b7
00dc
00fa
00cd
00b3
fff3
ff75
ff8a
0083
008b
ffd1
ff33
ff0a
ff03
00b3
feb9
fffb
ff18
ff6e
002a
0033
001d
ff76
0050
0035
fef9
ff28
00e0
010d
000c
00e4
ff64
ffe4
ffe8
ff93
fea5
fee9
ff8d
0090
ff5a
0050
006b
0027
ffcf
ffea
ff56
ff8a
00c4
fff4
0098
ff81
ff1f
00a6
ff86
ffaf
ff89
0014
0058
00c7
ff94
ff99
ff69
ffaa
ff99
ffa5
0034
ff86
ffc2
0010
001f
0037
003c
0007
00b7
008d
0051
ffef
ff8c
0096
ffc5
ffde
ff58
ff8f
ffeb
0078
ffd0
00d3
0031
0043
0024
ff65
005e
007f
00f5
ff5a
ffb7
fffe
ff52
ffba
004e
ff4d
00aa
ff23
0104
ffd8
00d6
ff49
00c8
00b0
002f
0023
ff6c
0006
ffb4
00a3
ffe7
ffc4
ff8d
ff41
fee5
ffc1
00eb
0071
ff71
0111
00de
ff71
ff4a
ffb8
ff7f
ff20
00fa
0094
ff3b
ff88
001c
ff46
feef
ff12
0010
fefb
001e
ffd1
003f
0118
ff12
ffcf
ffd2
feb8
ff99
ff6a
ff7f
00b6
00b1
ff2c
ffaa
0003
ffc1
ffc8
0002
ffab
00e4
00fb
0129
012a
0087
ff70
003d
ff09
ff54
00d6
fff1
0046
003f
fff0
00b6
00f2
00d6
00ce
0049
ff2a
0043
ff8d
0109
ffff
00a3
ff95
0093
003d
000e
00b1
ffac
003a
ffb2
ff67
00ae
009d
ff57
ffb8
00b3
006b
ff5c
00c4
ff9c
0082
00aa
009f
002e
fffc
0038
010f
ffba
ffd3
0098
ffe8
fff7
fef8
ffef
ff05
004e
0053
ffea
002b
0054
000c
ffd0
007c
0063
ff94
ff3a
0154
00a8
00ca
fe22
fecd
ff9d
015d
ffa0
feb6
fe67
ffcb
0111
fedd
ffdc
ffdb
fef2
0046
0133
feda
0028
003b
fef7
ffe3
ff1e
ff8d
ff86
ffae
ffd8
00f5
019b
0008
0077
002d
ffc6
ffd6
fff1
0015
fef1
0064
015d
fe2d
0098
ff69
00e6
0139
ffaa
feb4
0072
feb3
ff56
011c
0032
ff5d
feed
005c
0106
ff35
ff30
ffc3
ff66
0154
fecd
ffcb
fffb
00af
ffdf
0006
007d
009c
fff2
0096
ff61
ff98
ff7d
008d
00c4
0048
ffea
fff0
ffde
ff9c
0077
fed2
0011
ff96
0039
002f
ff83
ffc1
ff62
00a2
0098
ff2e
ff5c
ff69
ff5c
0118
00c2
ffa7
008b
ff76
ff65
ff82
009f
fff6
ff20
ffa9
ffa9
ffaf
ffce
000c
ffee
00b1
ff29
0071
0099
ffad
0074
ff73
000b
0004
ff34
ffd6
005c
ff70
00ea
ff69
ff73
0027
fecc
0052
0001
ffc0
0182
009b
0087
00ed
015e
feeb
ffb9
0107
ffe4
0064
ffbd
ff21
ffd0
0031
011d
ffdb
ffac
ffa9
0026
fee0
ff52
00d5
ffd4
ff64
ff7c
ffac
0010
000a
ff32
ff25
ffd9
0047
ffb8
00ca
0061
00e6
ff57
00f7
ffbb
ffc2
ffc0
0181
0048
002b
fefd
ff08
ff81
0052
0027
0131
0029
ff2e
ff80
ff6f
00b7
ff63
ff62
0004
0052
0033
00ca
00e5
ff3d
ff11
0047
ffee
004a
00ca
ff8d
ff9c
fffb
ffa0
ffed
0044
00c6
0066
0007
00f8
ff8d
ff83
ff65
00a7
ff48
000b
ffcd
ffd7
ff5b
00ee
005c
ffbc
ff57
006a
0051
ff66
ff29
0035
002b
ff4c
003d
00a8
fffa
ff89
0043
0034
00b0
ffe5
0075
0070
ffc1
000b
ff31
00c9
0050
ffc8
ff61
007f
ffd3
ff2e
ffc3
ffce
ff2d
ffbc
ff18
ff35
00e7
0055
005f
0023
0042
ff68
00c1
ff0b
000e
00d1
006f
00c7
ff75
006d
ff1a
ff2a
0026
fff8
ffaa
ff98
005b
ffc7
00c8
001c
00a2
ff0f
0086
00a1
ffd7
ff31
ff44
0026
ff31
00ee
ffc4
00de
ffa9
004f
ff56
00d0
0005
ffb2
000a
ffd3
ffd8
ffb8
0040
ffc7
00ab
fee1
0062
0046
007a
ffe4
ff86
005d
ff3f
00c3
0044
00bd
00ca
005b
ffc6
ff5f
ffd3
ff75
ffa8
ffb7
00a9
ff9f
ffd4
ff5d
ff4b
002d
009f
00ce
0000
ff3f
ff88
00aa
00ad
ffa7
0043
ffb1
004e
ff77
0099
0046
0091
ffdc
ff6f
fff2
0094
ffe0
ff26
ffa4
006d
00b1
ffc9
0077
ff1f
ff83
0044
003c
ffeb
0068
0049
ffac
0080
0045
005d
004a
ff99
ffa3
ffcf
ff71
008b
0076
fffb
ff84
ffe9
ffaa
0004
003e
003c
ff92
004f
004b
ffb3
00b4
ffa0
00a6
ff78
ff56
00d9
0002
0002
0080
003f
011f
00ad
00d4
008e
ff4d
00ae
ff60
00d9
ff85
ff9d
ff67
ff5b
ff7e
0033
fff7
ff66
ffdc
ff39
00fc
0062
ff39
0002
fff9
0015
0037
ff81
ff83
fee9
ff9a
002d
ff8e
0027
ff59
00c8
ffa0
0031
fff9
000d
fedf
0088
00ce
ffcd
ff8a
ffc8
ff8b
00cc
ffba
009b
ffa6
ff6f
006b
ffb1
ff3c
0001
ffda
009c
00bd
fed6
00eb
ffa6
0089
0027
010f
005b
ff3e
feee
00e4
008b
00ea
fea9
ffc8
00d8
0035
0027
00c6
ffef
0092
ff15
ff67
0046
ff63
ffbc
00f6
ff26
ff40
003e
fefd
fef8
fed7
0042
ff94
0080
00f0
ff4f
ffae
0000
00b9
fe68
ff70
ff8f
0020
00c5
fefa
ffb6
00a3
00ef
00a2
ff6e
0044
ffc9
0158
ff18
ff8b
016a
004e
ff7f
0073
0018
ffdf
ffc4
004a
ffa1
ff88
0043
ffcb
002f
ffff
0050
0056
0053
001e
ffea
ff5f
00a0
ff88
ffb5
0051
ffb0
0063
ffe9
001f
fffc
ff4e
ffa3
fff2
ffaf
0074
ff79
ff85
ffea
0049
0033
0009
ff8d
ff88
ff4a
ffc7
002a
0041
ffe2
001b
0050
ff9b
0039
ff66
0003
ffac
ffa1
ffb9
ffc6
0083
fff3
0057
0030
0042
0012
ff70
0041
ff59
ff32
00a0
001e
005d
ff90
00a8
0091
004b
fff3
ff59
00b0
0065
000b
ffda
0009
ffdf
ff98
ffd7
ffc7
ff8a
000b
00e6
ff68
005a
ff8e
ffd6
0037
ffb7
0064
ffc6
003e
00de
0061
001c
ff8e
ff70
0098
005f
ffbe
ffdd
ffe2
0024
ff48
009c
0069
0089
ffce
00b6
ffc2
00bf
ff5a
0089
0095
003c
0014
006d
00aa
001b
ffc5
ff84
ffb3
0045
ff2a
ff99
ffbf
ffeb
ffe9
ff73
fedd
fefe
012b
fff9
00d0
fe85
ffcf
00aa
008a
ff9d
ff30
feb4
0036
ffdf
00aa
0116
ff78
0137
ff4a
ffba
febb
0051
0132
00c9
0013
010b
0036
ffee
0096
012b
0135
ffce
0016
ff65
ff5e
ffeb
ff37
ff0b
fef9
fefa
00f0
00c9
00ed
001f
0053
0080
fee4
00c6
ffcf
ff0e
007d
0068
ff59
ff66
ff0a
0007
0088
ffe8
00ce
ff5d
0095
ff79
ff54
006f
006c
ff92
003e
000f
ff8e
feff
ff26
007f
0018
0145
fef7
000c
ff7d
0012
ffb1
ff30
00bd
ffe0
ffce
ff68
ffa0
fffd
009d
ff3d
ff96
ff37
ff32
ff76
ff13
009e
0008
004a
ffe3
00f2
ff0c
ff91
0017
fff3
fff8
ffb6
0005
0102
ff8a
ff4c
0044
0018
ffd6
ff27
005c
ff07
ffa2
006a
ff91
0003
ff6e
0027
ff7a
00a7
ff42
007e
fffa
ffd8
fff8
0021
0040
ffb8
ffc7
ff5b
ffeb
fff2
ff9d
0097
0025
00a9
0078
007a
0013
fff0
007b
0077
0070
ffbe
0074
ff9f
ffaf
ffc2
0084
ffcd
ff64
ffed
ffd9
0023
ffc9
ff88
fff5
fff2
ffd8
005b
ff98
fffb
ffb6
00d4
ff9a
006d
ffaa
0046
ffdf
001f
ffc5
ff92
0051
feb6
ffde
0019
0096
0081
ff98
005d
ffed
007a
ff8e
ffc3
ffd9
ffb3
00cc
fff3
00c5
01d1
018f
0048
ff44
fefd
ffc4
ff1c
ff63
0099
fea6
00f3
ff30
0041
ff6d
feac
018e
ffcc
ffbe
00db
ffc7
fec2
fef1
00a0
fee7
017b
0020
00ad
ffb1
ffff
0082
0012
fec9
009b
001f
ff06
013b
00a6
ffd6
ff9f
ff52
00be
ffe5
0133
ff85
0179
002a
ff50
ff1a
00a4
000c
ffde
ffc8
ff44
ff0d
ff2c
fe8f
ffcf
ffcb
004e
feab
00e4
003f
00a5
fff7
003a
ffa4
0009
0016
010b
ffc3
ffaa
ff70
ff4f
ff96
000b
009d
0005
003a
ffaa
00ad
ff2f
0085
ff62
0062
000b
ff92
0098
ff7d
0066
003d
ff36
0064
ff25
ffb4
ffe5
008b
ff8e
ffa7
ff51
ff50
0003
0069
ffc4
000b
ff5a
ffd8
0074
ff60
0051
00b1
0089
0089
0084
ff83
ff7d
ff64
001f
00b3
0035
ff32
0019
ff57
ffa3
ffc9
ffa3
ff99
0043
ffa2
ffaa
fff8
ffac
00bc
ffe4
0089
0036
ffeb
ffd6
0052
ff89
00bf
ffe7
0003
ff74
0093
008a
ff7f
ffb2
0085
ffcc
001a
ff56
00e2
0051
ff5a
ff84
ffe1
ffa9
0047
004c
0011
ffbd
ffbf
0057
ff59
ff78
ff58
00c4
0004
00c6
0057
006d
ff7f
00b1
ffa4
ffd2
ff05
ffde
ff88
0010
ffe6
00b4
0074
ff3e
ffb6
00b5
0062
006d
0002
00bd
ffe1
ff9b
0061
007b
ff34
ffd5
ff66
0088
007a
004d
ff8e
ffb5
ff16
ff2a
ff24
ffe7
ffa9
ffeb
0013
ffe3
ff45
ff7d
ff58
00b2
0036
00f4
ff52
0081
ff63
ff2f
fff4
ff4b
00d2
ffdc
ffbc
ff66
0036
ff9d
00bd
ff39
0070
0049
ffbb
00ab
ffbf
ffa1
ff96
0081
0116
00f5
ff4d
fff6
ff5c
00b9
00b4
0086
ff1d
ffdd
0027
ffb3
ff7c
ff6b
ff9b
ffc4
ff90
ffcb
ff1d
0043
0016
ffd2
ff45
00ce
0043
0109
ff21
ffe6
ffc3
0018
ff51
0014
00e6
0041
ffe8
fefa
ff3e
00a8
00d6
ff2d
0070
ff07
ff7f
00ff
ff75
ff51
00b7
ffe2
006a
ff73
0094
fef0
ffcf
ff31
007a
ffb1
ffa1
feca
0029
0050
fee5
0032
ffc4
011e
0028
ff60
ff8f
ff82
00a9
ffef
ffab
00f2
009f
fe7e
0072
006d
ffe8
ffce
feed
ff13
000c
ff66
fff2
fff2
ff2a
004f
ff29
ffe8
005e
ffe3
ff06
0039
0008
003c
fffc
00ba
0005
ff5f
ff64
0020
0024
ffdd
0130
0004
00ce
009b
0070
ffb0
ffe5
ff19
0018
0068
ff01
ff64
005d
ff65
00a3
00eb
ff50
ff84
ff71
ff4c
ff6c
003d
0071
fff2
ff6f
ff8a
ffc0
006b
ffdf
0031
0087
ff15
ff63
0010
ff96
0144
ffb3
ff56
ffb5
ff38
004f
ff96
00ff
ff42
ff39
0114
ff41
0120
ff13
fffd
ff6e
0155
ffd2
ff6c
002e
fff3
004d
fee3
ff9f
0024
ffdf
006a
007d
ff7f
ff9e
01cd
0155
ff22
011a
fe8c
fec7
ff2a
00a5
ffd3
00f3
fec9
006f
ff93
0152
00df
fe88
fefe
ffe5
ffef
ff32
003c
00ba
ffdf
ff27
014d
0111
00d7
ffc9
ff1e
ffd8
ffd0
fec1
0013
0032
00f6
001c
ff07
fe78
0112
ff4b
00f0
fef5
0110
0133
ff88
003e
0122
00c2
0014
003d
ff7b
ff4d
00eb
0023
00ec
ff93
ff5e
ff8f
ff01
ff6b
0092
0056
ff39
ffe5
fecb
00aa
ff90
0122
ff35
ffe5
00a7
ff0e
004c
ff90
0112
ffe3
001f
01ae
003e
fef9
ffb4
00a8
fed6
0018
ff28
ff5b
fedd
005f
feda
ffe4
ffb3
ff43
ff7d
007a
fff4
012c
0106
ffbc
ff21
0061
00fd
ff9f
ff98
0128
00c7
0015
0149
001a
ff4f
ff2c
00d5
0015
00ae
ff82
00e5
00af
00c2
00b0
0076
0095
ff6f
feea
003a
0073
0091
ffa7
003b
ff18
ff6d
00e7
ff83
ff93
fff2
ff2a
fefd
ff9c
ff7b
004a
0126
ff19
ff84
ff7f
001f
fedc
0011
00a3
002a
00a9
0055
004a
ffe2
ffda
ff82
0019
000c
ffb1
ff00
0157
0052
ff82
00a5
012f
ffce
00cd
0187
0006
fed0
ff54
00fd
00dc
0038
ff3c
ffad
ff0e
00fe
0019
ffba
fef8
ffd6
0039
00af
00d6
002a
ff50
ff4e
0017
ffac
ff5c
ffe6
ffb0
004c
0015
fff2
0104
0129
ff74
0011
ffa8
006b
0028
0090
ffbc
ffc3
ff48
00e6
00df
0067
ff07
0091
00db
00c4
00be
006e
fee5
004b
ff4f
004f
0024
ffc3
00d8
00e4
00bc
007b
ff80
ff6c
ff85
ff53
00ae
012b
ff3b
ff08
ff37
00df
ff99
ffe0
00ad
ff69
0096
0004
ffed
0092
00e7
00a4
ffbe
0011
ff67
00c6
0008
ffa2
0091
000a
ff68
ffb1
ff68
ff57
00bb
0014
001a
003a
ffba
0077
00f1
009b
ff74
00af
00ff
ffbc
0001
0011
0077
ff57
00c5
001d
ff88
ffe9
fff6
fed8
ff33
ff79
00a2
000f
00a2
ffcd
0061
0080
0045
ff2d
0098
00c3
fff6
ff5c
ffa7
ff38
009c
ffb5
ff9a
ffad
0016
ffec
002f
ff13
0035
ff5e
006d
0096
00c7
002c
ffa8
ffb9
0085
00aa
ff30
ff8c
ff7b
fff0
0134
00b2
008c
ffa6
0110
ff6f
ffe6
ff01
006f
0029
008e
ff86
ff5f
ff2b
00b1
ff58
ff10
ffb5
ff6a
0109
ff3e
ff00
ff06
ff5f
00b7
001a
00f8
fff9
0082
000d
ffef
fed4
00f4
ff01
fedb
ff07
00a8
ff26
00b3
0092
fffd
ffe6
0083
00b0
ffa6
0061
006f
0005
000a
ff6a
ff7b
ff80
0026
ffcd
ff9a
0005
ff80
ff9e
00c9
0088
ff59
ff94
ffaa
ff6a
ff6a
00d3
0064
0083
0042
00ae
ffc2
ff5d
0077
ff20
ff9e
ff5d
0067
00e1
ffe5
004f
ff6c
0060
ffaf
0052
000c
ff6f
ff4f
ffea
0062
00e7
00a9
001b
0070
009d
ff87
ffda
0031
0053
0032
ffbd
001c
0063
0084
ffe0
ffdd
00c7
00d0
005e
00b0
003f
0041
00e6
0007
ff3b
00ce
00c0
007c
00cc
ff34
ffcb
ffa7
ffed
00a3
ffe5
0059
ffd9
ffa2
0031
0165
ff6c
004d
0038
00e2
0026
ffb8
fff8
ffa1
ffcc
ff5a
ff2e
0070
0006
0003
008c
00d3
00b3
00d5
00a8
0013
ff8f
ff5d
ff4c
ff2c
0016
0022
ff9d
00af
008c
ff93
ff7f
0082
ffdb
ffc1
0006
ff74
00df
0036
ff6e
0029
ff6c
0076
ff40
ff60
ffcf
0038
0075
ff6f
0047
00bb
ff82
ff35
ff4b
0070
ff3c
00bd
000d
ff7c
005c
007b
00f2
ffc7
009d
fefa
004c
ff51
0066
00a8
0073
00e8
ff86
ff64
ff3a
003d
0065
00c8
006b
00aa
009a
004a
ffc1
009c
fff1
ff22
0016
0047
0047
ffdb
00eb
0107
00b5
ff94
ffa3
ffa5
ffdd
ff30
ff58
ff61
ffe4
00aa
006a
002c
007e
00cf
ff40
ffa5
001c
003d
ff97
ff47
00fd
0007
01d9
fe7f
0047
fee1
0077
0143
00ba
ffd1
01dd
0015
ff04
0013
ff21
fe66
0007
ff65
00ba
002f
ffed
ff01
0088
0076
0156
ff5d
014a
ffde
fe96
ff23
0164
0090
ffb6
fea3
ff8c
008c
0043
015e
00e4
00ff
0096
ffb2
0151
fe72
015e
ffc9
01d8
0139
feee
fe95
ff13
ff6b
00d0
0099
0148
ff95
009d
ff29
0127
0052
0117
00c1
fec0
ffc5
ff5b
005b
00b7
ffb8
ffed
ff6f
ffad
ffa1
fff1
ffa5
fffe
0014
ffbe
0012
0015
008a
ffb8
ff0a
ff7d
ff92
ff1f
00bb
ffa6
000d
ff7c
ffca
0053
0076
fff9
0006
0031
00a7
ff73
0076
ffa8
ff7b
ff6f
ffbb
0049
ffef
ffa7
ffdd
ffc9
001a
ffb3
ff81
ff80
007a
0008
0040
0039
ff67
0005
ffb9
ff44
ff54
ff8e
0006
ffe8
ff87
ffd8
001e
ff95
ff05
0030
fef4
ffa6
ffa3
fff3
0141
ff87
ff9f
ff56
ffb7
00af
ff97
ff33
fef7
ff04
00a0
003e
00e3
0046
ff34
0034
ff22
ffe4
ff82
00ae
fffb
00cb
ff63
0097
ff64
ffc3
ff6c
001e
ffe7
ffe8
00c7
0005
00d0
ff9e
ff39
0064
ff4a
006c
ff58
fffd
0069
ff1e
ff1b
ff98
0089
ffb1
ff38
ff0b
0023
00de
003f
008c
009d
00d8
ffb8
ff97
ffb8
ff7e
ff50
ff54
ff40
ff4f
004c
ffaf
ff78
0065
00a9
ffeb
00d4
fff4
00c0
ffce
0014
00d9
ff84
ffbb
0025
0134
ff79
0029
002e
00e5
ff64
00b6
ffbb
005a
ff64
003e
0028
ffbf
0088
003b
00a2
ffdb
ff94
ff49
00a4
ffed
ffb8
ffe6
0079
00a6
fff9
0048
0022
ffa7
ff2f
ffbb
ff88
ffe3
ff2e
0039
ff32
ff9f
ff35
ff43
003c
ffbb
003c
fff9
ffd4
0090
ff55
ff7f
ff96
ff73
007d
00d2
002d
ffa5
ff18
004c
ff3c
0086
003a
ff84
0050
ff71
007f
0080
ffb8
0007
0079
0011
ff56
005c
00ad
0113
00b2
0072
ffa9
ff96
002c
ff8d
fff9
00c5
00a7
00e8
fff6
004d
005d
ffce
ff9d
0013
009e
ffd8
004d
003a
005d
0037
0077
0047
004e
00a0
001e
ff10
00ba
0093
0097
ffb8
ffdc
010e
0024
ff8f
ff67
ffbe
ffc5
00ca
ff53
0077
ff22
0067
ff67
00e7
ff57
0065
ff89
ffdb
ff7b
00c4
ff23
ff39
ff54
005b
fff1
ff5a
ffe2
007f
00d7
ffe0
fffd
ff41
0096
fff5
ffc6
0043
00bc
ffce
0070
00ed
0134
ff4a
007c
ffe8
0012
ff4f
ff8a
0078
00b3
0076
008c
00df
ffbf
ff41
00d9
ff93
ff3d
ff7d
0016
ff07
007c
ffa3
ff40
ff8e
fee3
ff95
ff47
ffdc
00a1
ff76
ff7a
ffc4
ff27
0045
fff4
ffd1
0057
009a
ff56
fee5
0010
0015
003d
ff4c
ff4e
ffbd
ffce
ff60
009c
ffb8
00be
ff67
ffb4
ffaf
fff9
ffa6
00a2
ffb1
ff67
00c4
00c1
00b1
ff73
0080
ffbd
0031
ffb4
fffa
ff91
ff6e
0035
00ad
ffd8
0073
ffe3
ffda
ff1e
ffae
ff44
ffb9
ff11
ff71
ff4a
ff00
ff61
0043
ff67
ffa5
ffe5
ff8d
0046
ffc5
0088
ff71
001b
ff65
ffec
ffa6
ff74
0018
000b
ff07
000a
ffb4
fefa
00a0
ff74
0010
0032
0026
007f
ff44
00c4
0078
000b
ff52
ffdb
fef2
ff87
ff23
ff24
ff53
0114
005e
0035
ff84
ffc4
ff66
00e5
ffde
ff64
ff73
0049
0065
0017
000e
ff5e
ffa3
000f
ffee
010f
0068
ffc3
febc
00e0
0043
fed9
ffc1
ffb0
ff93
ff33
ffbf
00b3
ff7d
0063
ff8d
00d5
0045
ff3d
ff6d
ff77
0094
00b4
0098
fec2
fea7
0018
fedb
ff21
009f
ff29
0069
ff15
fee5
fed1
005d
0000
ff12
016d
ff1c
ffc4
fef2
00aa
00ec
0087
ff77
ffb4
003a
00a8
ff25
0033
001a
013d
ff86
0003
00ff
ff6c
0057
0031
0071
ff9a
fe3e
fec8
ff81
0103
010d
ffe2
ff45
010c
0068
ff0c
002c
0023
fffb
ff21
ff7a
ffff
00a5
004f
ffa3
ffb8
ff41
ffdd
009d
001e
00c5
00de
ffb9
006a
ff62
ff9b
008e
000f
0120
011f
ffea
0080
00f5
ff87
ff6f
0107
ff12
009b
ff89
0060
005a
ffb5
0064
fed8
ff93
000b
ffc6
ff77
015b
ff6d
ffb6
ff0e
ff1a
00f8
ffde
ff3b
0029
ffae
013c
009c
ffea
ff27
00ca
0045
0022
ff57
0094
001a
fefa
004b
0132
ffff
ff46
00bc
00c6
00ef
ff1b
fed7
ff62
ffc7
ff2d
fffe
fff1
006d
001f
ff3f
001e
004b
ffe4
005c
ff66
ffa2
fff3
00dd
ffe8
005e
005b
ffa3
ffab
0014
0095
00a5
007c
ff64
00ab
003e
00aa
00ad
0019
002e
ff52
0032
ff89
fed1
0046
0099
000a
0065
008c
ff72
0023
ff4d
002b
0058
ffee
ffca
00b3
ff43
ffe8
0015
ff9a
ff9c
ffc8
ffce
0052
ff98
ffd6
001d
0040
0065
0095
00ac
004d
0052
ffdb
fee0
00c2
002a
ffc3
ffe4
ffb6
007a
ff97
00a4
004b
000c
00ca
ff47
00b0
ffb4
0071
00bf
0088
ffbc
ff63
ff69
ff73
004a
00ab
ffa8
0079
00db
ff7b
0098
ffc4
0008
011d
00ae
001c
0027
ffe7
003b
ff56
ff54
ffb2
0049
ffce
ff20
fffb
ffd2
ff89
00bc
ff6c
fee4
00ba
febd
ff7b
ff37
005f
ff52
0051
ff72
003a
ffa9
0027
002c
0119
ff61
ffd4
ff05
0084
ff4b
010b
ffcd
002c
00a9
00d3
0080
00ad
0083
00e0
00d8
ffbb
ffe4
00cf
ff61
ff28
ff4f
ff48
ff37
0076
0066
00d4
ffca
ff37
0070
000c
fee5
ffba
ffea
0117
00ad
003f
004f
ffa9
003b
ff7b
009f
00c7
0047
007b
0024
ff97
ff36
00a0
ff33
0011
0034
0005
fe80
ff2a
0075
00a5
ff84
0082
ff41
00a4
003d
ffd5
0067
003e
ff31
00ce
00bc
feb2
01c1
0192
00c4
ff81
0121
fe46
ffb7
ffc8
00ca
009c
0058
fe94
fed3
008e
fe63
014c
fe8b
ff43
feee
012b
0043
017a
0071
0004
004e
005f
ff08
007f
fe77
0181
008a
017f
0073
fec9
00e2
fea7
008c
0149
0134
fff8
fe1b
ff5a
fec2
fdd3
fede
ffbc
feb3
011e
ff38
003e
ff5d
022d
ff19
febb
ff41
0111
fe8c
ff84
01d0
0002
00b2
fe79
ffbd
ff5e
ffaa
00b1
005a
ff77
ff53
ff98
0002
0039
0025
fff4
0067
ffe7
ff42
0094
00ad
ff76
ff3d
0030
ff7e
ff02
ffe7
ff9c
0016
0052
ffc6
fff3
fff9
ffd0
ff5f
ff9f
ffb0
0042
ff7a
ffe2
ff2f
009a
ff6a
008b
ff86
ffaa
fffb
ffd4
ff95
ff59
002a
ffcb
006e
ff6a
ffdb
ff4e
ff50
00cd
ff54
ff37
ff68
00bf
00dc
ff37
ff6a
ffcb
0014
ffab
00c9
ff34
0014
ff52
0069
ff35
004c
0099
00eb
00cc
ffc1
0083
ff88
ff49
0079
00c8
ff98
0042
0028
001b
ff8c
ff87
0060
ff73
0041
0051
004c
000d
00b5
ff90
0033
0061
002a
ff62
ff39
fffa
fed8
ffb4
0101
0082
ffd2
00e4
00bb
ffe3
0070
007e
000f
00bd
ffcb
0007
fffe
0030
ff6a
0009
ff78
00a9
0089
ffa9
00f9
ff38
00ae
ffbe
ff5d
00cd
ffb4
ff3f
ffa9
003c
009a
009c
ffa5
ffb6
ff6a
ffa1
ff92
fed1
ff3f
ffb9
0037
00be
0021
003d
00a1
ffc7
ff94
ff4b
008f
ffdc
007d
ffd1
0040
ff75
0078
006c
008a
fff0
008d
0039
ffb3
feb7
0088
005e
0141
0085
ffd8
ff24
ff85
ff0a
ffcc
0089
ffe6
ffac
ff8e
ff92
004a
0082
ffaa
ff95
ffc4
ff60
ff95
ff27
008e
001a
0009
ff4d
ffea
fffe
ffcf
fffb
0010
ff44
ff33
fff2
000e
ff85
0043
ff6a
0088
00de
00cb
0036
000f
ffbb
ff7e
005b
ff7b
ff65
0033
0030
007c
006d
005f
0058
0094
fff2
ff9e
000c
0066
ffc0
ff48
ffbc
0014
fff3
0059
002b
ff42
fffd
0080
0092
fff4
00a3
0001
ffe3
ff92
0064
ff9d
0004
00b4
0059
ffa2
ff3f
00a4
0003
0013
00b6
ffe6
00c5
0099
0005
fffb
0091
fec7
0083
006f
01b0
00ba
ffb0
0031
0106
ff60
ff7d
0042
0112
fed5
ff2e
ff12
fffd
0064
0063
fe9f
009f
fe78
ff87
00e7
00cc
0013
ff16
ff6c
ff60
ff0f
0103
015e
0016
0017
ffd9
0067
0106
0096
007e
ff8d
0010
012f
ff3b
00fc
ffd0
01fb
004c
00a7
ffd0
0039
0134
ff64
ff03
004a
0064
00b9
004f
ff4c
ff99
0070
ff6b
0090
ff40
0048
005e
ffa3
fff6
0057
0038
fe9b
ffa0
00b2
0051
000a
fee1
fed1
ff98
0046
0043
ffc0
ffee
ff6f
ff0f
ff90
0159
00f3
00ae
0094
0089
fed5
008e
0044
00df
00e5
ff6e
0071
fefd
00f6
00cc
011f
ffcc
0051
ff11
0110
010d
0097
00e7
015e
ff73
ff1b
ff4d
0073
fe7c
00fc
fe8f
00b8
ff59
ffdc
ff6e
000c
ffa9
00a5
011f
001c
ffff
00aa
0032
00fa
00ed
0062
007f
0113
ffa5
00f8
ff6b
0094
ff9f
0104
ff23
006f
0070
ff46
0059
fefd
ffa6
ffa5
0039
00c0
00c9
0041
0021
ffb9
fea1
ff8e
fffd
feea
0073
002c
002d
ff93
ff5d
00fc
ff51
0105
0074
009a
ff60
0040
0019
010c
00ac
0024
ff03
feae
010e
001a
ffcf
ff68
0000
008b
ff6c
00b9
fed8
005b
00ca
00a4
ffd1
ff75
00d3
0136
0050
ff9b
fffd
