ffd9
ff79
01c8
0066
009c
fe48
ffd0
fe7f
0161
fe68
0023
feab
00d7
fe32
00c3
0018
ffea
ffdb
ff32
002e
011d
ff54
014f
01d5
feab
ff71
01d5
0066
009b
ff7f
fec0
0096
00bb
025c
00a1
0124
00ab
fec2
00de
00b9
0099
0159
fe11
fdcd
014e
0024
fe94
fef7
01a9
ff92
0138
ff1c
fe91
0017
00e8
0082
00f2
014c
01f9
fe60
00af
00ff
fe62
00aa
0054
02ae
fd4d
fdd2
ffbe
ff06
fd42
0156
00f2
fd18
fed1
001f
0017
ff7a
0075
fea1
017b
fdec
00b7
015f
fd3f
fd8d
0013
0237
fd6a
02da
02f8
018a
008e
fd7f
0296
fd21
fcaa
0355
ffec
fc31
013e
feca
00c9
008b
01f3
0169
023b
013a
0107
fe06
0073
02fb
fe3d
00d2
ffc2
0179
ff60
001d
0032
0320
ffd6
0154
fe41
ffa6
ffd2
fd60
fde8
ffbc
ff94
fdcd
ffc7
ff10
0201
ff65
ffb3
029b
012a
0266
0103
ff53
fdac
011a
0107
01aa
00a5
00df
029f
0066
02e8
fe97
01e1
007f
ffa0
fe02
020d
ff34
ff00
fff2
0258
fced
00b8
ff71
febd
01a7
fec8
fe49
ff40
fed0
ff9d
fd60
fe7f
fe17
0062
0205
02ca
fdaf
ffa8
01c8
01aa
ff7b
014f
fd66
02fd
fd74
ffd7
0080
0066
ff3f
fff4
ffee
006b
0110
0002
fe64
ffa6
ffab
fef0
fdef
fea1
0083
ff83
fedc
fe5a
0123
fd75
fe88
fde7
fe2a
01eb
fee5
0032
0002
fee0
0191
006b
019c
fcef
00f0
0040
ffda
ff61
ff7c
fda6
ffd2
fff4
00e9
01fb
0092
fe61
fe51
fd33
ffa8
0122
00e5
fd46
fec6
ff18
ff9e
0159
000d
ff1a
0198
fffd
000e
ffe1
ff91
00c6
00de
0137
0202
ff63
ffb6
fead
01c1
0255
ffd0
fdfe
0004
0097
ff9a
0176
ffda
fe01
fe75
fe45
ff91
fdf4
00f4
fe5a
fe57
ff58
0105
ff01
ff36
0088
0016
0182
ff02
ff9d
fe8d
febe
fe68
fec1
0234
018c
002d
0190
ffbe
0149
0172
fef3
0021
fe8d
fe41
0226
febc
fe82
0011
00ca
01bf
015e
ff2f
010e
ffd0
01c6
0079
fea5
fe4c
0107
00cd
0122
01ce
0154
ff06
fe98
ff63
0083
fe7b
01a0
fffd
00cb
fff8
fdd5
0094
ff90
ff52
fed5
fd65
ff49
00d5
ffdd
000e
005c
fe3b
fe12
0165
00e8
ffaa
0001
0207
0126
fed1
ff54
ffcd
ff78
ff29
01f3
0196
fdfa
fdfa
ffda
ffdd
0117
ffc2
fe2e
ff26
0141
0047
ff87
01a4
011f
01f0
fe72
010c
fefe
ff63
01fa
fed8
01c5
0056
ff43
ff6f
feb3
01a4
fe14
ffa3
01ad
fdf3
01c0
003a
fffb
fe9f
fe19
00db
fe64
ff9a
ff63
fe41
0109
0010
ff31
fef6
ff16
ff3b
fe52
0053
ffdf
ffd1
ff99
fe8a
0167
0188
0134
00e8
00d3
fe92
fe1b
008b
fe98
fffa
feed
020c
019e
01e3
0093
0221
006e
fdc5
ff9a
0031
00fb
fe79
006c
fe0d
febc
ffea
0056
fe24
fe60
02b0
ff5a
fefc
ff50
01d7
021a
00df
0038
019d
0048
fe66
0076
0034
fd9e
015b
ff3c
ffe0
fe9f
01b6
ff30
febd
0158
fd7f
0229
00cf
00be
02ef
026a
0001
ff2b
0020
fe62
005a
0060
007c
0050
0084
febb
fdbc
fe5a
01a8
ffbd
013d
fd2f
fe40
015f
00f1
ff95
fec4
ffb4
ff8e
fda8
01c6
01ca
0370
fed7
ff52
fdd8
ff0d
fef9
ffbc
ff21
fe38
fdf4
fe30
ff50
0296
023f
fec9
fd7e
0161
fe05
005e
fe7b
fd38
feb7
0193
ff2e
feb5
0199
00bc
fed7
000d
01ee
01d0
fe98
ffa6
0182
fed4
0091
019d
01a6
0049
ff3e
00d4
ffc3
011d
ff03
febf
00d4
ffaa
0092
015d
022d
fe47
febb
ffd0
009a
00f1
fff6
0174
fef6
01e9
00aa
016d
01a1
0142
020c
0210
0045
01a7
ff57
006c
fe1e
fe82
fede
0113
ffd6
fdf7
0015
0120
ffea
014d
0120
fd6b
0077
fff6
0001
fee7
00f5
ff4b
0090
fe22
fde9
feb7
00ed
fe21
003a
0020
ff75
0047
fe76
ff99
fdfa
008c
ff59
ff09
ff7a
fe3e
fef5
007a
ffb8
01d9
ff3c
01ab
024f
005d
0128
019d
00f7
002d
fe4f
feea
00e0
feec
fe1e
007c
ff17
003b
ffa7
fe84
fe3c
fe0b
ffe9
fdff
feb2
012d
01a0
01e1
fe08
0080
01ce
fe6b
ff59
ffb4
01cf
ffff
ff95
004e
fe6e
fe7b
00a7
fe92
ff35
fe83
fe5a
feef
fdbd
0048
0032
fe96
ff86
ff99
fdf2
01ad
fe1c
fee9
01a8
018b
0125
0124
000f
01f4
fde0
0136
00cb
fe24
feea
fe97
00d4
0045
0168
01e9
ff1a
feca
fe6c
0181
017e
fe95
fef3
0074
ff7e
fe89
00ad
022a
feef
0026
0028
ff44
0013
ffe3
ff88
fdee
fe13
ffba
ffe2
0137
fda3
01d1
0086
018d
fe86
0059
fe36
001d
025a
fe92
0093
0189
0102
fe82
ff56
ff31
0113
00be
00f1
0135
ffb3
0164
00cf
0086
020b
fd0a
fe13
01cd
ffe8
01b6
fe69
01e0
ffb1
fe37
0202
fe23
01cf
024d
029f
fe33
ffda
fe37
006e
fded
fde1
01ee
fe74
fe74
029f
00f3
fe40
00ab
ff91
00fd
013a
0190
fdee
fe07
ff18
001c
006a
01fb
fcf2
0263
0080
0033
ff84
030f
0295
01bb
004e
ffa7
ff0d
010b
fe18
0019
0057
fec6
ff6b
01f3
fd42
fe10
009d
0110
015f
0014
0070
fffc
ffaf
0144
0046
ffd3
fdda
fe78
0191
ff2d
ff4f
01de
fe54
ff1e
fecc
0198
ff4a
ff79
fee7
024a
ff46
007a
fd7b
ffe3
0104
0173
025d
0216
0028
01d8
fdad
feb8
fd9f
ff78
ffe8
ffb5
ff6e
fdf7
025b
feee
ff31
fd3d
fefc
fe43
ff6e
fedb
0026
01d4
fdbb
01d0
ff43
00be
fec9
0140
0138
00e7
fe78
ff72
ff44
ff82
ffd4
fde7
ffe7
002a
0086
0017
01f0
029c
01a7
ff4f
0287
0099
0180
ff8f
fdc0
ff47
0012
006c
ff6f
fe98
ffc1
fe7c
fe82
feed
fd95
fccc
fed5
008e
fe21
fe54
0136
fd86
fff5
007c
fd99
fe41
015b
01cd
fe8b
ff1f
005c
fe05
01c0
00a9
fed3
fe87
02e3
0171
ff3f
ff58
fe7a
0024
021c
fcef
fd5b
00bf
0109
fdf7
ff21
00a3
023e
01ab
002c
ff8f
001c
0044
fe94
ff3f
ff6f
01d1
fdae
fd2a
03d7
00aa
0105
feff
033f
fe32
02a8
02e6
0215
008a
00ed
0195
0136
fd6a
fd97
ff74
ff69
fd69
0357
ffa8
0136
ff91
fe14
feea
000d
fe93
0250
0249
029d
ffaf
ff18
02f8
0227
fe42
fe2e
ff97
fc51
ff8b
0265
feab
fe4a
0007
fd0a
00f6
fe58
fd7a
ff67
fe3f
0275
00a0
ff93
fec0
ffc5
032a
022c
0050
fd9c
0303
fecf
fdeb
ff76
02b9
0316
fe30
02ec
fd34
fc37
0252
fecc
037c
fd40
0362
01d4
ffb7
fe14
ff97
fdcf
fe29
0180
02be
feee
ff29
0146
fc8c
0074
0250
fe73
fefc
0211
00fa
fd77
0285
fd87
035f
fffc
01cc
01c3
01b0
01b6
fe52
ff9b
034b
0227
0066
fce3
0222
0084
fee4
fd91
0253
fd55
00be
fe0a
fee5
fde9
fe9a
fe10
ff31
023a
ff83
fee1
0160
0244
ff6a
fe2c
0003
fe7c
fe83
fe29
fe95
0155
fe83
020e
003c
ff89
007f
fef6
01d6
02b5
0064
00a5
fe9f
feb8
011b
014b
0194
00c9
fe0b
013e
0258
ffac
0165
fe37
fdce
ff12
0183
0201
005f
ffb0
fcb1
0014
fd61
fef1
fec7
0020
003c
ff90
febc
0020
ff88
0274
022a
fe23
fe66
fea2
fdf3
fe43
fdcf
fcf7
fe55
fede
0125
ff14
0252
0100
ffad
ff80
008f
fe58
0118
0082
0071
0112
fe2e
01b1
0252
01fa
fee8
fe2b
0081
0024
ff6c
ff37
0046
01fb
00da
016b
fe1d
ff81
0075
0089
014a
00ec
0166
01b1
0017
fe30
00b4
feeb
fe93
00bf
ff66
ff12
00cc
0052
0039
0064
01ce
fe22
004b
00f7
ff3a
fe82
fea4
fe14
ff9f
025c
01eb
0231
fff0
0185
0151
0079
ffec
ff2d
0123
008e
ff1d
fe2f
0188
fea9
0107
fecf
00cd
fe89
ffa0
0201
00bb
0094
009c
0028
fd1c
011b
fee6
fe8f
018a
fef3
0103
018e
ff24
00e1
006f
fe4d
fe0b
0195
fee1
fee3
fecc
013f
0178
00a6
0097
006f
00de
fff2
0218
00b5
feb5
0231
0114
0019
0071
fdd2
ff17
ff72
fd9a
0163
0057
fe11
feef
fe56
ff72
018e
fea0
016f
fed9
0158
fde3
ff70
01bd
004d
014c
0051
fd91
0008
fefa
fd8b
fe2c
0000
fe73
01ff
fdef
fd20
fe36
fe94
fd94
00b7
ffcf
01d3
0170
022a
fe84
00e3
032f
feca
024a
018a
0261
fd10
ffa4
016c
0034
017b
0246
ff50
004c
0220
0242
fe36
fefd
ff29
ff72
00a1
ffed
01f6
01bd
00e6
fe65
fef3
fe4f
ffa4
0235
00f5
ff36
0167
014d
ffbb
0135
009e
00eb
0024
fedd
ff46
fd48
ff68
ff64
014c
00e8
fdcb
0239
01d3
ffff
0196
fdee
fdff
022e
00ba
0113
0218
0189
0114
032c
ff28
fe54
00b2
01b4
fe07
ffa8
ff1e
017b
00f3
fe9b
fd08
0184
ff0b
febf
fdec
01c1
011c
0086
026a
fe39
ffc4
0154
00c0
003a
0178
ff70
fea1
0160
ff9d
00d5
ff8d
fdc2
fe48
fea7
fff7
fdee
fee8
0216
ff80
ff30
022a
ff5d
00b8
0080
ffcf
fef3
fe89
fdfd
ff13
00c0
00ac
01b3
fe1e
0180
fdea
014c
01b6
017f
ff5e
001f
0103
ff94
003b
fff3
0037
fdb1
015a
fefb
0255
0040
fe39
fdab
ffcc
00f6
0092
007e
005f
fe2f
0009
fe2c
01d8
0273
005c
fe91
ff93
fe9f
017f
fda7
ffab
0127
00ac
fe51
008c
ff27
012c
005c
022d
0206
fe47
ff90
fe99
013f
fed4
ff05
fde1
ff6f
0020
ffe9
00c5
fd8f
00e5
000a
fe6c
011a
fed1
ff52
fe51
ffa1
01ed
01b5
0198
0263
01a9
0080
0088
001b
00fa
ffcd
ffc1
ff90
012e
fe21
ff11
fefe
ff54
0028
01b9
0150
ff7c
fe50
003e
0041
ffe7
ffa5
00cf
fe59
00b4
fe85
ff91
ff10
feb6
ff5a
00b4
019c
fec9
fff7
ff3b
ffdf
00e1
fec9
fea1
016e
ffc9
fe50
ff93
ffbd
ffb6
ff41
ff5b
fe97
fe87
ff57
ffa3
024b
00e8
0009
ff15
fe6b
fe68
0039
003c
ff76
fedc
ff25
ff88
fdc0
fe09
0015
fff9
ffb2
fdaf
00c9
ff17
0090
fe9b
ff6e
00e1
fe38
0177
ff98
00b1
017f
0139
0130
00ec
0020
fea4
fe4e
013b
fe9e
0017
00ad
01a8
fdb8
ffa9
fe5d
016c
fd8f
ffb5
0162
00f7
feca
fe20
0104
0156
fdee
feaf
01ed
fdeb
0140
ffe6
0072
00ff
0120
016f
009f
ff0d
01f5
011b
ff53
ff6e
ffdf
01a5
015d
0059
0051
0127
01ce
feb4
006b
017f
006a
ffce
0057
ff01
feb8
01d9
fed3
ff02
fe5c
0133
012e
00fa
0083
0160
ffe6
fdea
ffc8
000b
00f4
0192
0139
fec3
ffc7
014d
00c8
005e
009d
0129
ff9d
00af
0141
0114
fe8f
ff45
0044
ffbb
ff94
fe7f
01d5
fe6c
017f
ff2c
0031
0018
00ea
01a7
ff22
0142
ff83
019a
00cc
006b
0021
02ed
0026
0222
feff
ff3c
fdba
ff52
fdff
0184
fe12
fe0d
0187
ffd7
fe40
ffba
025d
ffb2
0043
febc
018e
0198
fe51
fcf6
feef
0054
0226
ff09
fe7d
01f2
fd88
023e
0232
020b
0016
01dc
0194
ffbe
ffb2
fe08
018d
01d8
002c
ff82
0022
015c
ffb3
0101
0215
fcf5
fe80
fe29
ffef
025c
ff9f
01aa
fee6
016e
0048
fde3
fffa
01f5
fd37
fe49
01cf
009b
0079
032d
001e
020a
02aa
fd58
0067
0171
ff30
ff85
fed4
02b2
0112
00ec
010d
fd29
fe86
fe9d
ffb6
0245
0044
fdfb
0000
ff17
016f
fe7c
0210
01f6
0019
fced
00df
fd0d
009d
ff19
0314
ffe4
fe50
fded
fe2d
0283
003e
ff69
02db
000a
0076
ffbd
02c7
01a4
febf
fe34
021e
ff5f
ffd1
fc95
013e
ff12
031d
fe82
fe36
0138
fd61
0180
fdd8
fdaa
ff37
01d8
fe8e
fe61
01bf
fe8b
ffc9
ff5d
fe8c
0155
ff43
00bd
fe0f
0094
ff73
02a5
feff
0021
fee6
013f
fea3
004e
ff5f
fec4
00a9
fdf5
012b
0104
00dd
fe9f
00a9
ffbb
011b
01a9
0092
fe41
000b
ff97
0051
0257
00b1
00dc
ff81
ffce
0126
0001
fe8e
00dd
01f5
0031
01db
01b0
fde6
fe8b
0220
0062
0167
fe65
fed3
01fe
ffc9
fdf9
ff7b
ffb3
fe20
fec7
016f
fde4
02ac
fd26
0239
ff92
000b
feab
0024
fef0
0108
fdcb
fda5
ff66
ff2d
0218
fe66
fff3
00d7
02ac
fe11
025a
ff3b
0055
01c6
fe00
fde9
ff06
ffdd
01fc
fe6a
02c4
003c
0230
feb7
020f
02b0
feca
017b
0077
01a2
fde6
0029
006a
fc78
fe0c
0185
fece
fe80
01c6
ff14
00ef
ff44
fe10
fe09
fe25
02cc
fd92
ff0c
01f2
0137
0184
fea7
001b
022c
01e6
01a0
0163
00a7
ff86
ffc4
0015
018f
ff53
fe18
ff05
fe95
fe1a
ff88
fdc7
0006
feea
02b6
ffc9
fe20
fe9d
009f
fe87
0004
00ef
ff78
fea4
0282
01d9
00e0
ff60
fd5d
ffa2
fdc6
008f
ff60
0152
02bf
fee3
fecc
01c5
0220
00e2
ff5a
00a7
ff0d
fde3
016d
fe8c
0171
fd61
fd6a
ffcc
fdd6
ff43
0146
ffcd
fd5a
fe6e
ff9e
ff67
0218
ffb9
ff1e
02a5
02ed
00ff
0248
0161
0155
0177
fdad
ff29
ff11
0355
fff6
025a
ff1e
fd3e
fe8f
00a1
0101
0238
fe1f
0309
fecc
ff80
ff96
0126
0217
fe30
0292
ffbb
ffa4
ffd5
ff89
01a0
016c
0130
fe29
fe53
fde6
fe78
ff8a
014a
fe98
feb5
ff8a
fe5d
fea8
ff5b
fdee
0198
01dd
fd50
006e
001a
fe67
0180
ffb6
01b7
ff85
0019
00cc
00a9
005b
0140
00bc
011f
ff7d
01bb
fe21
fea4
009e
0132
0067
ffd8
0026
feba
ffa7
003c
003a
0101
0158
0134
02af
0215
fe91
01e1
006c
fdb2
fdeb
01f2
00a4
01c6
0233
ff90
ff5b
0093
feef
fe66
ffb4
0093
fe36
fed9
02a4
ffcb
0247
fe85
fdfe
fdb7
01d4
006b
00b2
01fe
fd6e
fdf4
fd71
0129
fea1
0224
00f8
ffd3
fe21
fe70
018c
0217
ffb6
011e
fec8
ff53
0202
0086
0163
ff8c
0005
0196
0193
ffc7
003a
fe83
fd46
fe13
0012
0184
ffb0
01fd
007c
fdf3
fea0
0149
fe00
ff12
0167
fe58
fea9
0147
fe93
fe3d
ffeb
012e
0040
01e5
fe04
005f
fecb
01f4
0155
fe18
0063
00b7
0120
00c9
ff18
ff0b
ff54
fea9
ffae
fe7f
01c8
fe74
fea7
020d
0252
00e7
ff56
fef3
fe30
022a
00e3
023a
00ae
fe32
010f
0030
023c
007e
0186
fd32
ff78
003e
016f
fd7c
0288
02d2
00c0
01a1
007b
0131
01c4
ff4b
018e
0170
0160
fe93
01c4
ff66
00a0
0084
fe90
ffcf
0057
fe5f
02cf
fe6a
0091
fd70
feeb
fdd1
fd47
01eb
0087
fef0
feaa
0207
003c
fd8a
017f
ff09
004b
fd8b
ff88
ff2b
0340
007a
ff40
0291
fd1a
fe18
feaf
ffa9
fd3c
0081
ff0a
fe6f
ff29
ff5d
01d7
009d
01ca
ff79
012e
009f
00c8
0219
ff68
0165
0121
ff68
001b
000f
0222
0104
004d
00a3
ff79
fe90
000d
ff28
fe43
01b7
fe45
fed5
ffb1
ff2b
0110
ffb8
0189
00b5
feea
018e
0033
ff0b
feda
0137
fdf4
0188
0154
fe1d
0039
ff94
00cd
010a
0032
00b9
ff10
018b
01a4
ffcc
fdae
ff2f
ff13
0177
ffd6
0202
0194
0169
fe61
01ae
ff6d
0088
fe98
000f
fd2e
fe9d
ffac
ffc8
ff9d
00f7
feff
017d
0236
fe5c
02b9
00f6
ffd5
ffea
ffa8
fdc2
fe92
0017
013d
fec0
ff84
fe6d
001f
008e
01e0
fff3
fe45
fdef
012a
01f9
00be
fe0e
ff77
0134
0282
01c7
01cb
ffca
ff76
018c
00a6
023e
011b
fdc8
00a4
0040
ff7e
fe02
fdc4
fef9
ff75
fecb
00ff
fdb4
fea4
fe2f
0139
fd51
010e
0126
0058
ff78
fdc4
0111
0127
ffd1
0020
ff9c
0010
0150
ff3b
0149
ffae
00fc
00eb
011d
fef6
ff8d
fe2c
ffda
0044
ffac
00ce
0009
012c
006b
ff4b
010a
fdaa
ff8b
0063
002b
00e9
ff55
0142
febd
ff2e
fe1a
00ab
ff4a
fedd
0165
00b5
0198
0016
ffa9
00b7
006b
00b3
005e
fe53
0179
ffad
012f
01d7
0026
feee
ff18
fe4d
ff66
fea2
ff62
0211
01a7
013b
007c
ff45
0034
0097
0252
0240
ff18
01d3
018f
0017
0188
0191
ff5f
0011
007b
0181
0045
00c8
fe1b
01a4
fdb9
fff3
fec4
fe7f
fff3
fe4a
fe67
feb3
00bc
0087
ffe0
fe23
fec1
ff63
ffd6
0040
0220
0293
019e
fe6a
0210
0068
0244
fee9
ff50
00de
fdb8
ff0b
ff30
ffa5
ff94
ff91
fe16
ffc2
001e
feeb
fe71
0006
fea8
00ae
ff07
0068
ff5d
ff11
fdd9
ff7b
0001
0042
fe53
fd65
01e3
fe57
01e5
fec7
003e
ff0c
01d6
ffa0
fee1
fc5e
009e
ff21
fe16
ff96
fd9f
00f8
fea1
fcb9
fd4e
0079
0013
0221
011d
0004
0046
fe9f
0149
01da
02ff
006a
0115
fd56
fe0c
0171
fd4a
fe0e
ff03
0133
000e
0030
fdd7
01bf
fdf9
006e
ff0a
02ca
027b
007e
0166
006c
015e
fec8
fe7b
fec6
00e6
028e
029a
fe15
fecb
fecb
feaf
ff47
fed3
fe58
0172
ffce
01a1
00c1
fe54
feb5
ffdd
0092
00d8
00af
fe62
01fd
fe83
ff40
ffd6
0213
fe54
0043
00fc
fe9b
fdab
0035
014d
fdaf
0034
ff11
fed5
003d
00a3
fdb5
ff7e
022a
fed7
0019
fe57
016a
0104
0009
fde8
00ff
009f
0279
01fa
fd44
ff7f
0143
ffbd
fd47
ffce
fd6f
ff60
fe36
0027
00de
0128
ff9b
fdfe
ff7c
ff9b
015e
0264
fd5e
00e5
fe5d
fbbe
ff34
fddc
0281
036a
035a
ff4e
fcdf
fde3
fcaf
0086
0180
fe3c
017d
fc28
01cf
0277
02fb
ff5d
fe80
fe53
02ee
fd24
0097
fd36
0287
ff01
ff83
fe02
fced
01db
004b
fed3
0093
0217
0292
01b9
fddf
00e9
fe42
0398
feb4
00ca
fe64
0285
0081
ffbd
0031
fc9d
ffd9
fec5
ff1c
00cf
0240
02eb
02a5
ff73
fdb8
ff7d
0209
fefc
010e
fffd
fff4
fd83
0172
020c
017b
0061
ff55
fdb9
feb5
fff1
0116
01fe
01f4
fdc6
000b
feca
fff8
ff5d
0124
ff6e
fea9
fd87
01ae
00cb
fdf6
013f
fe59
ffff
00ff
02ac
ff7f
009a
ffab
feb3
fe95
0156
ff0c
0067
0036
0256
00c7
009e
ff22
0199
01a4
029b
ffc3
017b
fe6a
fdc3
fdff
00a9
0044
feeb
0111
fd62
ff24
ffd4
febe
0061
005d
006e
002a
001f
008d
0043
fd8f
00ff
010d
0144
fdef
fe15
0011
ffde
febd
00d1
ff4a
fd47
ffba
fe79
fed5
ff87
0035
fe9a
ff29
fe1d
00c6
fe71
015e
ff36
ffcc
fdf0
feea
0104
ffec
0182
ff49
01ba
ff04
016a
ff9c
0026
fd28
ff83
ffd1
fee2
0141
fee7
ff15
0119
007b
0214
006c
ff45
019d
0045
0016
ffed
ff70
0226
01ec
015b
fe55
01e8
00ca
ff9f
fded
006a
ffb4
ffdc
01be
0256
0110
febb
023a
00da
00fa
011d
fed2
0032
006d
01d2
00fe
014a
022f
0056
fe78
ff93
004e
02ba
00fb
fecf
fd8e
00c3
0203
00bf
013e
ff2f
ff04
fec5
005b
0027
fe4e
fdf5
ffc2
ff18
ffa0
0113
ff88
ff2a
0164
fddb
ffc3
010b
0080
0055
014a
0038
fe18
00c6
fff6
0074
0044
fe84
022b
009e
ff37
fd8f
ff6b
0167
ff6f
ff72
fe65
010f
009c
fddc
011e
021b
0011
0277
020a
0016
fdfb
fed7
ffcf
0138
ff3c
ffbe
ffb6
01de
ff2a
ffa9
ffa1
feb6
001d
ffa1
fcd2
fe6f
fe5e
0072
ff58
002b
fe83
ff5e
016b
fe8b
ff51
fe11
01c0
ffec
ff0d
fe0e
0184
ff6a
ffd6
ff2a
feac
fdb4
ff70
ffd3
0216
00e7
fe3e
fef0
fdd1
006a
ff4a
0245
0137
fdac
004d
0183
fe4b
00bd
fe81
fd2a
fe31
01e0
fe0f
0133
00f4
ffe5
fdca
01d5
0153
0009
feb7
ff1a
0061
ff26
fd64
ffcf
00c6
0200
0188
0066
0131
004a
0129
0082
006e
ff78
01ee
ffa3
0062
fe85
fe27
00e4
0236
ff93
fdca
ff92
0186
01b2
005f
011e
0148
0168
0138
ff8b
0200
fdf7
ff46
ff87
ff2e
0172
fe69
003f
fe4d
0289
fd71
0178
fe3e
0101
feb7
006d
0180
fed2
feaf
fe75
0062
02b3
0132
0002
ffcb
01a7
fe01
0173
006d
020d
007d
ffc9
fe9f
fedb
01cc
0108
ff23
0162
fe9a
001c
021d
01a9
ff57
0152
fd4b
ff1e
fdbe
ff7e
fed3
013b
fe9e
ff28
ff7d
fd12
feb4
0090
0028
0146
fe06
fe98
fdc8
016f
00aa
fe66
00e6
ff93
0036
fdc6
fd9b
fee3
0038
01b9
0131
ffd6
ff79
ff06
fff0
fee8
01c9
0094
00c2
0116
fe96
0010
00b3
00c3
ff63
024a
ff60
0291
013b
ff34
00c5
013e
0246
ff5f
016a
fe8c
033e
000f
ffec
ff2d
ffbd
ff54
01df
fe1d
fdd8
fef9
ff53
fd3f
0051
fe45
fec0
fd1b
02dc
ff45
fe4a
004f
ff38
fe9f
fea7
ff87
02ab
00d9
0280
006a
ffa2
fe5f
fdcd
fd9c
00ed
010d
02be
fe2c
feed
fe9e
007c
01ba
ff06
0009
019f
fff5
001b
fdc7
fe41
012b
0273
ff96
019a
00ff
004d
0156
ffc4
017b
fe1d
fe05
ffb6
01ba
0154
01e9
0103
fed9
fcf0
0235
fdf3
fe23
01f5
015e
0102
ff82
0117
fdc5
fe8e
ffd5
01d1
fdfd
02ec
0155
0294
fec7
0101
ff0a
0094
0182
01ea
00f8
ffea
00ff
fe5e
fdfd
0069
feba
fead
fe13
013e
0046
0005
fda4
009c
0034
fdb4
01f6
fe65
fec0
fe7b
fd62
006d
025f
fede
00eb
032b
020a
fe6e
ff52
0242
009e
0144
0187
ffd7
ff23
fd79
ff59
02b6
001e
fe4c
02b5
0185
011e
00c5
0116
fef5
fde5
fdd5
fdc3
00c4
fee6
0066
fed6
0126
fe61
00da
fdd3
001a
ffbf
fe27
0154
ff77
00e5
013a
fefe
fea0
0186
ff2d
0158
0199
0175
0287
fe31
fe26
00a8
0018
fdfa
0173
0100
001a
010b
01a7
0201
0071
012f
ffee
015b
0183
ff4b
febc
00a8
003a
ffef
ff8e
008c
015e
febe
028d
01b6
feb0
fffa
00ac
fe09
010e
003d
0137
00b5
fe2b
0177
fea3
fe97
fef7
00b5
008a
0041
0144
fe6d
01c6
0080
01a9
0086
ffcf
ff1a
0013
fdb9
ff1a
007b
ff5e
006b
00a7
009c
004e
01a5
ff15
005d
0117
fd94
0218
fe68
fee4
ff72
00af
ff57
ff34
0138
fea4
fdba
ff1c
fe10
013f
ff31
0042
0113
fefb
fe88
ff05
009e
fdd7
fef9
febf
fdcc
fec4
fff8
01af
fec1
0042
011d
0130
ff28
008f
ff27
0020
feb1
0191
007d
fecf
ff69
0100
ff5b
0099
fe3d
fe3a
ffb6
ffbf
00b0
01fe
fe31
fed3
ff03
01e0
01f6
ffcd
fde3
ff61
ffdd
fe7f
ff54
ff69
0117
ffd3
ff3f
fe9b
fe5c
009a
0115
feb0
0146
0059
0278
0162
00d8
ff9a
01f4
fe6b
01c6
0182
feae
0131
01aa
02ae
023e
fea3
02d5
0271
fedd
0160
02d6
fd57
ffc5
011a
fd2d
02a5
fde3
fe72
028f
fec7
fe6e
019d
01f8
fde1
ffa6
fd1f
ff78
02a2
fe32
fe91
0379
ff78
fe8b
fe2e
fd06
0188
fe9d
01c9
fe91
0062
010a
00a2
01f5
fdf0
00d1
ffa3
fecf
0064
02b9
01d3
00fd
0245
0022
00f7
01cc
0235
fe35
ff3d
fe39
00e2
fede
fd0e
fd60
fe87
0024
0222
fe86
00f4
0073
01a0
fd43
019d
fe2a
ffa7
01f8
fec8
00ba
fe39
000f
001c
fde5
0039
ff65
01ea
0069
0126
0060
feca
0104
008c
ff7e
0036
0058
00ba
0054
fe0e
fe4e
0200
fe95
ffed
0169
ff88
ff29
fe12
0137
fe5c
003d
00a7
00eb
0121
0007
0189
005b
ff34
ffb5
ff21
01d2
025c
01db
fff3
fe16
026e
00fa
01aa
003d
020c
ffaa
0040
005a
01bf
006c
007d
0020
fec7
0053
fe70
fdfd
0096
0092
fe4f
fe7e
ff25
ff07
0063
fef0
ff73
012b
00cd
00b7
0182
fdac
fe78
0051
0146
012f
ffec
00b8
ff93
00ca
ffa8
fff4
0203
ff15
0156
00f0
0235
0044
feca
ff57
ff35
ffc8
ff40
024d
002e
fe03
ffd1
ff5c
006a
0247
ff30
0220
01d7
0063
008a
ffbd
fdf7
00f6
ff60
fd99
ff31
fe6a
014c
fe99
fe72
0200
fe94
0067
012f
00ab
ffaf
01b0
ff12
003e
013b
019c
0151
01aa
fe89
ffe5
fee4
031b
fe33
ff04
ff27
0297
ff54
ff14
01b9
ff3c
ffbb
fe7b
fd86
fede
000c
0157
fdd4
0175
0269
fe21
fe85
01ee
01c3
fd6f
ffaa
ffdc
0024
fe7e
fdf8
fe03
fde6
02da
01e2
fe44
018e
fd15
feea
027b
0218
010b
fecf
012e
feb3
01c6
0097
02b2
ff1b
0274
00e0
0195
0053
0245
0232
ff71
fde1
0349
fff0
01c9
042d
ff35
fe79
ffa3
fe1e
fed8
0080
ff66
ffbd
ffc9
fe99
ff70
00b3
fe0a
019e
0232
0220
fe1f
0012
fe1b
ffc9
ffe3
fee5
ff4e
fdfa
ff35
01ad
ffb0
0295
016a
ffc6
ffc8
fd6a
fd42
fe2f
0272
0098
fea5
ffdd
ff33
01b0
01df
ffcb
00f7
ff33
0016
ff10
ffcb
017f
ff2b
fe9b
fe6e
fea4
ff1f
0097
007d
fe51
ff06
ff72
0077
006f
0143
014f
008d
012f
0014
0102
00b1
ff6e
00cd
00a4
00f9
00ad
fe9e
ff73
0059
ff18
ff63
00ed
007f
00ee
ff83
ff15
00a1
ff06
ffee
009b
01e8
014d
ff64
010e
0090
fef3
0153
ff5a
ff96
00bc
00fe
ffb6
00db
012e
01ae
0198
019c
015c
fe30
0039
0111
0021
00b0
01cf
0019
0143
00b6
0045
fe9c
fd63
fde1
0018
feec
010f
fce7
ff6b
ffb9
ffc9
01f9
ff20
007f
014a
fda8
0205
016a
004e
fe61
fe7c
0247
021e
fdec
fe6d
ff49
0086
01ba
fdef
fda0
018a
fe85
ff7e
0170
ff7a
02a4
0065
ff65
00f4
00be
0310
ff8c
fe6c
fe59
fe1b
ffd7
fdd6
0253
01c3
01cf
fe93
fddd
00a8
018d
0050
fe37
0183
0071
0138
fd55
006a
01aa
02d6
fe3f
ffa2
fe83
0032
ffa8
fe67
015a
fef4
001b
ff33
fe5e
01ab
0004
01d6
023e
012c
ffcd
fd5a
fe50
fef5
0157
fe95
ff37
fdf3
ffcc
0128
014f
ffbc
feca
fea0
fdd3
fe87
01b5
fe89
0099
ff12
fe10
002e
005c
ff36
020f
01ae
0055
ffcd
ff02
0201
0102
ffab
0007
01d4
0121
fe79
016a
fe6c
01f6
fe73
0273
fee6
017a
ff23
ff99
ff2a
fe5c
007a
00fb
00d1
ffa2
ff37
01f0
ff99
feba
0007
fe13
ffaf
00ca
ff6d
0008
0142
0090
0147
0146
fdc2
0195
0080
ff38
ff5d
fdc8
fe37
ffe8
0196
ff21
01f9
fe07
0144
ff74
ff23
ff8d
0105
00d1
0020
006e
fda3
fe49
0189
fefd
000e
003a
019e
fd9b
0204
fddd
0116
fe2c
0093
fef0
ff70
ff94
fece
fedb
017e
fed0
0244
022f
00ef
0112
fe65
fe8a
fdf2
ffa0
ffbc
0115
fef7
fec7
0118
fef3
fef3
febe
fdf8
fe7c
0182
0080
00fa
01a6
0125
ff0b
fe87
00e2
014c
00ad
ff01
ffee
ff2a
0101
00c7
ff42
ff73
01a2
00c8
016e
fe5e
fdff
01d6
ff85
008c
0194
fecf
fde6
009a
fe39
feb2
0092
fe44
0136
fe2a
00d4
004e
fec0
005f
0118
0175
00c0
019b
010d
ffb3
ff14
ffd0
fe4a
00cb
01b5
00b5
fe68
fed8
fe51
00e3
0187
ff96
01c4
fe5d
00ea
007a
ff7e
00bf
00ca
fe2e
fe63
fefa
fe0f
003e
fef8
01cf
ff48
0142
01c7
ff68
0074
ff2b
ff42
fe3b
ff76
ffdd
ff33
012e
00cd
ff6c
00b3
fe5f
ff5e
013f
0177
0006
ff29
ff3a
017d
ff54
fe7b
ff98
00a2
ff72
fefa
ff03
00d8
ffc5
fe91
fe29
00bd
ff68
0147
fe9e
0075
ff21
ff6b
ff10
ff9e
ff08
0210
fe19
00fe
ff00
ffd3
016e
0027
ffc2
fef2
fe30
00af
017b
ff31
ff71
fd89
fede
00ed
ffb0
004b
ff0e
ff3c
015a
fe2c
fe6e
00fe
fd8d
01e8
fe08
0309
fd42
008f
02b3
031c
fefd
feb4
016c
ff1f
0275
01ff
00b4
fd98
fec6
0067
fd00
028d
ffa5
fec0
027e
004f
003a
0208
fe0a
fdf9
01ce
0030
0219
00a8
fd62
ffeb
ff83
0141
0137
ffb0
fe58
001d
01a4
016c
025c
